{
  "version": "1.0",
  "truncation": null,
  "padding": null,
  "added_tokens": [
    {
      "id": 0,
      "content": "[PAD]",
      "single_word": false,
      "lstrip": false,
      "rstrip": false,
      "normalized": false,
      "special": true
    },
    {
      "id": 1,
      "content": "[UNK]",
      "single_word": false,
      "lstrip": false,
      "rstrip": false,
      "normalized": false,
      "special": true
    },
    {
      "id": 2,
      "content": "[CLS]",
      "single_word": false,
      "lstrip": false,
      "rstrip": false,
      "normalized": false,
      "special": true
    },
    {
      "id": 3,
      "content": "[SEP]",
      "single_word": false,
      "lstrip": false,
      "rstrip": false,
      "normalized": false,
      "special": true
    },
    {
      "id": 4,
      "content": "[MASK]",
      "single_word": false,
      "lstrip": false,
      "rstrip": false,
      "normalized": false,
      "special": true
    }
  ],
  "normalizer": {
    "type": "BertNormalizer",
    "clean_text": true,
    "handle_chinese_chars": true,
    "strip_accents": null,
    "lowercase": true
  },
  "pre_tokenizer": {
    "type": "BertPreTokenizer"
  },
  "post_processor": {
    "type": "TemplateProcessing",
    "single": [
      {
        "SpecialToken": {
          "id": "[CLS]",
          "type_id": 0
        }
      },
      {
        "Sequence": {
          "id": "A",
          "type_id": 0
        }
      },
      {
        "SpecialToken": {
          "id": "[SEP]",
          "type_id": 0
        }
      }
    ],
    "pair": [
      {
        "SpecialToken": {
          "id": "[CLS]",
          "type_id": 0
        }
      },
      {
        "Sequence": {
          "id": "A",
          "type_id": 0
        }
      },
      {
        "SpecialToken": {
          "id": "[SEP]",
          "type_id": 0
        }
      },
      {
        "Sequence": {
          "id": "B",
          "type_id": 1
        }
      },
      {
        "SpecialToken": {
          "id": "[SEP]",
          "type_id": 1
        }
      }
    ],
    "special_tokens": {
      "[CLS]": {
        "id": "[CLS]",
        "ids": [
          2
        ],
        "tokens": [
          "[CLS]"
        ]
      },
      "[SEP]": {
        "id": "[SEP]",
        "ids": [
          3
        ],
        "tokens": [
          "[SEP]"
        ]
      }
    }
  },
  "decoder": {
    "type": "WordPiece",
    "prefix": "##",
    "cleanup": true
  },
  "model": {
    "type": "WordPiece",
    "unk_token": "[UNK]",
    "continuing_subword_prefix": "##",
    "max_input_chars_per_word": 100,
    "vocab": {
      "[PAD]": 0,
      "[UNK]": 1,
      "[CLS]": 2,
      "[SEP]": 3,
      "[MASK]": 4,
      "!": 5,
      "\"": 6,
      "#": 7,
      "$": 8,
      "%": 9,
      "&": 10,
      "'": 11,
      "(": 12,
      ")": 13,
      "*": 14,
      "+": 15,
      ",": 16,
      "-": 17,
      ".": 18,
      "/": 19,
      "0": 20,
      "1": 21,
      "2": 22,
      "3": 23,
      "4": 24,
      "5": 25,
      "6": 26,
      "7": 27,
      "8": 28,
      "9": 29,
      ":": 30,
      ";": 31,
      "<": 32,
      "=": 33,
      ">": 34,
      "?": 35,
      "@": 36,
      "[": 37,
      "\\": 38,
      "]": 39,
      "^": 40,
      "_": 41,
      "`": 42,
      "a": 43,
      "b": 44,
      "c": 45,
      "d": 46,
      "e": 47,
      "f": 48,
      "g": 49,
      "h": 50,
      "i": 51,
      "j": 52,
      "k": 53,
      "l": 54,
      "m": 55,
      "n": 56,
      "o": 57,
      "p": 58,
      "q": 59,
      "r": 60,
      "s": 61,
      "t": 62,
      "u": 63,
      "v": 64,
      "w": 65,
      "x": 66,
      "y": 67,
      "z": 68,
      "{": 69,
      "|": 70,
      "}": 71,
      "~": 72,
      "¡": 73,
      "¢": 74,
      "£": 75,
      "¤": 76,
      "¥": 77,
      "¦": 78,
      "§": 79,
      "¨": 80,
      "©": 81,
      "ª": 82,
      "«": 83,
      "¬": 84,
      "®": 85,
      "¯": 86,
      "°": 87,
      "±": 88,
      "²": 89,
      "³": 90,
      "´": 91,
      "µ": 92,
      "¶": 93,
      "·": 94,
      "¸": 95,
      "¹": 96,
      "º": 97,
      "»": 98,
      "¼": 99,
      "½": 100,
      "¾": 101,
      "¿": 102,
      "×": 103,
      "ß": 104,
      "æ": 105,
      "ð": 106,
      "÷": 107,
      "ø": 108,
      "þ": 109,
      "đ": 110,
      "ħ": 111,
      "ı": 112,
      "ĳ": 113,
      "ŀ": 114,
      "ł": 115,
      "ŉ": 116,
      "ŋ": 117,
      "œ": 118,
      "ſ": 119,
      "ƀ": 120,
      "ƍ": 121,
      "ƒ": 122,
      "ƕ": 123,
      "ƞ": 124,
      "ƥ": 125,
      "ƨ": 126,
      "ƭ": 127,
      "ƴ": 128,
      "ƶ": 129,
      "ƺ": 130,
      "ƽ": 131,
      "ƿ": 132,
      "ǁ": 133,
      "ǝ": 134,
      "ǥ": 135,
      "ǳ": 136,
      "ȣ": 137,
      "ȥ": 138,
      "ȵ": 139,
      "ȷ": 140,
      "ȸ": 141,
      "ȼ": 142,
      "ɇ": 143,
      "ɐ": 144,
      "ɑ": 145,
      "ɒ": 146,
      "ɔ": 147,
      "ɘ": 148,
      "ə": 149,
      "ɛ": 150,
      "ɜ": 151,
      "ɟ": 152,
      "ɡ": 153,
      "ɣ": 154,
      "ɤ": 155,
      "ɥ": 156,
      "ɨ": 157,
      "ɩ": 158,
      "ɪ": 159,
      "ɮ": 160,
      "ɯ": 161,
      "ɱ": 162,
      "ɲ": 163,
      "ɳ": 164,
      "ɵ": 165,
      "ɸ": 166,
      "ɹ": 167,
      "ɽ": 168,
      "ʀ": 169,
      "ʃ": 170,
      "ʇ": 171,
      "ʈ": 172,
      "ʊ": 173,
      "ʌ": 174,
      "ʍ": 175,
      "ʎ": 176,
      "ʏ": 177,
      "ʒ": 178,
      "ʓ": 179,
      "ʔ": 180,
      "ʘ": 181,
      "ʙ": 182,
      "ʚ": 183,
      "ʞ": 184,
      "ʟ": 185,
      "ʦ": 186,
      "ʧ": 187,
      "ʴ": 188,
      "ʹ": 189,
      "ʺ": 190,
      "ʻ": 191,
      "ʼ": 192,
      "ʽ": 193,
      "ʾ": 194,
      "ʿ": 195,
      "ˀ": 196,
      "˃": 197,
      "˄": 198,
      "ˆ": 199,
      "ˇ": 200,
      "ˉ": 201,
      "ˊ": 202,
      "ˋ": 203,
      "ː": 204,
      "˓": 205,
      "˔": 206,
      "˕": 207,
      "˖": 208,
      "˘": 209,
      "˙": 210,
      "˚": 211,
      "˛": 212,
      "˜": 213,
      "˟": 214,
      "˦": 215,
      "˫": 216,
      "ˬ": 217,
      "˼": 218,
      "͵": 219,
      "ͻ": 220,
      "΄": 221,
      "α": 222,
      "β": 223,
      "γ": 224,
      "δ": 225,
      "ε": 226,
      "ζ": 227,
      "η": 228,
      "θ": 229,
      "ι": 230,
      "κ": 231,
      "λ": 232,
      "μ": 233,
      "ν": 234,
      "ξ": 235,
      "ο": 236,
      "π": 237,
      "ρ": 238,
      "ς": 239,
      "σ": 240,
      "τ": 241,
      "υ": 242,
      "φ": 243,
      "χ": 244,
      "ψ": 245,
      "ω": 246,
      "ϐ": 247,
      "ϑ": 248,
      "ϒ": 249,
      "ϕ": 250,
      "ϖ": 251,
      "ϗ": 252,
      "ϙ": 253,
      "ϛ": 254,
      "ϝ": 255,
      "ϟ": 256,
      "ϣ": 257,
      "ϥ": 258,
      "ϧ": 259,
      "ϩ": 260,
      "ϫ": 261,
      "ϭ": 262,
      "ϯ": 263,
      "ϰ": 264,
      "ϱ": 265,
      "ϲ": 266,
      "ϳ": 267,
      "ϵ": 268,
      "ϸ": 269,
      "ϻ": 270,
      "а": 271,
      "б": 272,
      "в": 273,
      "г": 274,
      "д": 275,
      "е": 276,
      "з": 277,
      "и": 278,
      "к": 279,
      "л": 280,
      "м": 281,
      "н": 282,
      "о": 283,
      "п": 284,
      "р": 285,
      "с": 286,
      "т": 287,
      "у": 288,
      "ф": 289,
      "х": 290,
      "ц": 291,
      "ч": 292,
      "ш": 293,
      "ь": 294,
      "э": 295,
      "я": 296,
      "ђ": 297,
      "є": 298,
      "ѕ": 299,
      "і": 300,
      "ѡ": 301,
      "ѣ": 302,
      "ѱ": 303,
      "ѳ": 304,
      "ѵ": 305,
      "ѽ": 306,
      "ҍ": 307,
      "ғ": 308,
      "ҩ": 309,
      "ҫ": 310,
      "ә": 311,
      "ӡ": 312,
      "ՙ": 313,
      "՚": 314,
      "շ": 315,
      "պ": 316,
      "ռ": 317,
      "ց": 318,
      "־": 319,
      "׀": 320,
      "׃": 321,
      "׉": 322,
      "א": 323,
      "ב": 324,
      "ג": 325,
      "ד": 326,
      "ה": 327,
      "ו": 328,
      "ז": 329,
      "ח": 330,
      "ט": 331,
      "י": 332,
      "ך": 333,
      "כ": 334,
      "ל": 335,
      "ם": 336,
      "מ": 337,
      "ן": 338,
      "נ": 339,
      "ס": 340,
      "ע": 341,
      "ף": 342,
      "פ": 343,
      "ץ": 344,
      "צ": 345,
      "ק": 346,
      "ר": 347,
      "ש": 348,
      "ת": 349,
      "װ": 350,
      "ױ": 351,
      "ײ": 352,
      "׳": 353,
      "״": 354,
      "؉": 355,
      "،": 356,
      "؛": 357,
      "ء": 358,
      "ا": 359,
      "ب": 360,
      "ة": 361,
      "ت": 362,
      "ث": 363,
      "ح": 364,
      "د": 365,
      "ذ": 366,
      "ر": 367,
      "ز": 368,
      "ض": 369,
      "ع": 370,
      "ـ": 371,
      "ف": 372,
      "ق": 373,
      "ل": 374,
      "م": 375,
      "ن": 376,
      "و": 377,
      "٭": 378,
      "ٯ": 379,
      "ٵ": 380,
      "ڊ": 381,
      "ڍ": 382,
      "ں": 383,
      "ۃ": 384,
      "۰": 385,
      "ܟ": 386,
      "ߢ": 387,
      "ऒ": 388,
      "૛": 389,
      "૞": 390,
      "ଗ": 391,
      "ப": 392,
      "ா": 393,
      "෯": 394,
      "๭": 395,
      "຾": 396,
      "ໞ": 397,
      "༐": 398,
      "༑": 399,
      "ཎ": 400,
      "ཐ": 401,
      "࿖": 402,
      "࿥": 403,
      "࿾": 404,
      "တ": 405,
      "႒": 406,
      "ძ": 407,
      "ᄇ": 408,
      "ᄐ": 409,
      "ᅦ": 410,
      "ᅪ": 411,
      "ᆹ": 412,
      "ᆺ": 413,
      "ᇀ": 414,
      "ᑢ": 415,
      "ᗭ": 416,
      "ᛉ": 417,
      "ᛋ": 418,
      "ᛣ": 419,
      "៱": 420,
      "៿": 421,
      "ᦠ": 422,
      "ᴉ": 423,
      "ᴐ": 424,
      "ᴑ": 425,
      "ᴕ": 426,
      "ᴖ": 427,
      "ᴗ": 428,
      "ᴣ": 429,
      "ᵊ": 430,
      "ᵡ": 431,
      "ᵱ": 432,
      "ᵹ": 433,
      "ᶚ": 434,
      "἖": 435,
      "὆": 436,
      "᾵": 437,
      "᾽": 438,
      "᾿": 439,
      "῀": 440,
      "῾": 441,
      "‐": 442,
      "‒": 443,
      "–": 444,
      "—": 445,
      "―": 446,
      "‖": 447,
      "‘": 448,
      "’": 449,
      "‚": 450,
      "‛": 451,
      "“": 452,
      "”": 453,
      "„": 454,
      "†": 455,
      "‡": 456,
      "•": 457,
      "…": 458,
      "‧": 459,
      "‰": 460,
      "‱": 461,
      "′": 462,
      "″": 463,
      "‴": 464,
      "‵": 465,
      "‹": 466,
      "›": 467,
      "※": 468,
      "‾": 469,
      "‿": 470,
      "⁀": 471,
      "⁂": 472,
      "⁊": 473,
      "⁋": 474,
      "⁌": 475,
      "⁍": 476,
      "⁎": 477,
      "⁐": 478,
      "⁑": 479,
      "⁒": 480,
      "⁙": 481,
      "⁛": 482,
      "⁰": 483,
      "ⁱ": 484,
      "⁴": 485,
      "⁵": 486,
      "⁷": 487,
      "⁸": 488,
      "₣": 489,
      "₤": 490,
      "€": 491,
      "₰": 492,
      "₽": 493,
      "⃳": 494,
      "⃽": 495,
      "ℂ": 496,
      "℈": 497,
      "ℒ": 498,
      "℔": 499,
      "ℕ": 500,
      "℞": 501,
      "™": 502,
      "℣": 503,
      "℥": 504,
      "ℨ": 505,
      "℩": 506,
      "ℴ": 507,
      "ℵ": 508,
      "⅄": 509,
      "⅒": 510,
      "⅓": 511,
      "⅔": 512,
      "⅕": 513,
      "⅖": 514,
      "⅗": 515,
      "⅘": 516,
      "⅙": 517,
      "⅚": 518,
      "⅛": 519,
      "⅜": 520,
      "⅝": 521,
      "⅞": 522,
      "⅟": 523,
      "ⅻ": 524,
      "ↄ": 525,
      "←": 526,
      "↑": 527,
      "→": 528,
      "↓": 529,
      "↔": 530,
      "↕": 531,
      "↠": 532,
      "↢": 533,
      "↣": 534,
      "↦": 535,
      "⇄": 536,
      "⇐": 537,
      "⇒": 538,
      "⇓": 539,
      "⇔": 540,
      "⇸": 541,
      "∀": 542,
      "∂": 543,
      "∅": 544,
      "∆": 545,
      "∈": 546,
      "∊": 547,
      "∏": 548,
      "∐": 549,
      "∑": 550,
      "−": 551,
      "∓": 552,
      "∔": 553,
      "∕": 554,
      "∖": 555,
      "∗": 556,
      "∘": 557,
      "∙": 558,
      "√": 559,
      "∛": 560,
      "∜": 561,
      "∝": 562,
      "∞": 563,
      "∟": 564,
      "∠": 565,
      "∣": 566,
      "∥": 567,
      "∧": 568,
      "∨": 569,
      "∩": 570,
      "∪": 571,
      "∫": 572,
      "∯": 573,
      "∲": 574,
      "∴": 575,
      "∵": 576,
      "∶": 577,
      "∷": 578,
      "∸": 579,
      "∺": 580,
      "∼": 581,
      "∽": 582,
      "∾": 583,
      "≃": 584,
      "≈": 585,
      "≏": 586,
      "≑": 587,
      "≙": 588,
      "≡": 589,
      "≤": 590,
      "≥": 591,
      "≦": 592,
      "≧": 593,
      "≨": 594,
      "≪": 595,
      "≫": 596,
      "≶": 597,
      "≷": 598,
      "⊊": 599,
      "⊎": 600,
      "⊔": 601,
      "⊕": 602,
      "⊙": 603,
      "⊚": 604,
      "⊡": 605,
      "⊢": 606,
      "⊣": 607,
      "⊤": 608,
      "⊥": 609,
      "⊺": 610,
      "⋀": 611,
      "⋁": 612,
      "⋅": 613,
      "⋆": 614,
      "⋎": 615,
      "⋝": 616,
      "⋮": 617,
      "⋯": 618,
      "⋱": 619,
      "⌃": 620,
      "⌅": 621,
      "⌆": 622,
      "⌇": 623,
      "⌈": 624,
      "⌉": 625,
      "⌒": 626,
      "⌕": 627,
      "⌖": 628,
      "⌢": 629,
      "⌣": 630,
      "⍘": 631,
      "⍦": 632,
      "⍳": 633,
      "⍵": 634,
      "⎕": 635,
      "⎫": 636,
      "⎬": 637,
      "⎭": 638,
      "⏑": 639,
      "①": 640,
      "②": 641,
      "③": 642,
      "④": 643,
      "⑤": 644,
      "⑥": 645,
      "⑧": 646,
      "⑫": 647,
      "⑬": 648,
      "ⓖ": 649,
      "ⓩ": 650,
      "⓪": 651,
      "─": 652,
      "│": 653,
      "┏": 654,
      "┐": 655,
      "┚": 656,
      "┩": 657,
      "┬": 658,
      "┳": 659,
      "┴": 660,
      "┼": 661,
      "═": 662,
      "╧": 663,
      "╳": 664,
      "■": 665,
      "□": 666,
      "▫": 667,
      "▬": 668,
      "▭": 669,
      "▱": 670,
      "▲": 671,
      "△": 672,
      "▴": 673,
      "▵": 674,
      "►": 675,
      "▼": 676,
      "▽": 677,
      "◄": 678,
      "◆": 679,
      "◇": 680,
      "○": 681,
      "●": 682,
      "◠": 683,
      "◡": 684,
      "◦": 685,
      "◪": 686,
      "◯": 687,
      "◻": 688,
      "◽": 689,
      "★": 690,
      "☆": 691,
      "☉": 692,
      "☊": 693,
      "☋": 694,
      "☌": 695,
      "☍": 696,
      "☐": 697,
      "☙": 698,
      "☚": 699,
      "☛": 700,
      "☜": 701,
      "☞": 702,
      "☩": 703,
      "☼": 704,
      "☽": 705,
      "☾": 706,
      "☿": 707,
      "♀": 708,
      "♁": 709,
      "♂": 710,
      "♃": 711,
      "♄": 712,
      "♈": 713,
      "♉": 714,
      "♊": 715,
      "♋": 716,
      "♌": 717,
      "♍": 718,
      "♎": 719,
      "♏": 720,
      "♐": 721,
      "♑": 722,
      "♒": 723,
      "♓": 724,
      "♠": 725,
      "♡": 726,
      "♢": 727,
      "♣": 728,
      "♥": 729,
      "♦": 730,
      "♩": 731,
      "♪": 732,
      "♬": 733,
      "♭": 734,
      "♮": 735,
      "♯": 736,
      "♰": 737,
      "⚫": 738,
      "⚬": 739,
      "⛤": 740,
      "✓": 741,
      "✕": 742,
      "✝": 743,
      "✠": 744,
      "✡": 745,
      "✢": 746,
      "✪": 747,
      "✱": 748,
      "✳": 749,
      "✼": 750,
      "❁": 751,
      "❋": 752,
      "❖": 753,
      "❘": 754,
      "❡": 755,
      "❦": 756,
      "❧": 757,
      "❪": 758,
      "➛": 759,
      "⟂": 760,
      "⡗": 761,
      "⤟": 762,
      "⦙": 763,
      "⦣": 764,
      "⦶": 765,
      "⨀": 766,
      "⩗": 767,
      "⩷": 768,
      "⩽": 769,
      "⪌": 770,
      "⪙": 771,
      "⪚": 772,
      "⫟": 773,
      "⫨": 774,
      "ⴀ": 775,
      "ⴷ": 776,
      "ⵀ": 777,
      "⸗": 778,
      "⽝": 779,
      "〈": 780,
      "〉": 781,
      "〟": 782,
      "〰": 783,
      "〲": 784,
      "〳": 785,
      "〹": 786,
      "し": 787,
      "元": 788,
      "绿": 789,
      "ꝑ": 790,
      "ꝓ": 791,
      "ꝗ": 792,
      "ꝙ": 793,
      "ꝝ": 794,
      "ꝭ": 795,
      "ꝰ": 796,
      "ꝶ": 797,
      "ꞵ": 798,
      "ꭕ": 799,
      "ꮙ": 800,
      "ﬁ": 801,
      "ﬂ": 802,
      "ﬃ": 803,
      "ﬠ": 804,
      "ﬡ": 805,
      "ﬢ": 806,
      "ﬣ": 807,
      "ﬤ": 808,
      "ﬥ": 809,
      "ﬦ": 810,
      "ﬧ": 811,
      "ﬨ": 812,
      "ﭏ": 813,
      "ﭙ": 814,
      "ﮔ": 815,
      "ﮬ": 816,
      "ﯩ": 817,
      "ﯾ": 818,
      "ﰆ": 819,
      "ﲝ": 820,
      "ﲣ": 821,
      "ﲩ": 822,
      "ﳊ": 823,
      "ﳌ": 824,
      "ﳎ": 825,
      "ﳏ": 826,
      "ﳓ": 827,
      "ﳣ": 828,
      "︵": 829,
      "︶": 830,
      "︷": 831,
      "︸": 832,
      "ﺋ": 833,
      "ﺎ": 834,
      "ﺐ": 835,
      "ﺑ": 836,
      "ﺒ": 837,
      "ﺔ": 838,
      "ﺖ": 839,
      "ﺗ": 840,
      "ﺘ": 841,
      "ﺞ": 842,
      "ﺟ": 843,
      "ﺣ": 844,
      "ﺧ": 845,
      "ﺪ": 846,
      "ﺮ": 847,
      "ﺰ": 848,
      "ﺲ": 849,
      "ﺳ": 850,
      "ﺴ": 851,
      "ﺷ": 852,
      "ﺸ": 853,
      "ﺼ": 854,
      "ﺿ": 855,
      "ﻀ": 856,
      "ﻂ": 857,
      "ﻃ": 858,
      "ﻄ": 859,
      "ﻊ": 860,
      "ﻋ": 861,
      "ﻌ": 862,
      "ﻎ": 863,
      "ﻏ": 864,
      "ﻐ": 865,
      "ﻓ": 866,
      "ﻔ": 867,
      "ﻗ": 868,
      "ﻘ": 869,
      "ﻚ": 870,
      "ﻛ": 871,
      "ﻜ": 872,
      "ﻞ": 873,
      "ﻟ": 874,
      "ﻠ": 875,
      "ﻢ": 876,
      "ﻣ": 877,
      "ﻤ": 878,
      "ﻦ": 879,
      "ﻧ": 880,
      "ﻨ": 881,
      "ﻪ": 882,
      "ﻫ": 883,
      "ﻬ": 884,
      "ﻮ": 885,
      "ﻰ": 886,
      "ﻴ": 887,
      "ﻻ": 888,
      "ﻼ": 889,
      "＋": 890,
      "＜": 891,
      "＝": 892,
      "］": 893,
      "ｂ": 894,
      "ｔ": 895,
      "￬": 896,
      "￮": 897,
      "￵": 898,
      "￶": 899,
      "￼": 900,
      "##u": 901,
      "##i": 902,
      "##t": 903,
      "##o": 904,
      "##e": 905,
      "##n": 906,
      "##c": 907,
      "##a": 908,
      "##l": 909,
      "##r": 910,
      "##v": 911,
      "##p": 912,
      "##d": 913,
      "##y": 914,
      "##f": 915,
      "##m": 916,
      "##g": 917,
      "##s": 918,
      "##j": 919,
      "##♦": 920,
      "##b": 921,
      "##h": 922,
      "##z": 923,
      "##w": 924,
      "##■": 925,
      "##6": 926,
      "##k": 927,
      "##ß": 928,
      "##q": 929,
      "##7": 930,
      "##x": 931,
      "##°": 932,
      "##π": 933,
      "##ε": 934,
      "##β": 935,
      "##ο": 936,
      "##υ": 937,
      "##λ": 938,
      "##σ": 939,
      "##α": 940,
      "##ν": 941,
      "##ƒ": 942,
      "##2": 943,
      "##1": 944,
      "##3": 945,
      "##4": 946,
      "##5": 947,
      "##£": 948,
      "##™": 949,
      "##8": 950,
      "##9": 951,
      "##0": 952,
      "##®": 953,
      "##¥": 954,
      "##±": 955,
      "##¬": 956,
      "##χ": 957,
      "##ι": 958,
      "##ς": 959,
      "##©": 960,
      "##ɇ": 961,
      "##€": 962,
      "##³": 963,
      "##¦": 964,
      "##ϑ": 965,
      "##ϛ": 966,
      "##η": 967,
      "##τ": 968,
      "##œ": 969,
      "##ꝰ": 970,
      "##□": 971,
      "##᾽": 972,
      "##γ": 973,
      "##ω": 974,
      "##ξ": 975,
      "##δ": 976,
      "##ﯾ": 977,
      "##ﺎ": 978,
      "##ـ": 979,
      "##ﻘ": 980,
      "##ﺳ": 981,
      "##י": 982,
      "##ב": 983,
      "##ל": 984,
      "##ח": 985,
      "##ו": 986,
      "##ר": 987,
      "##κ": 988,
      "##ϱ": 989,
      "##ϵ": 990,
      "##μ": 991,
      "##ĳ": 992,
      "##ϰ": 993,
      "##ə": 994,
      "##¼": 995,
      "##˙": 996,
      "##æ": 997,
      "##þ": 998,
      "##ﬂ": 999,
      "##ı": 1000,
      "##ψ": 1001,
      "##★": 1002,
      "##ª": 1003,
      "##ø": 1004,
      "##ɛ": 1005,
      "##ʧ": 1006,
      "##и": 1007,
      "##θ": 1008,
      "##ρ": 1009,
      "##❘": 1010,
      "##ﬁ": 1011,
      "##ð": 1012,
      "##φ": 1013,
      "##ᴕ": 1014,
      "##ϕ": 1015,
      "##¨": 1016,
      "##א": 1017,
      "##ŋ": 1018,
      "##►": 1019,
      "##´": 1020,
      "##ה": 1021,
      "##מ": 1022,
      "##ζ": 1023,
      "##▼": 1024,
      "##ט": 1025,
      "##ס": 1026,
      "##×": 1027,
      "##⃳": 1028,
      "##½": 1029,
      "##ʾ": 1030,
      "##ך": 1031,
      "##ʺ": 1032,
      "##ꝶ": 1033,
      "##ש": 1034,
      "##פ": 1035,
      "##כ": 1036,
      "##ם": 1037,
      "##ſ": 1038,
      "##⅝": 1039,
      "##᾿": 1040,
      "##◡": 1041,
      "##₽": 1042,
      "##ן": 1043,
      "##¯": 1044,
      "##נ": 1045,
      "##ת": 1046,
      "##ק": 1047,
      "##◠": 1048,
      "##ƀ": 1049,
      "##ʒ": 1050,
      "##⅘": 1051,
      "##√": 1052,
      "##¾": 1053,
      "##ז": 1054,
      "##∥": 1055,
      "##῀": 1056,
      "##ɔ": 1057,
      "##ˆ": 1058,
      "##ϒ": 1059,
      "##ʹ": 1060,
      "##ɣ": 1061,
      "##៱": 1062,
      "##ꝗ": 1063,
      "##đ": 1064,
      "##ʼ": 1065,
      "##♂": 1066,
      "##е": 1067,
      "##צ": 1068,
      "##ד": 1069,
      "##⅕": 1070,
      "##ɪ": 1071,
      "##∊": 1072,
      "##ȣ": 1073,
      "##ł": 1074,
      "##ﻧ": 1075,
      "##ﻤ": 1076,
      "##ﻴ": 1077,
      "##ﻟ": 1078,
      "##ا": 1079,
      "##℣": 1080,
      "##ʔ": 1081,
      "##ג": 1082,
      "##б": 1083,
      "##ѡ": 1084,
      "##∴": 1085,
      "##в": 1086,
      "##∷": 1087,
      "##⋆": 1088,
      "##ɑ": 1089,
      "##⅜": 1090,
      "##❖": 1091,
      "##ע": 1092,
      "##✓": 1093,
      "##ϐ": 1094,
      "##￼": 1095,
      "##ﯩ": 1096,
      "##ﻠ": 1097,
      "##ﻗ": 1098,
      "##ﬠ": 1099,
      "##о": 1100,
      "##с": 1101,
      "##ʃ": 1102,
      "##у": 1103,
      "##⅙": 1104,
      "##⅓": 1105,
      "##⅔": 1106,
      "##а": 1107,
      "##п": 1108,
      "##ʽ": 1109,
      "##ں": 1110,
      "##ﻓ": 1111,
      "##ر": 1112,
      "##т": 1113,
      "##ƿ": 1114,
      "##÷": 1115,
      "##▴": 1116,
      "##²": 1117,
      "##ﺮ": 1118,
      "##و": 1119,
      "##ﺒ": 1120,
      "##ﻣ": 1121,
      "##ȷ": 1122,
      "##⇔": 1123,
      "##⅖": 1124,
      "##∼": 1125,
      "##ː": 1126,
      "##⅛": 1127,
      "##∂": 1128,
      "##ף": 1129,
      "##ь": 1130,
      "##∣": 1131,
      "##⁰": 1132,
      "##◄": 1133,
      "##˘": 1134,
      "##¸": 1135,
      "##∘": 1136,
      "##¢": 1137,
      "##ɩ": 1138,
      "##ɐ": 1139,
      "##ɯ": 1140,
      "##ˬ": 1141,
      "##ƽ": 1142,
      "##ﲝ": 1143,
      "##⊎": 1144,
      "##ױ": 1145,
      "##ໞ": 1146,
      "##♄": 1147,
      "##˜": 1148,
      "##ﻮ": 1149,
      "##ٵ": 1150,
      "##῾": 1151,
      "##ϖ": 1152,
      "##↑": 1153,
      "##ﻫ": 1154,
      "##ڊ": 1155,
      "##ץ": 1156,
      "##ʊ": 1157,
      "##˔": 1158,
      "##→": 1159,
      "##ϲ": 1160,
      "##ʇ": 1161,
      "##〳": 1162,
      "##ә": 1163,
      "##х": 1164,
      "##ϧ": 1165,
      "##ப": 1166,
      "##ײ": 1167,
      "##װ": 1168,
      "##ꝑ": 1169,
      "##ϙ": 1170,
      "##ғ": 1171,
      "##♉": 1172,
      "##ħ": 1173,
      "##ʈ": 1174,
      "##ɒ": 1175,
      "##∆": 1176,
      "##˟": 1177,
      "##˦": 1178,
      "##ꞵ": 1179,
      "##ʌ": 1180,
      "##º": 1181,
      "##˖": 1182,
      "##ǝ": 1183,
      "##᾵": 1184,
      "##л": 1185,
      "##ђ": 1186,
      "##к": 1187,
      "##▲": 1188,
      "##〲": 1189,
      "##⅞": 1190,
      "##ﺿ": 1191,
      "##ﻻ": 1192,
      "##є": 1193,
      "##∪": 1194,
      "##│": 1195,
      "##׉": 1196,
      "##ﻄ": 1197,
      "##♈": 1198,
      "##΄": 1199,
      "##ʻ": 1200,
      "##¹": 1201,
      "##ɲ": 1202,
      "##ѣ": 1203,
      "##−": 1204,
      "##し": 1205,
      "##☜": 1206,
      "##⅚": 1207,
      "##ↄ": 1208,
      "##ﻌ": 1209,
      "##⌢": 1210,
      "##∶": 1211,
      "##∙": 1212,
      "##℔": 1213,
      "##ﻬ": 1214,
      "##ﺑ": 1215,
      "##⅗": 1216,
      "##ﬃ": 1217,
      "##˕": 1218,
      "##ن": 1219,
      "##♬": 1220,
      "##ɹ": 1221,
      "##ՙ": 1222,
      "##☩": 1223,
      "##ƍ": 1224,
      "##♠": 1225,
      "##ϟ": 1226,
      "##ﳊ": 1227,
      "##ˊ": 1228,
      "##ﳎ": 1229,
      "##ﳏ": 1230,
      "##ܟ": 1231,
      "##ϭ": 1232,
      "##⁴": 1233,
      "##պ": 1234,
      "##┴": 1235,
      "##р": 1236,
      "##ƺ": 1237,
      "##µ": 1238,
      "##ﻃ": 1239,
      "##ϣ": 1240,
      "##ˋ": 1241,
      "##͵": 1242,
      "##ﻋ": 1243,
      "##＋": 1244,
      "##တ": 1245,
      "##ᵊ": 1246,
      "##ﻛ": 1247,
      "##ﺸ": 1248,
      "##і": 1249,
      "##⋅": 1250,
      "##☞": 1251,
      "##∧": 1252,
      "##ҫ": 1253,
      "##ℨ": 1254,
      "##ﻔ": 1255,
      "##ﳓ": 1256,
      "##ﺼ": 1257,
      "##ﺣ": 1258,
      "##ϩ": 1259,
      "##ҩ": 1260,
      "##≃": 1261,
      "##ϗ": 1262,
      "##┐": 1263,
      "##ﬥ": 1264,
      "##①": 1265,
      "##ꝝ": 1266,
      "##⍵": 1267,
      "##ф": 1268,
      "##຾": 1269,
      "##˫": 1270,
      "##ʍ": 1271,
      "##◻": 1272,
      "##г": 1273,
      "##ռ": 1274,
      "##☆": 1275,
      "##ɤ": 1276,
      "##ᴖ": 1277,
      "##ﻨ": 1278,
      "##▭": 1279,
      "##ﺰ": 1280,
      "##♣": 1281,
      "##❋": 1282,
      "##ﻼ": 1283,
      "##ﮬ": 1284,
      "##ﺘ": 1285,
      "##ﺗ": 1286,
      "##ѳ": 1287,
      "##⩽": 1288,
      "##ᄇ": 1289,
      "##ᅪ": 1290,
      "##ᇀ": 1291,
      "##˓": 1292,
      "##ᴉ": 1293,
      "##ᛋ": 1294,
      "##∞": 1295,
      "##ꮙ": 1296,
      "##₤": 1297,
      "##ͻ": 1298,
      "##￶": 1299,
      "##┩": 1300,
      "##ʿ": 1301,
      "##ﭏ": 1302,
      "##ﺧ": 1303,
      "##ᵹ": 1304,
      "##◦": 1305,
      "##ȥ": 1306,
      "##ﭙ": 1307,
      "##ѽ": 1308,
      "##ﻜ": 1309,
      "##ɡ": 1310,
      "##ѕ": 1311,
      "##ѵ": 1312,
      "##℩": 1313,
      "##ƴ": 1314,
      "##∠": 1315,
      "##὆": 1316,
      "##ꝭ": 1317,
      "##♌": 1318,
      "##♭": 1319,
      "##⑫": 1320,
      "##ꝙ": 1321,
      "##ℴ": 1322,
      "##ȵ": 1323,
      "##∨": 1324,
      "##ʟ": 1325,
      "##ﮔ": 1326,
      "##☉": 1327,
      "##♎": 1328,
      "##ϸ": 1329,
      "##ﺴ": 1330,
      "##ﻏ": 1331,
      "##↦": 1332,
      "##н": 1333,
      "##ɱ": 1334,
      "##ϫ": 1335,
      "##ӡ": 1336,
      "##д": 1337,
      "##ﳣ": 1338,
      "##ϝ": 1339,
      "##ϯ": 1340,
      "##ﲩ": 1341,
      "##ɳ": 1342,
      "##ϳ": 1343,
      "##ɵ": 1344,
      "##⁵": 1345,
      "##ҍ": 1346,
      "##⌣": 1347,
      "##ƞ": 1348,
      "##❁": 1349,
      "##∈": 1350,
      "##ﻀ": 1351,
      "##ﬨ": 1352,
      "##ﺟ": 1353,
      "##๭": 1354,
      "##⌅": 1355,
      "##ᅦ": 1356,
      "##ᆹ": 1357,
      "##☋": 1358,
      "##⦣": 1359,
      "##د": 1360,
      "##≑": 1361,
      "##ᴐ": 1362,
      "##♪": 1363,
      "##ء": 1364,
      "##ˇ": 1365,
      "##ﺪ": 1366,
      "##♃": 1367,
      "##◯": 1368,
      "##ف": 1369,
      "##ﻐ": 1370,
      "##♩": 1371,
      "##ⁱ": 1372,
      "##ʙ": 1373,
      "##②": 1374,
      "##м": 1375,
      "##♥": 1376,
      "##ˉ": 1377,
      "##⑧": 1378,
      "##∅": 1379,
      "##ˀ": 1380,
      "##✠": 1381,
      "##≙": 1382,
      "##ɥ": 1383,
      "##∲": 1384,
      "##ꭕ": 1385,
      "##៿": 1386,
      "##ﬧ": 1387,
      "##ŀ": 1388,
      "##♀": 1389,
      "##⋱": 1390,
      "##ǁ": 1391,
      "##⍳": 1392,
      "##☊": 1393,
      "##˄": 1394,
      "##ℒ": 1395,
      "##⊚": 1396,
      "##ﬢ": 1397,
      "##ﬦ": 1398,
      "##ɸ": 1399,
      "##➛": 1400,
      "##ɘ": 1401,
      "##ϥ": 1402,
      "##ᆺ": 1403,
      "##࿖": 1404,
      "##⁷": 1405,
      "##ǥ": 1406,
      "##ﳌ": 1407,
      "##ɮ": 1408,
      "##૞": 1409,
      "##ɟ": 1410,
      "##∑": 1411,
      "##˚": 1412,
      "##ﺋ": 1413,
      "##ﺷ": 1414,
      "##ŉ": 1415,
      "##⁸": 1416,
      "##○": 1417,
      "##∫": 1418,
      "##ɨ": 1419,
      "##⍘": 1420,
      "##←": 1421,
      "##ｔ": 1422,
      "##♯": 1423,
      "##ｂ": 1424,
      "##з": 1425,
      "##἖": 1426,
      "##ʞ": 1427,
      "##ꝓ": 1428,
      "##∵": 1429,
      "##⌕": 1430,
      "##◽": 1431,
      "##ذ": 1432,
      "##☼": 1433,
      "##ڍ": 1434,
      "##♊": 1435,
      "##ཐ": 1436,
      "##ٯ": 1437,
      "##ш": 1438,
      "##⑬": 1439,
      "##ز": 1440,
      "##⇓": 1441,
      "##⤟": 1442,
      "##en": 1443,
      "##er": 1444,
      "##an": 1445,
      "##ij": 1446,
      "##et": 1447,
      "de": 1448,
      "##el": 1449,
      "##oo": 1450,
      "##ch": 1451,
      "##aa": 1452,
      "##in": 1453,
      "##st": 1454,
      "van": 1455,
      "en": 1456,
      "##ie": 1457,
      "##de": 1458,
      "##oor": 1459,
      "ge": 1460,
      "##ing": 1461,
      "##den": 1462,
      "##at": 1463,
      "in": 1464,
      "het": 1465,
      "##aar": 1466,
      "##on": 1467,
      "##it": 1468,
      "##der": 1469,
      "##ig": 1470,
      "te": 1471,
      "ver": 1472,
      "een": 1473,
      "##oe": 1474,
      "##or": 1475,
      "be": 1476,
      "##sch": 1477,
      "##ee": 1478,
      "##gen": 1479,
      "##ar": 1480,
      "##cht": 1481,
      "##al": 1482,
      "##ge": 1483,
      "on": 1484,
      "voor": 1485,
      "op": 1486,
      "##re": 1487,
      "den": 1488,
      "al": 1489,
      "aan": 1490,
      "##eer": 1491,
      "##ijk": 1492,
      "##ou": 1493,
      "##ijn": 1494,
      "##ei": 1495,
      "st": 1496,
      "##ken": 1497,
      "##le": 1498,
      "dat": 1499,
      "##ver": 1500,
      "##ol": 1501,
      "##and": 1502,
      "##om": 1503,
      "##is": 1504,
      "##ur": 1505,
      "##ot": 1506,
      "##ven": 1507,
      "is": 1508,
      "##te": 1509,
      "##iet": 1510,
      "##am": 1511,
      "zijn": 1512,
      "met": 1513,
      "der": 1514,
      "##ra": 1515,
      "##ien": 1516,
      "##il": 1517,
      "die": 1518,
      "##un": 1519,
      "##aat": 1520,
      "##ft": 1521,
      "he": 1522,
      "uit": 1523,
      "niet": 1524,
      "##elijk": 1525,
      "wor": 1526,
      "##ag": 1527,
      "##as": 1528,
      "door": 1529,
      "##ze": 1530,
      "##ten": 1531,
      "sch": 1532,
      "re": 1533,
      "bij": 1534,
      "##ier": 1535,
      "##eid": 1536,
      "om": 1537,
      "##een": 1538,
      "##og": 1539,
      "##ui": 1540,
      "##ul": 1541,
      "##us": 1542,
      "##aan": 1543,
      "##ad": 1544,
      "##len": 1545,
      "##em": 1546,
      "gr": 1547,
      "over": 1548,
      "le": 1549,
      "tot": 1550,
      "##ingen": 1551,
      "wer": 1552,
      "##ers": 1553,
      "##rij": 1554,
      "##dig": 1555,
      "##ok": 1556,
      "er": 1557,
      "we": 1558,
      "##ste": 1559,
      "als": 1560,
      "##eld": 1561,
      "waar": 1562,
      "zoo": 1563,
      "onder": 1564,
      "men": 1565,
      "##sche": 1566,
      "##pen": 1567,
      "##kt": 1568,
      "of": 1569,
      "##heid": 1570,
      "##es": 1571,
      "##zen": 1572,
      "##nen": 1573,
      "dan": 1574,
      "##aal": 1575,
      "##ke": 1576,
      "##ang": 1577,
      "worden": 1578,
      "daar": 1579,
      "##ond": 1580,
      "##ele": 1581,
      "an": 1582,
      "wel": 1583,
      "##he": 1584,
      "##we": 1585,
      "##ri": 1586,
      "hij": 1587,
      "##oen": 1588,
      "##ich": 1589,
      "##ap": 1590,
      "##ent": 1591,
      "##id": 1592,
      "##ant": 1593,
      "##ster": 1594,
      "af": 1595,
      "##dt": 1596,
      "vol": 1597,
      "##ige": 1598,
      "##eeft": 1599,
      "bl": 1600,
      "##sl": 1601,
      "ook": 1602,
      "##bb": 1603,
      "##oet": 1604,
      "sp": 1605,
      "ze": 1606,
      "maar": 1607,
      "##uit": 1608,
      "heeft": 1609,
      "zich": 1610,
      "br": 1611,
      "pr": 1612,
      "##ct": 1613,
      "ar": 1614,
      "##omen": 1615,
      "wij": 1616,
      "##ve": 1617,
      "zij": 1618,
      "was": 1619,
      "##elen": 1620,
      "dit": 1621,
      "ter": 1622,
      "##ouw": 1623,
      "vr": 1624,
      "alle": 1625,
      "##icht": 1626,
      "##sten": 1627,
      "##ik": 1628,
      "##ter": 1629,
      "deze": 1630,
      "ont": 1631,
      "##aren": 1632,
      "hoo": 1633,
      "##be": 1634,
      "##ak": 1635,
      "pl": 1636,
      "##bben": 1637,
      "na": 1638,
      "zal": 1639,
      "##ds": 1640,
      "##lijk": 1641,
      "ik": 1642,
      "naar": 1643,
      "18": 1644,
      "ten": 1645,
      "##oon": 1646,
      "##sp": 1647,
      "gen": 1648,
      "gev": 1649,
      "hebben": 1650,
      "heer": 1651,
      "##onder": 1652,
      "##uw": 1653,
      "bet": 1654,
      "##br": 1655,
      "##wij": 1656,
      "eene": 1657,
      "nog": 1658,
      "##acht": 1659,
      "##sen": 1660,
      "##ker": 1661,
      "##op": 1662,
      "##land": 1663,
      "##igen": 1664,
      "##gt": 1665,
      "##uk": 1666,
      "##uur": 1667,
      "##oed": 1668,
      "dr": 1669,
      "toe": 1670,
      "##ne": 1671,
      "##oer": 1672,
      "groo": 1673,
      "me": 1674,
      "##00": 1675,
      "##gel": 1676,
      "##ic": 1677,
      "wat": 1678,
      "gem": 1679,
      "##ger": 1680,
      "wordt": 1681,
      "eer": 1682,
      "##ber": 1683,
      "ma": 1684,
      "##ut": 1685,
      "##erk": 1686,
      "ne": 1687,
      "##wee": 1688,
      "zou": 1689,
      "ander": 1690,
      "bel": 1691,
      "am": 1692,
      "##och": 1693,
      "##ff": 1694,
      "##schen": 1695,
      "tegen": 1696,
      "verk": 1697,
      "##men": 1698,
      "##bl": 1699,
      "ber": 1700,
      "##ug": 1701,
      "##art": 1702,
      "##je": 1703,
      "meer": 1704,
      "##stel": 1705,
      "geen": 1706,
      "had": 1707,
      "beh": 1708,
      "##uis": 1709,
      "kun": 1710,
      "moet": 1711,
      "des": 1712,
      "##elf": 1713,
      "best": 1714,
      "fr": 1715,
      "kan": 1716,
      "hun": 1717,
      "ons": 1718,
      "haar": 1719,
      "19": 1720,
      "hier": 1721,
      "##um": 1722,
      "gel": 1723,
      "##dam": 1724,
      "##racht": 1725,
      "##oek": 1726,
      "min": 1727,
      "##onden": 1728,
      "##deel": 1729,
      "##aats": 1730,
      "ged": 1731,
      "##ijd": 1732,
      "##aag": 1733,
      "##aten": 1734,
      "wil": 1735,
      "##oop": 1736,
      "##os": 1737,
      "hem": 1738,
      "va": 1739,
      "zul": 1740,
      "##elijke": 1741,
      "##hou": 1742,
      "##eel": 1743,
      "##ir": 1744,
      "se": 1745,
      "##aam": 1746,
      "con": 1747,
      "werd": 1748,
      "dien": 1749,
      "la": 1750,
      "gew": 1751,
      "##atie": 1752,
      "geb": 1753,
      "##van": 1754,
      "##dag": 1755,
      "nie": 1756,
      "##ist": 1757,
      "##omm": 1758,
      "##iss": 1759,
      "##aak": 1760,
      "werk": 1761,
      "##pl": 1762,
      "el": 1763,
      "##oord": 1764,
      "##ders": 1765,
      "##ende": 1766,
      "##ans": 1767,
      "ger": 1768,
      "##end": 1769,
      "##ion": 1770,
      "nu": 1771,
      "kon": 1772,
      "bed": 1773,
      "##gem": 1774,
      "##agen": 1775,
      "sl": 1776,
      "##schap": 1777,
      "##chter": 1778,
      "##rek": 1779,
      "##zer": 1780,
      "her": 1781,
      "##iek": 1782,
      "wet": 1783,
      "##me": 1784,
      "twee": 1785,
      "##ust": 1786,
      "bo": 1787,
      "ad": 1788,
      "##ii": 1789,
      "##komen": 1790,
      "kunnen": 1791,
      "##res": 1792,
      "##gev": 1793,
      "ou": 1794,
      "bev": 1795,
      "##wer": 1796,
      "##aad": 1797,
      "kl": 1798,
      "##ga": 1799,
      "welke": 1800,
      "##ort": 1801,
      "##fd": 1802,
      "##se": 1803,
      "##oem": 1804,
      "##are": 1805,
      "##oel": 1806,
      "##gens": 1807,
      "gez": 1808,
      "per": 1809,
      "ch": 1810,
      "##eeds": 1811,
      "##deren": 1812,
      "##im": 1813,
      "##oc": 1814,
      "beg": 1815,
      "hand": 1816,
      "##of": 1817,
      "th": 1818,
      "jaar": 1819,
      "##tr": 1820,
      "##dien": 1821,
      "##del": 1822,
      "bez": 1823,
      "no": 1824,
      "##amen": 1825,
      "10": 1826,
      "zeer": 1827,
      "##ind": 1828,
      "or": 1829,
      "art": 1830,
      "tr": 1831,
      "##ogen": 1832,
      "hoe": 1833,
      "moe": 1834,
      "goed": 1835,
      "##ling": 1836,
      "##od": 1837,
      "onze": 1838,
      "##uiten": 1839,
      "plaats": 1840,
      "##gd": 1841,
      "neder": 1842,
      "##ia": 1843,
      "##nem": 1844,
      "##waar": 1845,
      "versch": 1846,
      "vor": 1847,
      "##str": 1848,
      "zullen": 1849,
      "11": 1850,
      "fran": 1851,
      "##ire": 1852,
      "verl": 1853,
      "##ief": 1854,
      "##eek": 1855,
      "##ann": 1856,
      "et": 1857,
      "##ische": 1858,
      "doen": 1859,
      "##ite": 1860,
      "laat": 1861,
      "ben": 1862,
      "je": 1863,
      "##ood": 1864,
      "gesch": 1865,
      "##igt": 1866,
      "groot": 1867,
      "tijd": 1868,
      "##au": 1869,
      "##ip": 1870,
      "##innen": 1871,
      "zelf": 1872,
      "##oot": 1873,
      "##yn": 1874,
      "gele": 1875,
      "verb": 1876,
      "andere": 1877,
      "gehe": 1878,
      "##alen": 1879,
      "##els": 1880,
      "vl": 1881,
      "##ale": 1882,
      "aange": 1883,
      "##ine": 1884,
      "veel": 1885,
      "##stand": 1886,
      "##baar": 1887,
      "land": 1888,
      "##kend": 1889,
      "##eerd": 1890,
      "mede": 1891,
      "##aakt": 1892,
      "##ast": 1893,
      "mid": 1894,
      "##dige": 1895,
      "##ue": 1896,
      "##geven": 1897,
      "hou": 1898,
      "##dat": 1899,
      "besch": 1900,
      "leven": 1901,
      "mijn": 1902,
      "kr": 1903,
      "ap": 1904,
      "##ocht": 1905,
      "##ins": 1906,
      "##cr": 1907,
      "dag": 1908,
      "ie": 1909,
      "12": 1910,
      "##af": 1911,
      "##aande": 1912,
      "man": 1913,
      "##uwe": 1914,
      "vrij": 1915,
      "##kom": 1916,
      "##aris": 1917,
      "waren": 1918,
      "gemeen": 1919,
      "##ill": 1920,
      "ex": 1921,
      "##vol": 1922,
      "##ies": 1923,
      "oor": 1924,
      "gee": 1925,
      "##dering": 1926,
      "hoofd": 1927,
      "mar": 1928,
      "##ister": 1929,
      "mee": 1930,
      "even": 1931,
      "##av": 1932,
      "kw": 1933,
      "##ab": 1934,
      "##mer": 1935,
      "amster": 1936,
      "verm": 1937,
      "groote": 1938,
      "verz": 1939,
      "##ost": 1940,
      "##anden": 1941,
      "reeds": 1942,
      "goe": 1943,
      "##rijk": 1944,
      "amsterdam": 1945,
      "mij": 1946,
      "eigen": 1947,
      "##our": 1948,
      "##iging": 1949,
      "15": 1950,
      "##ac": 1951,
      "##zien": 1952,
      "##king": 1953,
      "comm": 1954,
      "toch": 1955,
      "##man": 1956,
      "bep": 1957,
      "##jes": 1958,
      "##ool": 1959,
      "##voer": 1960,
      "##ard": 1961,
      "alleen": 1962,
      "sle": 1963,
      "boven": 1964,
      "zijne": 1965,
      "kle": 1966,
      "lang": 1967,
      "get": 1968,
      "besl": 1969,
      "##bij": 1970,
      "prij": 1971,
      "##isch": 1972,
      "##chts": 1973,
      "##heden": 1974,
      "jon": 1975,
      "##dr": 1976,
      "weer": 1977,
      "eerste": 1978,
      "voort": 1979,
      "##ding": 1980,
      "##ragen": 1981,
      "eenige": 1982,
      "##eling": 1983,
      "dus": 1984,
      "##ens": 1985,
      "toen": 1986,
      "zonder": 1987,
      "fe": 1988,
      "moeten": 1989,
      "par": 1990,
      "##ma": 1991,
      "buiten": 1992,
      "##urg": 1993,
      "##steld": 1994,
      "zw": 1995,
      "uitge": 1996,
      "##eiden": 1997,
      "##eem": 1998,
      "##ging": 1999,
      "##ks": 2000,
      "##wel": 2001,
      "hoog": 2002,
      "##gende": 2003,
      "pers": 2004,
      "##ce": 2005,
      "belang": 2006,
      "geh": 2007,
      "nederland": 2008,
      "##per": 2009,
      "staat": 2010,
      "##ater": 2011,
      "##gemeen": 2012,
      "##ucht": 2013,
      "##lijke": 2014,
      "doch": 2015,
      "ken": 2016,
      "kam": 2017,
      "nat": 2018,
      "##eil": 2019,
      "##recht": 2020,
      "##ass": 2021,
      "do": 2022,
      "##wijl": 2023,
      "##lem": 2024,
      "##houden": 2025,
      "huis": 2026,
      "##oom": 2027,
      "##ctie": 2028,
      "##oeg": 2029,
      "mei": 2030,
      "##elt": 2031,
      "17": 2032,
      "##allen": 2033,
      "hel": 2034,
      "algemeen": 2035,
      "nieuwe": 2036,
      "##eren": 2037,
      "binnen": 2038,
      "##orm": 2039,
      "20": 2040,
      "noo": 2041,
      "##ank": 2042,
      "##ieden": 2043,
      "##usschen": 2044,
      "##zonder": 2045,
      "jan": 2046,
      "##pt": 2047,
      "##age": 2048,
      "##stig": 2049,
      "##ings": 2050,
      "##cl": 2051,
      "gebr": 2052,
      "komen": 2053,
      "##oten": 2054,
      "##uren": 2055,
      "open": 2056,
      "16": 2057,
      "##ide": 2058,
      "##ink": 2059,
      "##ees": 2060,
      "25": 2061,
      "##ck": 2062,
      "##gr": 2063,
      "##zelf": 2064,
      "##ets": 2065,
      "50": 2066,
      "geheel": 2067,
      "##if": 2068,
      "du": 2069,
      "arb": 2070,
      "##eed": 2071,
      "##eeren": 2072,
      "vert": 2073,
      "hen": 2074,
      "blij": 2075,
      "echter": 2076,
      "##oren": 2077,
      "##ont": 2078,
      "##ouwen": 2079,
      "##uid": 2080,
      "str": 2081,
      "jaren": 2082,
      "rot": 2083,
      "##spr": 2084,
      "leden": 2085,
      "##ler": 2086,
      "verw": 2087,
      "##dere": 2088,
      "##oopen": 2089,
      "ij": 2090,
      "##nis": 2091,
      "thans": 2092,
      "kom": 2093,
      "##angen": 2094,
      "by": 2095,
      "##kende": 2096,
      "##burg": 2097,
      "mog": 2098,
      "##iel": 2099,
      "##off": 2100,
      "##eerde": 2101,
      "##slag": 2102,
      "slechts": 2103,
      "##itie": 2104,
      "werden": 2105,
      "nieuw": 2106,
      "eens": 2107,
      "##vaar": 2108,
      "maken": 2109,
      "14": 2110,
      "pro": 2111,
      "recht": 2112,
      "##iv": 2113,
      "##oort": 2114,
      "weg": 2115,
      "ant": 2116,
      "13": 2117,
      "gra": 2118,
      "##get": 2119,
      "av": 2120,
      "ind": 2121,
      "minister": 2122,
      "alles": 2123,
      "##zel": 2124,
      "maat": 2125,
      "vereen": 2126,
      "##illen": 2127,
      "gelegen": 2128,
      "##als": 2129,
      "part": 2130,
      "##derd": 2131,
      "##woor": 2132,
      "tusschen": 2133,
      "bew": 2134,
      "##na": 2135,
      "##ed": 2136,
      "grond": 2137,
      "##aken": 2138,
      "gou": 2139,
      "##rift": 2140,
      "##vl": 2141,
      "kin": 2142,
      "##kun": 2143,
      "geven": 2144,
      "##tal": 2145,
      "inde": 2146,
      "##mid": 2147,
      "enz": 2148,
      "boek": 2149,
      "kerk": 2150,
      "##hand": 2151,
      "##stelling": 2152,
      "go": 2153,
      "##uar": 2154,
      "##ggen": 2155,
      "dezer": 2156,
      "##int": 2157,
      "##eiding": 2158,
      "##ellen": 2159,
      "##igheid": 2160,
      "inge": 2161,
      "un": 2162,
      "##elde": 2163,
      "bren": 2164,
      "##ert": 2165,
      "mag": 2166,
      "reg": 2167,
      "##inden": 2168,
      "##ure": 2169,
      "wann": 2170,
      "##terdam": 2171,
      "gebrui": 2172,
      "terwijl": 2173,
      "com": 2174,
      "kap": 2175,
      "terug": 2176,
      "zien": 2177,
      "wanneer": 2178,
      "zeker": 2179,
      "hol": 2180,
      "mo": 2181,
      "stad": 2182,
      "##oos": 2183,
      "heeren": 2184,
      "##ade": 2185,
      "##ett": 2186,
      "30": 2187,
      "verga": 2188,
      "##schapp": 2189,
      "engel": 2190,
      "##cn": 2191,
      "##ember": 2192,
      "##reven": 2193,
      "##ied": 2194,
      "##tem": 2195,
      "heb": 2196,
      "##gaan": 2197,
      "##aald": 2198,
      "##kl": 2199,
      "dagen": 2200,
      "mis": 2201,
      "mr": 2202,
      "##ub": 2203,
      "##vr": 2204,
      "les": 2205,
      "##oef": 2206,
      "##bo": 2207,
      "##werk": 2208,
      "##ijden": 2209,
      "ee": 2210,
      "drie": 2211,
      "##ijf": 2212,
      "weder": 2213,
      "ein": 2214,
      "qu": 2215,
      "elk": 2216,
      "000": 2217,
      "verh": 2218,
      "zyn": 2219,
      "il": 2220,
      "fl": 2221,
      "##osten": 2222,
      "deel": 2223,
      "ha": 2224,
      "##over": 2225,
      "##ss": 2226,
      "stuk": 2227,
      "want": 2228,
      "##da": 2229,
      "pre": 2230,
      "##etten": 2231,
      "fa": 2232,
      "prijs": 2233,
      "##issie": 2234,
      "rotterdam": 2235,
      "##oh": 2236,
      "ke": 2237,
      "##emen": 2238,
      "wen": 2239,
      "##genomen": 2240,
      "koning": 2241,
      "heden": 2242,
      "##yk": 2243,
      "not": 2244,
      "uur": 2245,
      "gemeente": 2246,
      "##ubl": 2247,
      "##inc": 2248,
      "##iden": 2249,
      "##ering": 2250,
      "gaan": 2251,
      "##ieren": 2252,
      "maand": 2253,
      "schrij": 2254,
      "##straat": 2255,
      "enk": 2256,
      "koop": 2257,
      "alt": 2258,
      "laatste": 2259,
      "bur": 2260,
      "hunne": 2261,
      "##vangen": 2262,
      "##reden": 2263,
      "artik": 2264,
      "##reken": 2265,
      "pol": 2266,
      "##wijs": 2267,
      "##ec": 2268,
      "the": 2269,
      "##ation": 2270,
      "ste": 2271,
      "verkl": 2272,
      "mor": 2273,
      "opge": 2274,
      "##voor": 2275,
      "gevol": 2276,
      "bestuur": 2277,
      "##vens": 2278,
      "##ieven": 2279,
      "##zaam": 2280,
      "##inn": 2281,
      "kracht": 2282,
      "leer": 2283,
      "di": 2284,
      "##unt": 2285,
      "##huis": 2286,
      "da": 2287,
      "##doen": 2288,
      "##eef": 2289,
      "dec": 2290,
      "##staan": 2291,
      "water": 2292,
      "##oemd": 2293,
      "##onen": 2294,
      "rijk": 2295,
      "##iteit": 2296,
      "##fch": 2297,
      "##woord": 2298,
      "##kelijk": 2299,
      "##okken": 2300,
      "##urs": 2301,
      "##uim": 2302,
      "##ate": 2303,
      "dire": 2304,
      "omdat": 2305,
      "achter": 2306,
      "##deeling": 2307,
      "##vang": 2308,
      "##aard": 2309,
      "goede": 2310,
      "niets": 2311,
      "##itter": 2312,
      "iets": 2313,
      "stem": 2314,
      "jul": 2315,
      "##org": 2316,
      "##igd": 2317,
      "##oep": 2318,
      "##eeken": 2319,
      "##onds": 2320,
      "gegeven": 2321,
      "##ijen": 2322,
      "verg": 2323,
      "volgens": 2324,
      "cent": 2325,
      "wed": 2326,
      "ald": 2327,
      "##ell": 2328,
      "eerst": 2329,
      "##itt": 2330,
      "tweede": 2331,
      "gere": 2332,
      "##oeken": 2333,
      "gij": 2334,
      "uw": 2335,
      "komt": 2336,
      "vast": 2337,
      "##est": 2338,
      "wein": 2339,
      "##zicht": 2340,
      "au": 2341,
      "##komst": 2342,
      "nam": 2343,
      "pa": 2344,
      "off": 2345,
      "##vers": 2346,
      "##uin": 2347,
      "dienst": 2348,
      "chri": 2349,
      "verschillen": 2350,
      "##elden": 2351,
      "meen": 2352,
      "gewee": 2353,
      "##bare": 2354,
      "lie": 2355,
      "##oken": 2356,
      "##weg": 2357,
      "kant": 2358,
      "houden": 2359,
      "prov": 2360,
      "##rik": 2361,
      "##ril": 2362,
      "##aas": 2363,
      "sn": 2364,
      "dc": 2365,
      "oogen": 2366,
      "vergadering": 2367,
      "kamer": 2368,
      "##oepen": 2369,
      "zouden": 2370,
      "god": 2371,
      "vier": 2372,
      "##aden": 2373,
      "adres": 2374,
      "##door": 2375,
      "##digen": 2376,
      "geweest": 2377,
      "har": 2378,
      "nov": 2379,
      "cor": 2380,
      "zelfs": 2381,
      "gener": 2382,
      "nemen": 2383,
      "afge": 2384,
      "##wezen": 2385,
      "verder": 2386,
      "aug": 2387,
      "gek": 2388,
      "volgende": 2389,
      "weten": 2390,
      "##eest": 2391,
      "gelijk": 2392,
      "##dert": 2393,
      "##tegen": 2394,
      "##mede": 2395,
      "school": 2396,
      "##orden": 2397,
      "##anten": 2398,
      "##uy": 2399,
      "waarin": 2400,
      "gemaakt": 2401,
      "gl": 2402,
      "hal": 2403,
      "hadden": 2404,
      "##dan": 2405,
      "##ren": 2406,
      "im": 2407,
      "acht": 2408,
      "brengen": 2409,
      "li": 2410,
      "blijk": 2411,
      "april": 2412,
      "24": 2413,
      "kol": 2414,
      "mogelijk": 2415,
      "ii": 2416,
      "minder": 2417,
      "##gang": 2418,
      "sm": 2419,
      "##richt": 2420,
      "##veel": 2421,
      "geest": 2422,
      "##oof": 2423,
      "vraag": 2424,
      "##uc": 2425,
      "##rijd": 2426,
      "natuur": 2427,
      "middel": 2428,
      "gods": 2429,
      "##ud": 2430,
      "192": 2431,
      "##min": 2432,
      "##ord": 2433,
      "laten": 2434,
      "willen": 2435,
      "jun": 2436,
      "22": 2437,
      "##pr": 2438,
      "##bouw": 2439,
      "vele": 2440,
      "jui": 2441,
      "##uizen": 2442,
      "##rag": 2443,
      "##pe": 2444,
      "##oorden": 2445,
      "##tu": 2446,
      "##achten": 2447,
      "21": 2448,
      "spr": 2449,
      "waarvan": 2450,
      "licht": 2451,
      "##oog": 2452,
      "##ame": 2453,
      "##keur": 2454,
      "zie": 2455,
      "##sel": 2456,
      "##zing": 2457,
      "kinderen": 2458,
      "##ming": 2459,
      "lief": 2460,
      "dezen": 2461,
      "##ath": 2462,
      "##oedig": 2463,
      "##aaf": 2464,
      "allen": 2465,
      "wijze": 2466,
      "res": 2467,
      "ut": 2468,
      "##zelfde": 2469,
      "betre": 2470,
      "voorz": 2471,
      "##aling": 2472,
      "##qu": 2473,
      "##co": 2474,
      "##its": 2475,
      "oude": 2476,
      "##les": 2477,
      "hart": 2478,
      "duit": 2479,
      "bijzonder": 2480,
      "steeds": 2481,
      "verschillende": 2482,
      "##ult": 2483,
      "##eeuw": 2484,
      "##aagd": 2485,
      "ieder": 2486,
      "oct": 2487,
      "186": 2488,
      "vooral": 2489,
      "secr": 2490,
      "hare": 2491,
      "##werp": 2492,
      "vader": 2493,
      "##ere": 2494,
      "##ob": 2495,
      "wie": 2496,
      "##ander": 2497,
      "bekend": 2498,
      "##eten": 2499,
      "##digd": 2500,
      "##toe": 2501,
      "23": 2502,
      "##eert": 2503,
      "gehouden": 2504,
      "sche": 2505,
      "hy": 2506,
      "191": 2507,
      "maart": 2508,
      "##trent": 2509,
      "##all": 2510,
      "publ": 2511,
      "beide": 2512,
      "geld": 2513,
      "bek": 2514,
      "##fe": 2515,
      "##erd": 2516,
      "##zij": 2517,
      "wa": 2518,
      "##gele": 2519,
      "gedaan": 2520,
      "##log": 2521,
      "zaak": 2522,
      "##fl": 2523,
      "woord": 2524,
      "commissie": 2525,
      "##ons": 2526,
      "##dags": 2527,
      "voorn": 2528,
      "100": 2529,
      "liet": 2530,
      "at": 2531,
      "##leg": 2532,
      "heel": 2533,
      "raad": 2534,
      "anders": 2535,
      "mil": 2536,
      "stand": 2537,
      "paar": 2538,
      "oog": 2539,
      "weinig": 2540,
      "##oemde": 2541,
      "maatschapp": 2542,
      "druk": 2543,
      "##ph": 2544,
      "ontvangen": 2545,
      "mogen": 2546,
      "kennis": 2547,
      "regel": 2548,
      "##maal": 2549,
      "ab": 2550,
      "handel": 2551,
      "##aars": 2552,
      "187": 2553,
      "zooals": 2554,
      "##gez": 2555,
      "ja": 2556,
      "##olen": 2557,
      "##ina": 2558,
      "artikel": 2559,
      "bat": 2560,
      "einde": 2561,
      "##cte": 2562,
      "zei": 2563,
      "##dem": 2564,
      "cl": 2565,
      "##ong": 2566,
      "zy": 2567,
      "indien": 2568,
      "##anis": 2569,
      "28": 2570,
      "193": 2571,
      "lo": 2572,
      "##ragt": 2573,
      "betrek": 2574,
      "doel": 2575,
      "eu": 2576,
      "##zig": 2577,
      "##iers": 2578,
      "secret": 2579,
      "tra": 2580,
      "naam": 2581,
      "vroe": 2582,
      "##eester": 2583,
      "col": 2584,
      "##handel": 2585,
      "lid": 2586,
      "##merk": 2587,
      "gedeel": 2588,
      "werken": 2589,
      "ster": 2590,
      "zee": 2591,
      "vrien": 2592,
      "##blad": 2593,
      "##io": 2594,
      "ure": 2595,
      "blijven": 2596,
      "holland": 2597,
      "27": 2598,
      "##houd": 2599,
      "gest": 2600,
      "kwam": 2601,
      "oud": 2602,
      "##schrift": 2603,
      "##ving": 2604,
      "arbeid": 2605,
      "aller": 2606,
      "##druk": 2607,
      "aantal": 2608,
      "40": 2609,
      "##ts": 2610,
      "gesl": 2611,
      "verd": 2612,
      "##ijnen": 2613,
      "##ette": 2614,
      "vrouw": 2615,
      "##nemen": 2616,
      "onver": 2617,
      "geval": 2618,
      "26": 2619,
      "hul": 2620,
      "dier": 2621,
      "##ande": 2622,
      "amb": 2623,
      "##lingen": 2624,
      "week": 2625,
      "##rekken": 2626,
      "##one": 2627,
      "zaken": 2628,
      "ei": 2629,
      "##ijs": 2630,
      "##aire": 2631,
      "voorstel": 2632,
      "staats": 2633,
      "bar": 2634,
      "algemeene": 2635,
      "zeggen": 2636,
      "samen": 2637,
      "zegt": 2638,
      "##par": 2639,
      "genomen": 2640,
      "gesteld": 2641,
      "plaat": 2642,
      "ga": 2643,
      "vertr": 2644,
      "gebruik": 2645,
      "oorlog": 2646,
      "uitvoer": 2647,
      "##eiders": 2648,
      "verv": 2649,
      "##aagt": 2650,
      "##ioen": 2651,
      "##ikk": 2652,
      "vau": 2653,
      "moest": 2654,
      "##aast": 2655,
      "##jj": 2656,
      "##zelve": 2657,
      "##zeker": 2658,
      "beste": 2659,
      "provinc": 2660,
      "verle": 2661,
      "generaal": 2662,
      "##geb": 2663,
      "kor": 2664,
      "rei": 2665,
      "##kens": 2666,
      "wereld": 2667,
      "krij": 2668,
      "utrecht": 2669,
      "febr": 2670,
      "reken": 2671,
      "vereeniging": 2672,
      "anderen": 2673,
      "stellen": 2674,
      "aldaar": 2675,
      "##tie": 2676,
      "##leiding": 2677,
      "christ": 2678,
      "offic": 2679,
      "noodig": 2680,
      "##raf": 2681,
      "gaat": 2682,
      "iv": 2683,
      "##urende": 2684,
      "lig": 2685,
      "##open": 2686,
      "tre": 2687,
      "ven": 2688,
      "to": 2689,
      "##app": 2690,
      "juist": 2691,
      "blad": 2692,
      "ontw": 2693,
      "daarvan": 2694,
      "##plaat": 2695,
      "kn": 2696,
      "##bre": 2697,
      "onderz": 2698,
      "gebe": 2699,
      "##elijkheid": 2700,
      "behoor": 2701,
      "noord": 2702,
      "klein": 2703,
      "wit": 2704,
      "omtrent": 2705,
      "##ius": 2706,
      "##tra": 2707,
      "daarom": 2708,
      "schoon": 2709,
      "##gesteld": 2710,
      "meest": 2711,
      "dito": 2712,
      "##ober": 2713,
      "enkele": 2714,
      "don": 2715,
      "185": 2716,
      "brieven": 2717,
      "staan": 2718,
      "##uss": 2719,
      "kleine": 2720,
      "overeen": 2721,
      "som": 2722,
      "##enen": 2723,
      "##ner": 2724,
      "behand": 2725,
      "co": 2726,
      "##ha": 2727,
      "besluit": 2728,
      "vroeger": 2729,
      "##beeld": 2730,
      "29": 2731,
      "gouver": 2732,
      "volk": 2733,
      "##delen": 2734,
      "inter": 2735,
      "##ess": 2736,
      "vern": 2737,
      "belast": 2738,
      "pet": 2739,
      "##oerd": 2740,
      "##uld": 2741,
      "geeft": 2742,
      "##con": 2743,
      "ker": 2744,
      "voet": 2745,
      "ende": 2746,
      "weet": 2747,
      "geluk": 2748,
      "##dienst": 2749,
      "menschen": 2750,
      "nood": 2751,
      "doet": 2752,
      "voldoen": 2753,
      "prijzen": 2754,
      "##ichten": 2755,
      "echt": 2756,
      "later": 2757,
      "mensch": 2758,
      "januar": 2759,
      "##gew": 2760,
      "gelegenheid": 2761,
      "##hier": 2762,
      "31": 2763,
      "aard": 2764,
      "que": 2765,
      "hoor": 2766,
      "val": 2767,
      "vinden": 2768,
      "lag": 2769,
      "##ps": 2770,
      "##veren": 2771,
      "aar": 2772,
      "##isten": 2773,
      "kei": 2774,
      "altijd": 2775,
      "##yt": 2776,
      "staten": 2777,
      "onbe": 2778,
      "vervol": 2779,
      "rij": 2780,
      "##reg": 2781,
      "kar": 2782,
      "##out": 2783,
      "##que": 2784,
      "zo": 2785,
      "behoe": 2786,
      "##werpen": 2787,
      "eind": 2788,
      "##ach": 2789,
      "von": 2790,
      "ft": 2791,
      "klas": 2792,
      "geworden": 2793,
      "voorzien": 2794,
      "oo": 2795,
      "ol": 2796,
      "##eeg": 2797,
      "bene": 2798,
      "mon": 2799,
      "toon": 2800,
      "gron": 2801,
      "##best": 2802,
      "vak": 2803,
      "pas": 2804,
      "ve": 2805,
      "eenig": 2806,
      "##dom": 2807,
      "n°": 2808,
      "##venh": 2809,
      "sep": 2810,
      "ac": 2811,
      "##deeld": 2812,
      "sal": 2813,
      "##woordig": 2814,
      "##geen": 2815,
      "del": 2816,
      "##zers": 2817,
      "waarop": 2818,
      "190": 2819,
      "int": 2820,
      "hui": 2821,
      "##stuk": 2822,
      "frank": 2823,
      "schip": 2824,
      "##oeren": 2825,
      "gedurende": 2826,
      "vre": 2827,
      "##ys": 2828,
      "##berg": 2829,
      "december": 2830,
      "lui": 2831,
      "##uil": 2832,
      "pra": 2833,
      "##ho": 2834,
      "##bren": 2835,
      "dank": 2836,
      "onderwijs": 2837,
      "##hen": 2838,
      "##blik": 2839,
      "post": 2840,
      "maatschappij": 2841,
      "woorden": 2842,
      "##wet": 2843,
      "##ichting": 2844,
      "dor": 2845,
      "##lement": 2846,
      "##eken": 2847,
      "wegens": 2848,
      "eeuw": 2849,
      "reger": 2850,
      "zoon": 2851,
      "voorzitter": 2852,
      "kal": 2853,
      "pat": 2854,
      "regt": 2855,
      "heil": 2856,
      "##mers": 2857,
      "alhier": 2858,
      "ruim": 2859,
      "##ffen": 2860,
      "spoor": 2861,
      "##ijnt": 2862,
      "septem": 2863,
      "##ooi": 2864,
      "tele": 2865,
      "##rie": 2866,
      "sa": 2867,
      "august": 2868,
      "##onnen": 2869,
      "cr": 2870,
      "##oemen": 2871,
      "tw": 2872,
      "zond": 2873,
      "dam": 2874,
      "franco": 2875,
      "toege": 2876,
      "##oelen": 2877,
      "##anc": 2878,
      "ren": 2879,
      "##aring": 2880,
      "waarde": 2881,
      "tevens": 2882,
      "zoodat": 2883,
      "november": 2884,
      "notaris": 2885,
      "feit": 2886,
      "gun": 2887,
      "##aalde": 2888,
      "noch": 2889,
      "kort": 2890,
      "##ll": 2891,
      "##leven": 2892,
      "bestaan": 2893,
      "##bel": 2894,
      "soc": 2895,
      "rege": 2896,
      "org": 2897,
      "zui": 2898,
      "##rijf": 2899,
      "belangrijk": 2900,
      "##weging": 2901,
      "##anen": 2902,
      "ro": 2903,
      "maan": 2904,
      "##oss": 2905,
      "secretaris": 2906,
      "dood": 2907,
      "moeder": 2908,
      "volgen": 2909,
      "##scht": 2910,
      "geschieden": 2911,
      "##alve": 2912,
      "##venhage": 2913,
      "september": 2914,
      "##ikt": 2915,
      "nederlandsche": 2916,
      "won": 2917,
      "##etter": 2918,
      "reden": 2919,
      "fin": 2920,
      "ph": 2921,
      "hetgeen": 2922,
      "kunst": 2923,
      "ce": 2924,
      "gekomen": 2925,
      "verzeker": 2926,
      "geze": 2927,
      "joh": 2928,
      "##igheden": 2929,
      "##ore": 2930,
      "60": 2931,
      "##slagen": 2932,
      "bre": 2933,
      "hooger": 2934,
      "##aart": 2935,
      "35": 2936,
      "vi": 2937,
      "sy": 2938,
      "spoedig": 2939,
      "verkrij": 2940,
      "##deelen": 2941,
      "persoon": 2942,
      "comp": 2943,
      "strijd": 2944,
      "##ille": 2945,
      "geene": 2946,
      "oe": 2947,
      "##ous": 2948,
      "burger": 2949,
      "verkoop": 2950,
      "##wijk": 2951,
      "rom": 2952,
      "##pel": 2953,
      "aanv": 2954,
      "aut": 2955,
      "##oegen": 2956,
      "em": 2957,
      "##landsche": 2958,
      "ging": 2959,
      "##elijken": 2960,
      "prof": 2961,
      "vij": 2962,
      "##ai": 2963,
      "prins": 2964,
      "nooit": 2965,
      "geheele": 2966,
      "##staande": 2967,
      "len": 2968,
      "tel": 2969,
      "ser": 2970,
      "win": 2971,
      "##ement": 2972,
      "sol": 2973,
      "##aakte": 2974,
      "##loop": 2975,
      "gevr": 2976,
      "lot": 2977,
      "##eemt": 2978,
      "##ouwd": 2979,
      "##diging": 2980,
      "personen": 2981,
      "antwoord": 2982,
      "beter": 2983,
      "aanzien": 2984,
      "pres": 2985,
      "##indt": 2986,
      "##rak": 2987,
      "kind": 2988,
      "##schrij": 2989,
      "##stem": 2990,
      "bouw": 2991,
      "eur": 2992,
      "##att": 2993,
      "conc": 2994,
      "partij": 2995,
      "##ieke": 2996,
      "pe": 2997,
      "gedeelte": 2998,
      "afdeeling": 2999,
      "arbeiders": 3000,
      "eenen": 3001,
      "amer": 3002,
      "##raad": 3003,
      "##atten": 3004,
      "qui": 3005,
      "184": 3006,
      "##licht": 3007,
      "augustus": 3008,
      "half": 3009,
      "##nement": 3010,
      "##ukt": 3011,
      "zuid": 3012,
      "##sproken": 3013,
      "waarbij": 3014,
      "bi": 3015,
      "zon": 3016,
      "zijnde": 3017,
      "daarbij": 3018,
      "##amp": 3019,
      "nederl": 3020,
      "ca": 3021,
      "##oens": 3022,
      "##briek": 3023,
      "oogenblik": 3024,
      "75": 3025,
      "##fen": 3026,
      "tal": 3027,
      "##ning": 3028,
      "avond": 3029,
      "##zak": 3030,
      "##oonen": 3031,
      "kolon": 3032,
      "##middel": 3033,
      "directe": 3034,
      "dik": 3035,
      "##hem": 3036,
      "##iaal": 3037,
      "##ante": 3038,
      "##ureau": 3039,
      "onzen": 3040,
      "toestand": 3041,
      "##lang": 3042,
      "##ooten": 3043,
      "bijn": 3044,
      "sedert": 3045,
      "october": 3046,
      "jong": 3047,
      "leeuw": 3048,
      "war": 3049,
      "slot": 3050,
      "##eekt": 3051,
      "ongev": 3052,
      "genoeg": 3053,
      "bestaat": 3054,
      "europ": 3055,
      "rust": 3056,
      "##kr": 3057,
      "regering": 3058,
      "ra": 3059,
      "pri": 3060,
      "##leden": 3061,
      "bekomen": 3062,
      "veroor": 3063,
      "zooveel": 3064,
      "##oond": 3065,
      "gehad": 3066,
      "verpl": 3067,
      "stoom": 3068,
      "##ieken": 3069,
      "##orgen": 3070,
      "hof": 3071,
      "##ulden": 3072,
      "daartoe": 3073,
      "##iale": 3074,
      "onge": 3075,
      "##vel": 3076,
      "mer": 3077,
      "##rokken": 3078,
      "ontwikk": 3079,
      "est": 3080,
      "aand": 3081,
      "volle": 3082,
      "vreem": 3083,
      "februar": 3084,
      "midden": 3085,
      "##uz": 3086,
      "vijf": 3087,
      "bijna": 3088,
      "steen": 3089,
      "maakt": 3090,
      "##akt": 3091,
      "##unten": 3092,
      "eener": 3093,
      "##amer": 3094,
      "##che": 3095,
      "##anisatie": 3096,
      "ziek": 3097,
      "cour": 3098,
      "##ib": 3099,
      "##uigen": 3100,
      "maanden": 3101,
      "##ften": 3102,
      "onderzoek": 3103,
      "##achte": 3104,
      "mel": 3105,
      "##boek": 3106,
      "##fte": 3107,
      "milit": 3108,
      "berei": 3109,
      "##vloed": 3110,
      "geloof": 3111,
      "wezen": 3112,
      "nij": 3113,
      "##neming": 3114,
      "wier": 3115,
      "##apen": 3116,
      "red": 3117,
      "aangenomen": 3118,
      "blijft": 3119,
      "proc": 3120,
      "cons": 3121,
      "##regen": 3122,
      "ligt": 3123,
      "##istr": 3124,
      "##air": 3125,
      "80": 3126,
      "##dragen": 3127,
      "orde": 3128,
      "verst": 3129,
      "##ongen": 3130,
      "dezelfde": 3131,
      "zoodan": 3132,
      "##vou": 3133,
      "levens": 3134,
      "##elijks": 3135,
      "dans": 3136,
      "##000": 3137,
      "sterk": 3138,
      "hulp": 3139,
      "londen": 3140,
      "##koop": 3141,
      "bedoel": 3142,
      "namen": 3143,
      "juli": 3144,
      "maandag": 3145,
      "ern": 3146,
      "roo": 3147,
      "tien": 3148,
      "pen": 3149,
      "welk": 3150,
      "wien": 3151,
      "gravenhage": 3152,
      "zel": 3153,
      "brief": 3154,
      "as": 3155,
      "plaatsen": 3156,
      "haarlem": 3157,
      "verband": 3158,
      "wy": 3159,
      "##gde": 3160,
      "##ae": 3161,
      "ziet": 3162,
      "jonge": 3163,
      "hooge": 3164,
      "liefde": 3165,
      "ko": 3166,
      "mot": 3167,
      "##rekt": 3168,
      "nation": 3169,
      "##lo": 3170,
      "ty": 3171,
      "##geld": 3172,
      "zondag": 3173,
      "gep": 3174,
      "189": 3175,
      "bal": 3176,
      "##stellen": 3177,
      "plan": 3178,
      "vriend": 3179,
      "juni": 3180,
      "pour": 3181,
      "##bet": 3182,
      "es": 3183,
      "volks": 3184,
      "schr": 3185,
      "klasse": 3186,
      "var": 3187,
      "kosten": 3188,
      "##mat": 3189,
      "##ange": 3190,
      "##plaats": 3191,
      "bezit": 3192,
      "ware": 3193,
      "uitga": 3194,
      "gebracht": 3195,
      "##eep": 3196,
      "ple": 3197,
      "vragen": 3198,
      "publiek": 3199,
      "##athol": 3200,
      "goederen": 3201,
      "indie": 3202,
      "woens": 3203,
      "gevraagd": 3204,
      "bepaald": 3205,
      "morgen": 3206,
      "engeland": 3207,
      "keizer": 3208,
      "eisch": 3209,
      "ru": 3210,
      "overl": 3211,
      "##oden": 3212,
      "##ium": 3213,
      "natuurlijk": 3214,
      "##aansche": 3215,
      "vaneen": 3216,
      "##sluit": 3217,
      "sc": 3218,
      "leiden": 3219,
      "##ieten": 3220,
      "frankrijk": 3221,
      "##isme": 3222,
      "##ield": 3223,
      "kop": 3224,
      "##utie": 3225,
      "##ux": 3226,
      "ir": 3227,
      "bil": 3228,
      "port": 3229,
      "pct": 3230,
      "##isteren": 3231,
      "ondersch": 3232,
      "ned": 3233,
      "bedr": 3234,
      "brand": 3235,
      "cont": 3236,
      "##issen": 3237,
      "##hr": 3238,
      "##ole": 3239,
      "zijde": 3240,
      "rijks": 3241,
      "wilde": 3242,
      "bor": 3243,
      "besp": 3244,
      "vorm": 3245,
      "hert": 3246,
      "it": 3247,
      "letter": 3248,
      "amerik": 3249,
      "duid": 3250,
      "dis": 3251,
      "##form": 3252,
      "daarna": 3253,
      "car": 3254,
      "##schappen": 3255,
      "nader": 3256,
      "bot": 3257,
      "ho": 3258,
      "##aliteit": 3259,
      "dezelve": 3260,
      "si": 3261,
      "##mak": 3262,
      "arn": 3263,
      "arm": 3264,
      "##tje": 3265,
      "##va": 3266,
      "verbet": 3267,
      "##aai": 3268,
      "sur": 3269,
      "dw": 3270,
      "##heer": 3271,
      "##schijn": 3272,
      "oosten": 3273,
      "##gs": 3274,
      "##kte": 3275,
      "verzoek": 3276,
      "##bestuur": 3277,
      "00": 3278,
      "jac": 3279,
      "uren": 3280,
      "##offen": 3281,
      "handen": 3282,
      "donder": 3283,
      "zin": 3284,
      "zag": 3285,
      "duitsch": 3286,
      "##wijzen": 3287,
      "nad": 3288,
      "vorige": 3289,
      "##oeder": 3290,
      "ontvang": 3291,
      "##jaar": 3292,
      "begr": 3293,
      "45": 3294,
      "gaf": 3295,
      "oost": 3296,
      "##eerden": 3297,
      "deed": 3298,
      "188": 3299,
      "belg": 3300,
      "##oorten": 3301,
      "tegenover": 3302,
      "##oeden": 3303,
      "geve": 3304,
      "##akken": 3305,
      "##ein": 3306,
      "langs": 3307,
      "groningen": 3308,
      "##wegen": 3309,
      "##tig": 3310,
      "adv": 3311,
      "##fer": 3312,
      "lever": 3313,
      "bond": 3314,
      "mill": 3315,
      "##gevoerd": 3316,
      "##plaatst": 3317,
      "spec": 3318,
      "macht": 3319,
      "##oeien": 3320,
      "opv": 3321,
      "omstand": 3322,
      "ed": 3323,
      "##ugd": 3324,
      "werkzaam": 3325,
      "##onn": 3326,
      "##wijf": 3327,
      "betrekking": 3328,
      "zijner": 3329,
      "32": 3330,
      "gene": 3331,
      "somm": 3332,
      "##menten": 3333,
      "bureau": 3334,
      "gevallen": 3335,
      "wol": 3336,
      "##kig": 3337,
      "##immer": 3338,
      "##red": 3339,
      "aanbe": 3340,
      "schil": 3341,
      "fransche": 3342,
      "loop": 3343,
      "##ident": 3344,
      "waarom": 3345,
      "##lei": 3346,
      "zes": 3347,
      "neer": 3348,
      "##fa": 3349,
      "gezegd": 3350,
      "elke": 3351,
      "gewoon": 3352,
      "tur": 3353,
      "##aagde": 3354,
      "kennen": 3355,
      "##elle": 3356,
      "183": 3357,
      "gevolg": 3358,
      "mijne": 3359,
      "##schreven": 3360,
      "##val": 3361,
      "schijnt": 3362,
      "##gaande": 3363,
      "tuin": 3364,
      "onzer": 3365,
      "##uik": 3366,
      "regeering": 3367,
      "##li": 3368,
      "beteeken": 3369,
      "##daan": 3370,
      "konink": 3371,
      "##werken": 3372,
      "##oegd": 3373,
      "##antwoord": 3374,
      "mevr": 3375,
      "##orie": 3376,
      "##kunde": 3377,
      "vrouwen": 3378,
      "##bank": 3379,
      "##rachten": 3380,
      "ongeveer": 3381,
      "ju": 3382,
      "blijkt": 3383,
      "dicht": 3384,
      "woensdag": 3385,
      "##assen": 3386,
      "33": 3387,
      "bra": 3388,
      "ba": 3389,
      "##atien": 3390,
      "invloed": 3391,
      "gevaar": 3392,
      "##rein": 3393,
      "zoowel": 3394,
      "##werking": 3395,
      "pal": 3396,
      "##spraak": 3397,
      "bestaande": 3398,
      "##sz": 3399,
      "verdien": 3400,
      "nut": 3401,
      "stil": 3402,
      "vers": 3403,
      "##cu": 3404,
      "rep": 3405,
      "##schien": 3406,
      "rekening": 3407,
      "zulk": 3408,
      "##ilijk": 3409,
      "kathol": 3410,
      "wensch": 3411,
      "##her": 3412,
      "##vaart": 3413,
      "burgem": 3414,
      "kapit": 3415,
      "ka": 3416,
      "hoop": 3417,
      "voorkomen": 3418,
      "betreft": 3419,
      "##mar": 3420,
      "genees": 3421,
      "##itting": 3422,
      "misschien": 3423,
      "zen": 3424,
      "benoemd": 3425,
      "aanwe": 3426,
      "meis": 3427,
      "##erkt": 3428,
      "gar": 3429,
      "verkoopen": 3430,
      "verslag": 3431,
      "beschik": 3432,
      "west": 3433,
      "##ffende": 3434,
      "##teur": 3435,
      "stukken": 3436,
      "##nie": 3437,
      "##erde": 3438,
      "##loo": 3439,
      "lin": 3440,
      "voorwaar": 3441,
      "aanleiding": 3442,
      "veran": 3443,
      "##zaak": 3444,
      "overtu": 3445,
      "waardoor": 3446,
      "##iep": 3447,
      "daarop": 3448,
      "gemak": 3449,
      "derde": 3450,
      "daardoor": 3451,
      "##deelingen": 3452,
      "##geving": 3453,
      "ia": 3454,
      "prod": 3455,
      "landbouw": 3456,
      "##iere": 3457,
      "##oit": 3458,
      "leger": 3459,
      "bank": 3460,
      "##welk": 3461,
      "##uig": 3462,
      "##boden": 3463,
      "##alingen": 3464,
      "##ilie": 3465,
      "spel": 3466,
      "##spe": 3467,
      "onderwij": 3468,
      "lij": 3469,
      "derg": 3470,
      "fam": 3471,
      "ambten": 3472,
      "spreken": 3473,
      "politie": 3474,
      "uiter": 3475,
      "gezien": 3476,
      "godsdienst": 3477,
      "tij": 3478,
      "voorts": 3479,
      "##uldig": 3480,
      "nacht": 3481,
      "verde": 3482,
      "##stelde": 3483,
      "##igten": 3484,
      "##antie": 3485,
      "batav": 3486,
      "and": 3487,
      "openbare": 3488,
      "aen": 3489,
      "gisteren": 3490,
      "eenvou": 3491,
      "herinn": 3492,
      "mak": 3493,
      "willem": 3494,
      "36": 3495,
      "daarin": 3496,
      "dem": 3497,
      "zit": 3498,
      "stond": 3499,
      "##kundige": 3500,
      "teeken": 3501,
      "##iezen": 3502,
      "groen": 3503,
      "##pers": 3504,
      "##kers": 3505,
      "gulden": 3506,
      "une": 3507,
      "##emand": 3508,
      "taal": 3509,
      "moeilijk": 3510,
      "uwe": 3511,
      "##houding": 3512,
      "34": 3513,
      "##anje": 3514,
      "schrijven": 3515,
      "my": 3516,
      "duidelijk": 3517,
      "su": 3518,
      "duur": 3519,
      "##aarne": 3520,
      "kost": 3521,
      "mocht": 3522,
      "mannen": 3523,
      "diep": 3524,
      "los": 3525,
      "rond": 3526,
      "id": 3527,
      "##vor": 3528,
      "70": 3529,
      "gouvernement": 3530,
      "##eering": 3531,
      "schepen": 3532,
      "##genaam": 3533,
      "2e": 3534,
      "za": 3535,
      "vrucht": 3536,
      "##meester": 3537,
      "ta": 3538,
      "##school": 3539,
      "hetwelk": 3540,
      "##ces": 3541,
      "##amb": 3542,
      "handels": 3543,
      "ele": 3544,
      "num": 3545,
      "aandacht": 3546,
      "hebbende": 3547,
      "##mand": 3548,
      "bevor": 3549,
      "stemmen": 3550,
      "haag": 3551,
      "paarden": 3552,
      "getr": 3553,
      "##kel": 3554,
      "ital": 3555,
      "jav": 3556,
      "hot": 3557,
      "##stigd": 3558,
      "avonds": 3559,
      "gevonden": 3560,
      "gevoel": 3561,
      "##punt": 3562,
      "parijs": 3563,
      "##hel": 3564,
      "##sc": 3565,
      "zoude": 3566,
      "90": 3567,
      "##oi": 3568,
      "admin": 3569,
      "vei": 3570,
      "pap": 3571,
      "##sk": 3572,
      "##stit": 3573,
      "sub": 3574,
      "woon": 3575,
      "ds": 3576,
      "zat": 3577,
      "##zijn": 3578,
      "##oeding": 3579,
      "feest": 3580,
      "rapp": 3581,
      "##aap": 3582,
      "ass": 3583,
      "beroep": 3584,
      "##rage": 3585,
      "loon": 3586,
      "huur": 3587,
      "voldoende": 3588,
      "organisatie": 3589,
      "batavia": 3590,
      "tar": 3591,
      "##arden": 3592,
      "##agt": 3593,
      "dom": 3594,
      "vond": 3595,
      "punt": 3596,
      "burgemeester": 3597,
      "volgt": 3598,
      "blz": 3599,
      "gede": 3600,
      "##eesch": 3601,
      "colle": 3602,
      "##ial": 3603,
      "denk": 3604,
      "bedrag": 3605,
      "##erie": 3606,
      "volkomen": 3607,
      "lett": 3608,
      "vrede": 3609,
      "verkocht": 3610,
      "##und": 3611,
      "##gst": 3612,
      "wedst": 3613,
      "dad": 3614,
      "##ise": 3615,
      "##vorm": 3616,
      "##oud": 3617,
      "wei": 3618,
      "geleden": 3619,
      "taf": 3620,
      "37": 3621,
      "##olog": 3622,
      "##oir": 3623,
      "##yl": 3624,
      "oordeel": 3625,
      "mat": 3626,
      "donderdag": 3627,
      "prot": 3628,
      "namid": 3629,
      "##yke": 3630,
      "dep": 3631,
      "verwacht": 3632,
      "net": 3633,
      "geplaatst": 3634,
      "##rijden": 3635,
      "wal": 3636,
      "##issch": 3637,
      "begins": 3638,
      "gewone": 3639,
      "noodzak": 3640,
      "##ient": 3641,
      "gebeur": 3642,
      "heen": 3643,
      "gaarne": 3644,
      "geschiedenis": 3645,
      "##oomen": 3646,
      "vroeg": 3647,
      "laatst": 3648,
      "pred": 3649,
      "vertegen": 3650,
      "vereenig": 3651,
      "spre": 3652,
      "sui": 3653,
      "straf": 3654,
      "##ht": 3655,
      "##sn": 3656,
      "onm": 3657,
      "lucht": 3658,
      "grooter": 3659,
      "mem": 3660,
      "vindt": 3661,
      "ongel": 3662,
      "ton": 3663,
      "##iger": 3664,
      "veld": 3665,
      "grooten": 3666,
      "##fi": 3667,
      "##ca": 3668,
      "##orpen": 3669,
      "commiss": 3670,
      "mej": 3671,
      "nadere": 3672,
      "##digheid": 3673,
      "arnhem": 3674,
      "##anders": 3675,
      "tem": 3676,
      "##onde": 3677,
      "##gl": 3678,
      "bedrijf": 3679,
      "zwaar": 3680,
      "julij": 3681,
      "##tre": 3682,
      "aanvaar": 3683,
      "adver": 3684,
      "##kken": 3685,
      "zulks": 3686,
      "reis": 3687,
      "##rijven": 3688,
      "staande": 3689,
      "##entie": 3690,
      "administr": 3691,
      "zeven": 3692,
      "gevangen": 3693,
      "directeur": 3694,
      "##oei": 3695,
      "engelsche": 3696,
      "##gevol": 3697,
      "januari": 3698,
      "##iedt": 3699,
      "immers": 3700,
      "##sm": 3701,
      "dui": 3702,
      "omstandigheden": 3703,
      "##tement": 3704,
      "aanmerk": 3705,
      "rus": 3706,
      "vooruit": 3707,
      "##verd": 3708,
      "##ait": 3709,
      "middelen": 3710,
      "##ozen": 3711,
      "hei": 3712,
      "inden": 3713,
      "geloo": 3714,
      "daarvoor": 3715,
      "fir": 3716,
      "opper": 3717,
      "bee": 3718,
      "verdere": 3719,
      "lich": 3720,
      "##onderd": 3721,
      "keu": 3722,
      "38": 3723,
      "##eidene": 3724,
      "##wen": 3725,
      "perc": 3726,
      "naast": 3727,
      "wapen": 3728,
      "provincie": 3729,
      "besloten": 3730,
      "gebied": 3731,
      "##olle": 3732,
      "##oth": 3733,
      "##ift": 3734,
      "niemand": 3735,
      "soort": 3736,
      "##gelegd": 3737,
      "voorge": 3738,
      "bleef": 3739,
      "zil": 3740,
      "gedr": 3741,
      "lijk": 3742,
      "##veld": 3743,
      "pass": 3744,
      "##ots": 3745,
      "##ian": 3746,
      "##inkel": 3747,
      "##ctor": 3748,
      "begin": 3749,
      "junij": 3750,
      "tegenwoordig": 3751,
      "landen": 3752,
      "millioen": 3753,
      "zitting": 3754,
      "bijeen": 3755,
      "##vereen": 3756,
      "##kingen": 3757,
      "toel": 3758,
      "##ouden": 3759,
      "wagen": 3760,
      "##tt": 3761,
      "result": 3762,
      "hebt": 3763,
      "ord": 3764,
      "genoemd": 3765,
      "##pass": 3766,
      "##stige": 3767,
      "vraagt": 3768,
      "verhe": 3769,
      "eindelijk": 3770,
      "opzicht": 3771,
      "herh": 3772,
      "prop": 3773,
      "betreffende": 3774,
      "##west": 3775,
      "tijden": 3776,
      "##fche": 3777,
      "##waren": 3778,
      "##grond": 3779,
      "exp": 3780,
      "denken": 3781,
      "iemand": 3782,
      "55": 3783,
      "bovendien": 3784,
      "fijn": 3785,
      "behalve": 3786,
      "menig": 3787,
      "ontwerp": 3788,
      "hoeveel": 3789,
      "centr": 3790,
      "bevol": 3791,
      "##oeld": 3792,
      "liggen": 3793,
      "##inge": 3794,
      "##uten": 3795,
      "182": 3796,
      "schrijver": 3797,
      "##gra": 3798,
      "##oneel": 3799,
      "steun": 3800,
      "##tes": 3801,
      "aangeboden": 3802,
      "overw": 3803,
      "##richting": 3804,
      "voer": 3805,
      "depar": 3806,
      "vee": 3807,
      "deelen": 3808,
      "boekhandel": 3809,
      "##bed": 3810,
      "ineen": 3811,
      "##akker": 3812,
      "morgens": 3813,
      "regeling": 3814,
      "mal": 3815,
      "zamen": 3816,
      "krijgen": 3817,
      "bestem": 3818,
      "##ym": 3819,
      "##aalt": 3820,
      "maria": 3821,
      "aanb": 3822,
      "pracht": 3823,
      "moo": 3824,
      "vermeld": 3825,
      "##ogr": 3826,
      "markt": 3827,
      "berg": 3828,
      "wijk": 3829,
      "##ni": 3830,
      "buitengew": 3831,
      "##11": 3832,
      "ingez": 3833,
      "##genoot": 3834,
      "leg": 3835,
      "bijzondere": 3836,
      "##ific": 3837,
      "beneden": 3838,
      "lange": 3839,
      "cou": 3840,
      "behandeling": 3841,
      "##ow": 3842,
      "##digde": 3843,
      "##schip": 3844,
      "##uctie": 3845,
      "hout": 3846,
      "vermin": 3847,
      "doo": 3848,
      "voren": 3849,
      "gevoelen": 3850,
      "elkaar": 3851,
      "agen": 3852,
      "##onk": 3853,
      "##itiek": 3854,
      "beve": 3855,
      "42": 3856,
      "for": 3857,
      "##iiii": 3858,
      "enkel": 3859,
      "vest": 3860,
      "##ose": 3861,
      "lezen": 3862,
      "slecht": 3863,
      "##hoor": 3864,
      "duitsche": 3865,
      "vrijheid": 3866,
      "cir": 3867,
      "nederlandsch": 3868,
      "opl": 3869,
      "boer": 3870,
      "geschikt": 3871,
      "openbaar": 3872,
      "sept": 3873,
      "##ci": 3874,
      "zorg": 3875,
      "##achtig": 3876,
      "lijn": 3877,
      "jacob": 3878,
      "pruis": 3879,
      "java": 3880,
      "behoort": 3881,
      "##kon": 3882,
      "gezond": 3883,
      "bu": 3884,
      "vrijdag": 3885,
      "dee": 3886,
      "bewijs": 3887,
      "##kw": 3888,
      "##tien": 3889,
      "begrij": 3890,
      "##ije": 3891,
      "meening": 3892,
      "##dur": 3893,
      "##rib": 3894,
      "##omp": 3895,
      "ministerie": 3896,
      "leeuwarden": 3897,
      "konden": 3898,
      "bekl": 3899,
      "nadat": 3900,
      "##ude": 3901,
      "huw": 3902,
      "##erm": 3903,
      "##oede": 3904,
      "mach": 3905,
      "48": 3906,
      "alsmede": 3907,
      "nauw": 3908,
      "##ja": 3909,
      "naa": 3910,
      "39": 3911,
      "##regelen": 3912,
      "dadelijk": 3913,
      "##ane": 3914,
      "muz": 3915,
      "daer": 3916,
      "trouw": 3917,
      "##inding": 3918,
      "##sters": 3919,
      "bosch": 3920,
      "genoemde": 3921,
      "beschouw": 3922,
      "belangrijke": 3923,
      "merk": 3924,
      "##schijnlijk": 3925,
      "artikelen": 3926,
      "##zoo": 3927,
      "duizen": 3928,
      "##gevaar": 3929,
      "##spre": 3930,
      "ll": 3931,
      "zelve": 3932,
      "grootste": 3933,
      "##erij": 3934,
      "##gelijk": 3935,
      "overleden": 3936,
      "gesloten": 3937,
      "weld": 3938,
      "fabriek": 3939,
      "gebragt": 3940,
      "duitschland": 3941,
      "extra": 3942,
      "bevolking": 3943,
      "bem": 3944,
      "erken": 3945,
      "ide": 3946,
      "dragen": 3947,
      "##komsten": 3948,
      "vaar": 3949,
      "##zet": 3950,
      "leeft": 3951,
      "##eenen": 3952,
      "idem": 3953,
      "elkander": 3954,
      "soorten": 3955,
      "##nn": 3956,
      "eg": 3957,
      "##echt": 3958,
      "zu": 3959,
      "bekende": 3960,
      "##gevolge": 3961,
      "moge": 3962,
      "spoorweg": 3963,
      "nabij": 3964,
      "tegenwoor": 3965,
      "##use": 3966,
      "graaf": 3967,
      "hetzelfde": 3968,
      "##schriften": 3969,
      "##ffing": 3970,
      "##eim": 3971,
      "firma": 3972,
      "erf": 3973,
      "opger": 3974,
      "##lieden": 3975,
      "loopen": 3976,
      "ziekte": 3977,
      "straat": 3978,
      "gelukkig": 3979,
      "wenschen": 3980,
      "zi": 3981,
      "##iefde": 3982,
      "44": 3983,
      "41": 3984,
      "kat": 3985,
      "gec": 3986,
      "ellen": 3987,
      "##uwen": 3988,
      "gemakkelijk": 3989,
      "##gbaar": 3990,
      "##ustrie": 3991,
      "##neur": 3992,
      "verbl": 3993,
      "dal": 3994,
      "keur": 3995,
      "verklaard": 3996,
      "slag": 3997,
      "dergelijke": 3998,
      "gelden": 3999,
      "zuiver": 4000,
      "opmerk": 4001,
      "##hout": 4002,
      "soms": 4003,
      "hend": 4004,
      "ziel": 4005,
      "houdt": 4006,
      "stat": 4007,
      "schuld": 4008,
      "suiker": 4009,
      "onderget": 4010,
      "beweging": 4011,
      "meester": 4012,
      "neemt": 4013,
      "opt": 4014,
      "hu": 4015,
      "ontwikkeling": 4016,
      "##wijls": 4017,
      "zeide": 4018,
      "zoodanig": 4019,
      "##ric": 4020,
      "43": 4021,
      "kapite": 4022,
      "##eeks": 4023,
      "velen": 4024,
      "gereed": 4025,
      "waarheid": 4026,
      "belasting": 4027,
      "mits": 4028,
      "lager": 4029,
      "vrees": 4030,
      "dikwijls": 4031,
      "afzonder": 4032,
      "verhoo": 4033,
      "bonds": 4034,
      "brengt": 4035,
      "tent": 4036,
      "##nel": 4037,
      "corre": 4038,
      "voorh": 4039,
      "dist": 4040,
      "verkregen": 4041,
      "toepass": 4042,
      "##fr": 4043,
      "vrienden": 4044,
      "ham": 4045,
      "invoer": 4046,
      "rui": 4047,
      "oostenrijk": 4048,
      "karakt": 4049,
      "##oes": 4050,
      "por": 4051,
      "##won": 4052,
      "gemeenten": 4053,
      "##oy": 4054,
      "loc": 4055,
      "last": 4056,
      "neen": 4057,
      "bleek": 4058,
      "##ete": 4059,
      "christus": 4060,
      "zijnen": 4061,
      "witte": 4062,
      "gebruikt": 4063,
      "acc": 4064,
      "zulke": 4065,
      "toekomst": 4066,
      "meeste": 4067,
      "dur": 4068,
      "##stemming": 4069,
      "ges": 4070,
      "regen": 4071,
      "suc": 4072,
      "bun": 4073,
      "vuur": 4074,
      "europa": 4075,
      "overige": 4076,
      "belangen": 4077,
      "##ator": 4078,
      "##zijde": 4079,
      "##chen": 4080,
      "piet": 4081,
      "##ullen": 4082,
      "pens": 4083,
      "ct": 4084,
      "##ositie": 4085,
      "jl": 4086,
      "koningin": 4087,
      "##ulen": 4088,
      "moder": 4089,
      "ijzer": 4090,
      "##middelen": 4091,
      "##ussen": 4092,
      "fil": 4093,
      "financ": 4094,
      "intern": 4095,
      "vormen": 4096,
      "181": 4097,
      "kwamen": 4098,
      "kapt": 4099,
      "hunner": 4100,
      "snel": 4101,
      "eersten": 4102,
      "spreekt": 4103,
      "aarde": 4104,
      "vertrouwen": 4105,
      "##regel": 4106,
      "##stra": 4107,
      "##ique": 4108,
      "taak": 4109,
      "opga": 4110,
      "troepen": 4111,
      "meerder": 4112,
      "maakte": 4113,
      "cong": 4114,
      "verre": 4115,
      "aldus": 4116,
      "##uut": 4117,
      "kamp": 4118,
      "cap": 4119,
      "daaraan": 4120,
      "pog": 4121,
      "bloed": 4122,
      "reda": 4123,
      "verwij": 4124,
      "schrift": 4125,
      "adverten": 4126,
      "bewijzen": 4127,
      "tit": 4128,
      "200": 4129,
      "##ung": 4130,
      "##sh": 4131,
      "##scha": 4132,
      "boeken": 4133,
      "verlaten": 4134,
      "und": 4135,
      "##breid": 4136,
      "##ari": 4137,
      "predik": 4138,
      "##repen": 4139,
      "##eis": 4140,
      "##uiden": 4141,
      "uitsluit": 4142,
      "verkrijgbaar": 4143,
      "cn": 4144,
      "onderwerp": 4145,
      "bepalingen": 4146,
      "che": 4147,
      "scher": 4148,
      "bereid": 4149,
      "verloren": 4150,
      "##elingen": 4151,
      "partijen": 4152,
      "##jar": 4153,
      "##eede": 4154,
      "##hans": 4155,
      "geschreven": 4156,
      "##bond": 4157,
      "hoewel": 4158,
      "mi": 4159,
      "sou": 4160,
      "melk": 4161,
      "beteekenis": 4162,
      "65": 4163,
      "evenwel": 4164,
      "##lever": 4165,
      "##ene": 4166,
      "vel": 4167,
      "uitgaven": 4168,
      "rechts": 4169,
      "##erv": 4170,
      "werkt": 4171,
      "tab": 4172,
      "##sloten": 4173,
      "president": 4174,
      "eil": 4175,
      "bon": 4176,
      "uitvoering": 4177,
      "##gelaten": 4178,
      "voord": 4179,
      "dingen": 4180,
      "verleend": 4181,
      "##mans": 4182,
      "leggen": 4183,
      "bekw": 4184,
      "koff": 4185,
      "hoek": 4186,
      "##istische": 4187,
      "deu": 4188,
      "hist": 4189,
      "valt": 4190,
      "500": 4191,
      "onderv": 4192,
      "##deringen": 4193,
      "terrein": 4194,
      "hoof": 4195,
      "verbonden": 4196,
      "wind": 4197,
      "maal": 4198,
      "huize": 4199,
      "##ijt": 4200,
      "ag": 4201,
      "##ischen": 4202,
      "namiddags": 4203,
      "##hebben": 4204,
      "##loos": 4205,
      "##stellingen": 4206,
      "christen": 4207,
      "##eter": 4208,
      "dienen": 4209,
      "eenmaal": 4210,
      "##rip": 4211,
      "##stad": 4212,
      "##houders": 4213,
      "lu": 4214,
      "kapitein": 4215,
      "new": 4216,
      "verlang": 4217,
      "47": 4218,
      "med": 4219,
      "ouderd": 4220,
      "sin": 4221,
      "familie": 4222,
      "noemen": 4223,
      "bepaalde": 4224,
      "##sland": 4225,
      "##onken": 4226,
      "##staat": 4227,
      "aant": 4228,
      "wacht": 4229,
      "hield": 4230,
      "winter": 4231,
      "plus": 4232,
      "goud": 4233,
      "##icul": 4234,
      "po": 4235,
      "##eens": 4236,
      "##werkt": 4237,
      "benevens": 4238,
      "ongeluk": 4239,
      "ouderdom": 4240,
      "ni": 4241,
      "##ben": 4242,
      "maatregelen": 4243,
      "rel": 4244,
      "sommige": 4245,
      "##oll": 4246,
      "ontb": 4247,
      "stelt": 4248,
      "voornaam": 4249,
      "##etting": 4250,
      "##ogram": 4251,
      "dames": 4252,
      "##anken": 4253,
      "##za": 4254,
      "##oeven": 4255,
      "##eloos": 4256,
      "opgenomen": 4257,
      "hoogte": 4258,
      "betaling": 4259,
      "zom": 4260,
      "personeel": 4261,
      "trekken": 4262,
      "vonnis": 4263,
      "belangstelling": 4264,
      "inhoud": 4265,
      "##iii": 4266,
      "##mie": 4267,
      "riv": 4268,
      "totaal": 4269,
      "so": 4270,
      "##aarde": 4271,
      "waarschijnlijk": 4272,
      "wist": 4273,
      "karakter": 4274,
      "##eekende": 4275,
      "hooren": 4276,
      "gren": 4277,
      "leiding": 4278,
      "hor": 4279,
      "kinder": 4280,
      "##bert": 4281,
      "##urt": 4282,
      "vallen": 4283,
      "eigenaar": 4284,
      "geopen": 4285,
      "nationale": 4286,
      "departement": 4287,
      "mad": 4288,
      "##lijken": 4289,
      "##szins": 4290,
      "46": 4291,
      "deur": 4292,
      "##arb": 4293,
      "winkel": 4294,
      "##spel": 4295,
      "speel": 4296,
      "hemel": 4297,
      "dings": 4298,
      "pak": 4299,
      "hertog": 4300,
      "gevestigd": 4301,
      "52": 4302,
      "##aux": 4303,
      "##hoven": 4304,
      "gebouw": 4305,
      "dochter": 4306,
      "inlicht": 4307,
      "spra": 4308,
      "##huizen": 4309,
      "nap": 4310,
      "courant": 4311,
      "januarij": 4312,
      "veil": 4313,
      "hard": 4314,
      "afd": 4315,
      "burg": 4316,
      "telkens": 4317,
      "getuigen": 4318,
      "langer": 4319,
      "patr": 4320,
      "boeren": 4321,
      "mond": 4322,
      "##genoemde": 4323,
      "blik": 4324,
      "voordeel": 4325,
      "##iter": 4326,
      "schilder": 4327,
      "rede": 4328,
      "bericht": 4329,
      "berigt": 4330,
      "just": 4331,
      "##ock": 4332,
      "##pp": 4333,
      "##chn": 4334,
      "bos": 4335,
      "##ay": 4336,
      "##dra": 4337,
      "komm": 4338,
      "##put": 4339,
      "uitdruk": 4340,
      "zoover": 4341,
      "geboren": 4342,
      "##brengen": 4343,
      "voeren": 4344,
      "##rigt": 4345,
      "##ution": 4346,
      "##oofd": 4347,
      "johann": 4348,
      "wijz": 4349,
      "gunstig": 4350,
      "jr": 4351,
      "kantore": 4352,
      "verklaring": 4353,
      "brug": 4354,
      "##fc": 4355,
      "rapport": 4356,
      "vaderland": 4357,
      "##lijn": 4358,
      "##ction": 4359,
      "##ats": 4360,
      "lim": 4361,
      "##arte": 4362,
      "eiken": 4363,
      "bedien": 4364,
      "stra": 4365,
      "gh": 4366,
      "inlichtingen": 4367,
      "lam": 4368,
      "##andid": 4369,
      "voorloop": 4370,
      "gevolge": 4371,
      "weken": 4372,
      "vertegenwoordig": 4373,
      "##uwd": 4374,
      "leid": 4375,
      "##aamd": 4376,
      "voorbeeld": 4377,
      "##lyk": 4378,
      "ai": 4379,
      "##sb": 4380,
      "##etje": 4381,
      "jez": 4382,
      "aangekomen": 4383,
      "mater": 4384,
      "##ign": 4385,
      "##rekking": 4386,
      "rol": 4387,
      "##ment": 4388,
      "februari": 4389,
      "wijzen": 4390,
      "##ieur": 4391,
      "kantoor": 4392,
      "medege": 4393,
      "oorspr": 4394,
      "sprak": 4395,
      "lands": 4396,
      "##othe": 4397,
      "inderd": 4398,
      "militaire": 4399,
      "##zinn": 4400,
      "bevat": 4401,
      "ingen": 4402,
      "pot": 4403,
      "##kerk": 4404,
      "contra": 4405,
      "tol": 4406,
      "berigten": 4407,
      "jo": 4408,
      "getal": 4409,
      "syn": 4410,
      "##komt": 4411,
      "overal": 4412,
      "slotte": 4413,
      "111": 4414,
      "inderdaad": 4415,
      "wonder": 4416,
      "##maat": 4417,
      "scholen": 4418,
      "sam": 4419,
      "internation": 4420,
      "verzam": 4421,
      "##atuur": 4422,
      "stu": 4423,
      "lijden": 4424,
      "armen": 4425,
      "##pens": 4426,
      "voormid": 4427,
      "verkie": 4428,
      "inschrij": 4429,
      "##lt": 4430,
      "haren": 4431,
      "##woorden": 4432,
      "##wacht": 4433,
      "directie": 4434,
      "jeugd": 4435,
      "afgel": 4436,
      "##ple": 4437,
      "##oekt": 4438,
      "fig": 4439,
      "behoef": 4440,
      "85": 4441,
      "administratie": 4442,
      "##hol": 4443,
      "delft": 4444,
      "redactie": 4445,
      "bezwaar": 4446,
      "twijf": 4447,
      "aanwezig": 4448,
      "inf": 4449,
      "honderd": 4450,
      "##wege": 4451,
      "vijand": 4452,
      "reglement": 4453,
      "##do": 4454,
      "ob": 4455,
      "vrije": 4456,
      "rechter": 4457,
      "##di": 4458,
      "stud": 4459,
      "verschil": 4460,
      "indruk": 4461,
      "althans": 4462,
      "##ice": 4463,
      "dubb": 4464,
      "eigendom": 4465,
      "ak": 4466,
      "protest": 4467,
      "ontstaan": 4468,
      "##ieel": 4469,
      "behouden": 4470,
      "app": 4471,
      "##water": 4472,
      "##ote": 4473,
      "arr": 4474,
      "moesten": 4475,
      "49": 4476,
      "##eekend": 4477,
      "verzocht": 4478,
      "ti": 4479,
      "onmiddel": 4480,
      "kruis": 4481,
      "vervolgens": 4482,
      "##mee": 4483,
      "##ossing": 4484,
      "##wijze": 4485,
      "werking": 4486,
      "##schte": 4487,
      "verei": 4488,
      "ambtenaren": 4489,
      "##oeders": 4490,
      "examen": 4491,
      "2de": 4492,
      "wijs": 4493,
      "##yen": 4494,
      "##gezet": 4495,
      "zater": 4496,
      "werkelijk": 4497,
      "54": 4498,
      "daaren": 4499,
      "woning": 4500,
      "##era": 4501,
      "##ook": 4502,
      "bloem": 4503,
      "fre": 4504,
      "voorwaarden": 4505,
      "cond": 4506,
      "corresp": 4507,
      "##annen": 4508,
      "schade": 4509,
      "uitgegeven": 4510,
      "hon": 4511,
      "broeder": 4512,
      "gesp": 4513,
      "##chten": 4514,
      "##ry": 4515,
      "lou": 4516,
      "tu": 4517,
      "behooren": 4518,
      "proef": 4519,
      "vermeer": 4520,
      "##schoon": 4521,
      "##bracht": 4522,
      "kab": 4523,
      "beeld": 4524,
      "ur": 4525,
      "stel": 4526,
      "zend": 4527,
      "cijf": 4528,
      "##kant": 4529,
      "verstand": 4530,
      "tentoon": 4531,
      "goeden": 4532,
      "##verga": 4533,
      "##inen": 4534,
      "bezoek": 4535,
      "waaraan": 4536,
      "gol": 4537,
      "##lie": 4538,
      "##arm": 4539,
      "##haven": 4540,
      "uyt": 4541,
      "arch": 4542,
      "gewij": 4543,
      "worde": 4544,
      "ot": 4545,
      "gouverneur": 4546,
      "gezonden": 4547,
      "##rijs": 4548,
      "##ieele": 4549,
      "56": 4550,
      "nou": 4551,
      "##mel": 4552,
      "##aties": 4553,
      "53": 4554,
      "russ": 4555,
      "particul": 4556,
      "allerlei": 4557,
      "leerlingen": 4558,
      "180": 4559,
      "baron": 4560,
      "##anning": 4561,
      "cur": 4562,
      "verbr": 4563,
      "daarmede": 4564,
      "##komstig": 4565,
      "gebrek": 4566,
      "vaste": 4567,
      "##gaat": 4568,
      "wee": 4569,
      "beheer": 4570,
      "fch": 4571,
      "##eider": 4572,
      "cents": 4573,
      "geg": 4574,
      "pract": 4575,
      "amerika": 4576,
      "jaarlijk": 4577,
      "econ": 4578,
      "51": 4579,
      "overigen": 4580,
      "##ijer": 4581,
      "nummer": 4582,
      "##volgende": 4583,
      "zwolle": 4584,
      "phil": 4585,
      "##vi": 4586,
      "##langs": 4587,
      "afstand": 4588,
      "onmog": 4589,
      "schrijft": 4590,
      "eenigen": 4591,
      "alzoo": 4592,
      "bevel": 4593,
      "##ooting": 4594,
      "##yd": 4595,
      "behoeft": 4596,
      "fi": 4597,
      "bezig": 4598,
      "##ois": 4599,
      "tegenwoordige": 4600,
      "##iff": 4601,
      "jar": 4602,
      "vreemde": 4603,
      "aanvang": 4604,
      "##zigt": 4605,
      "namens": 4606,
      "zyne": 4607,
      "##gn": 4608,
      "lichaam": 4609,
      "deb": 4610,
      "##stond": 4611,
      "##oppen": 4612,
      "rusland": 4613,
      "bol": 4614,
      "##will": 4615,
      "tj": 4616,
      "spreker": 4617,
      "##keuring": 4618,
      "fab": 4619,
      "stij": 4620,
      "vleesch": 4621,
      "muziek": 4622,
      "liber": 4623,
      "past": 4624,
      "konings": 4625,
      "mooi": 4626,
      "hendrik": 4627,
      "uitsluitend": 4628,
      "sh": 4629,
      "inl": 4630,
      "korte": 4631,
      "paus": 4632,
      "zekere": 4633,
      "##oude": 4634,
      "##ance": 4635,
      "voel": 4636,
      "voorbij": 4637,
      "##gracht": 4638,
      "beginnen": 4639,
      "eere": 4640,
      "toepassing": 4641,
      "verbetering": 4642,
      "##ah": 4643,
      "heere": 4644,
      "##oefen": 4645,
      "gesproken": 4646,
      "eff": 4647,
      "form": 4648,
      "stels": 4649,
      "haven": 4650,
      "stap": 4651,
      "wets": 4652,
      "makel": 4653,
      "verkrijgen": 4654,
      "##intig": 4655,
      "dingsdag": 4656,
      "##gegaan": 4657,
      "vervoer": 4658,
      "leen": 4659,
      "minste": 4660,
      "belgie": 4661,
      "##cke": 4662,
      "uiteen": 4663,
      "trou": 4664,
      "voorstellen": 4665,
      "wedstrijd": 4666,
      "aanvoer": 4667,
      "##aer": 4668,
      "##vreden": 4669,
      "raa": 4670,
      "vaak": 4671,
      "direct": 4672,
      "lande": 4673,
      "commissaris": 4674,
      "ps": 4675,
      "jour": 4676,
      "gezag": 4677,
      "helft": 4678,
      "vertrek": 4679,
      "##cs": 4680,
      "##fter": 4681,
      "##gelegen": 4682,
      "blijken": 4683,
      "rem": 4684,
      "jongen": 4685,
      "congres": 4686,
      "verlangen": 4687,
      "iedere": 4688,
      "gal": 4689,
      "##ingt": 4690,
      "betalen": 4691,
      "act": 4692,
      "##hof": 4693,
      "##vereeniging": 4694,
      "uitm": 4695,
      "ouder": 4696,
      "cal": 4697,
      "leeren": 4698,
      "evenals": 4699,
      "beden": 4700,
      "##oenen": 4701,
      "econom": 4702,
      "kie": 4703,
      "hoogste": 4704,
      "warm": 4705,
      "##des": 4706,
      "zenden": 4707,
      "laag": 4708,
      "eischen": 4709,
      "eenvoudig": 4710,
      "afgevaar": 4711,
      "##gement": 4712,
      "##iele": 4713,
      "##gesch": 4714,
      "verdw": 4715,
      "##oemden": 4716,
      "##comm": 4717,
      "meld": 4718,
      "##derde": 4719,
      "geschied": 4720,
      "waaronder": 4721,
      "overeenkomst": 4722,
      "##bes": 4723,
      "punten": 4724,
      "##urdag": 4725,
      "##onie": 4726,
      "mevrouw": 4727,
      "ouders": 4728,
      "band": 4729,
      "##keer": 4730,
      "waarmede": 4731,
      "hoogst": 4732,
      "treden": 4733,
      "wijn": 4734,
      "buitenland": 4735,
      "ontde": 4736,
      "donker": 4737,
      "succes": 4738,
      "jezus": 4739,
      "word": 4740,
      "##beelden": 4741,
      "nieuws": 4742,
      "maje": 4743,
      "##iten": 4744,
      "##zeer": 4745,
      "##oote": 4746,
      "dorp": 4747,
      "industrie": 4748,
      "##issing": 4749,
      "##ta": 4750,
      "bedoeld": 4751,
      "##ye": 4752,
      "insp": 4753,
      "vooraf": 4754,
      "ave": 4755,
      "##otheek": 4756,
      "wr": 4757,
      "##ham": 4758,
      "exc": 4759,
      "aanget": 4760,
      "verricht": 4761,
      "##bergen": 4762,
      "moeite": 4763,
      "hiervan": 4764,
      "wiss": 4765,
      "kg": 4766,
      "##zaken": 4767,
      "luiten": 4768,
      "plant": 4769,
      "verschijn": 4770,
      "meisjes": 4771,
      "##keurd": 4772,
      "koe": 4773,
      "gan": 4774,
      "onlangs": 4775,
      "geopend": 4776,
      "begon": 4777,
      "vastgesteld": 4778,
      "meerdere": 4779,
      "opr": 4780,
      "eischer": 4781,
      "##ootschap": 4782,
      "revol": 4783,
      "##ijken": 4784,
      "##ogt": 4785,
      "1000": 4786,
      "fun": 4787,
      "prie": 4788,
      "##gevallen": 4789,
      "##wiss": 4790,
      "##ile": 4791,
      "##vig": 4792,
      "##eland": 4793,
      "waarvoor": 4794,
      "eigenlijk": 4795,
      "boter": 4796,
      "ep": 4797,
      "##bosch": 4798,
      "char": 4799,
      "jood": 4800,
      "kleur": 4801,
      "boom": 4802,
      "jongens": 4803,
      "##ns": 4804,
      "##hor": 4805,
      "ann": 4806,
      "zetten": 4807,
      "vis": 4808,
      "##ines": 4809,
      "telef": 4810,
      "##schenen": 4811,
      "rad": 4812,
      "voe": 4813,
      "miss": 4814,
      "wederom": 4815,
      "wees": 4816,
      "stemming": 4817,
      "zeg": 4818,
      "lad": 4819,
      "57": 4820,
      "##aen": 4821,
      "kapitaal": 4822,
      "##ema": 4823,
      "##baarheid": 4824,
      "rijn": 4825,
      "##kamer": 4826,
      "marine": 4827,
      "##atis": 4828,
      "verster": 4829,
      "jam": 4830,
      "all": 4831,
      "ofschoon": 4832,
      "##rest": 4833,
      "dun": 4834,
      "bedoelde": 4835,
      "##cul": 4836,
      "##rijke": 4837,
      "veen": 4838,
      "58": 4839,
      "##genooten": 4840,
      "##halve": 4841,
      "vertrokken": 4842,
      "##assa": 4843,
      "antwerpen": 4844,
      "##lijkheid": 4845,
      "hil": 4846,
      "brood": 4847,
      "station": 4848,
      "dord": 4849,
      "breed": 4850,
      "##ges": 4851,
      "vorst": 4852,
      "vervaar": 4853,
      "verantwoord": 4854,
      "liever": 4855,
      "##zee": 4856,
      "zaterdag": 4857,
      "tafel": 4858,
      "mart": 4859,
      "sen": 4860,
      "stelsel": 4861,
      "gedachten": 4862,
      "zwart": 4863,
      "##ais": 4864,
      "gelder": 4865,
      "tek": 4866,
      "voornaamste": 4867,
      "gezondheid": 4868,
      "def": 4869,
      "loo": 4870,
      "##hebb": 4871,
      "tan": 4872,
      "##lij": 4873,
      "##nt": 4874,
      "vaa": 4875,
      "twintig": 4876,
      "princ": 4877,
      "bepaling": 4878,
      "aangewezen": 4879,
      "prin": 4880,
      "gas": 4881,
      "luitenant": 4882,
      "##verheid": 4883,
      "##maken": 4884,
      "namelijk": 4885,
      "##issement": 4886,
      "noodige": 4887,
      "##strekt": 4888,
      "frie": 4889,
      "##uys": 4890,
      "##ica": 4891,
      "maj": 4892,
      "vac": 4893,
      "62": 4894,
      "kwart": 4895,
      "dre": 4896,
      "laatsten": 4897,
      "arbeids": 4898,
      "eveneens": 4899,
      "viel": 4900,
      "concl": 4901,
      "staatsblad": 4902,
      "kil": 4903,
      "spelen": 4904,
      "beiden": 4905,
      "benoem": 4906,
      "verplicht": 4907,
      "zware": 4908,
      "uitste": 4909,
      "onaf": 4910,
      "##hank": 4911,
      "roe": 4912,
      "wijziging": 4913,
      "son": 4914,
      "##atting": 4915,
      "bezwaren": 4916,
      "oorzaak": 4917,
      "##amelijk": 4918,
      "##gek": 4919,
      "##leur": 4920,
      "richting": 4921,
      "verandering": 4922,
      "zoeken": 4923,
      "betaald": 4924,
      "##zame": 4925,
      "disc": 4926,
      "meent": 4927,
      "##stukken": 4928,
      "schut": 4929,
      "##hal": 4930,
      "nieuwen": 4931,
      "onderwijzer": 4932,
      "##waardig": 4933,
      "ri": 4934,
      "tooneel": 4935,
      "##houder": 4936,
      "vlie": 4937,
      "##isters": 4938,
      "##brieken": 4939,
      "meerderheid": 4940,
      "zult": 4941,
      "genoegen": 4942,
      "##nieuw": 4943,
      "##cken": 4944,
      "bracht": 4945,
      "300": 4946,
      "geregeld": 4947,
      "vet": 4948,
      "##auw": 4949,
      "februarij": 4950,
      "##gers": 4951,
      "vat": 4952,
      "##vent": 4953,
      "aanmerking": 4954,
      "mate": 4955,
      "bereikt": 4956,
      "wiens": 4957,
      "##stens": 4958,
      "wegen": 4959,
      "steden": 4960,
      "expl": 4961,
      "gevolgen": 4962,
      "sw": 4963,
      "sport": 4964,
      "beschouwd": 4965,
      "geliefde": 4966,
      "wand": 4967,
      "program": 4968,
      "rog": 4969,
      "##boven": 4970,
      "rome": 4971,
      "voorm": 4972,
      "ernstig": 4973,
      "verklaren": 4974,
      "jap": 4975,
      "##goed": 4976,
      "##digden": 4977,
      "papier": 4978,
      "sold": 4979,
      "det": 4980,
      "hetzelve": 4981,
      "gelegd": 4982,
      "militair": 4983,
      "voormiddags": 4984,
      "zake": 4985,
      "##yden": 4986,
      "gu": 4987,
      "iii": 4988,
      "##nd": 4989,
      "aanvaarden": 4990,
      "bevoegd": 4991,
      "verschenen": 4992,
      "verspre": 4993,
      "pensioen": 4994,
      "officieren": 4995,
      "leveren": 4996,
      "##gekomen": 4997,
      "overigens": 4998,
      "aft": 4999,
      "hollandsche": 5000,
      "gekozen": 5001,
      "contr": 5002,
      "voornoemd": 5003,
      "##ng": 5004,
      "tou": 5005,
      "gewe": 5006,
      "katholieke": 5007,
      "ijver": 5008,
      "afdeelingen": 5009,
      "72": 5010,
      "##inder": 5011,
      "##rouw": 5012,
      "berichten": 5013,
      "##bli": 5014,
      "ontm": 5015,
      "gebleven": 5016,
      "elect": 5017,
      "rid": 5018,
      "##vergadering": 5019,
      "##leken": 5020,
      "##zelfs": 5021,
      "huizen": 5022,
      "gewezen": 5023,
      "##geer": 5024,
      "##orp": 5025,
      "sprake": 5026,
      "bele": 5027,
      "corresponden": 5028,
      "dordrecht": 5029,
      "tt": 5030,
      "republ": 5031,
      "mul": 5032,
      "opdat": 5033,
      "sym": 5034,
      "bloemen": 5035,
      "##iu": 5036,
      "##la": 5037,
      "keer": 5038,
      "##kundig": 5039,
      "##gemaakt": 5040,
      "soer": 5041,
      "wachten": 5042,
      "voortdur": 5043,
      "thuis": 5044,
      "inger": 5045,
      "verstaan": 5046,
      "##orven": 5047,
      "indische": 5048,
      "behoeve": 5049,
      "##bar": 5050,
      "##telijk": 5051,
      "##wed": 5052,
      "kamers": 5053,
      "obl": 5054,
      "##ada": 5055,
      "lok": 5056,
      "##bal": 5057,
      "chr": 5058,
      "ooster": 5059,
      "##avond": 5060,
      "candid": 5061,
      "bestemd": 5062,
      "dir": 5063,
      "##bladen": 5064,
      "gang": 5065,
      "nag": 5066,
      "dagelijks": 5067,
      "techn": 5068,
      "justitie": 5069,
      "gebruiken": 5070,
      "64": 5071,
      "##oeten": 5072,
      "italie": 5073,
      "bru": 5074,
      "dijk": 5075,
      "##ssel": 5076,
      "noodzakelijk": 5077,
      "sluit": 5078,
      "##zingen": 5079,
      "##ras": 5080,
      "medegedeeld": 5081,
      "onderste": 5082,
      "gi": 5083,
      "zwak": 5084,
      "goedge": 5085,
      "telegr": 5086,
      "overleed": 5087,
      "zomer": 5088,
      "voorraad": 5089,
      "hervorm": 5090,
      "aanstaande": 5091,
      "groep": 5092,
      "59": 5093,
      "##ooze": 5094,
      "##inet": 5095,
      "ler": 5096,
      "##vrouw": 5097,
      "studie": 5098,
      "##zaakt": 5099,
      "bepalen": 5100,
      "varkens": 5101,
      "##rict": 5102,
      "ue": 5103,
      "ondergeteekende": 5104,
      "eng": 5105,
      "maas": 5106,
      "alk": 5107,
      "##uct": 5108,
      "heu": 5109,
      "##enten": 5110,
      "##vingen": 5111,
      "##orgd": 5112,
      "dek": 5113,
      "welken": 5114,
      "schoone": 5115,
      "rivier": 5116,
      "zak": 5117,
      "kroon": 5118,
      "##ix": 5119,
      "95": 5120,
      "intusschen": 5121,
      "aa": 5122,
      "vo": 5123,
      "lezing": 5124,
      "gronden": 5125,
      "##eefd": 5126,
      "bladen": 5127,
      "rood": 5128,
      "leeftijd": 5129,
      "dringen": 5130,
      "##hang": 5131,
      "rang": 5132,
      "##ques": 5133,
      "##gere": 5134,
      "afl": 5135,
      "haer": 5136,
      "uitgave": 5137,
      "dieren": 5138,
      "##noo": 5139,
      "fraa": 5140,
      "ƒ2": 5141,
      "##sver": 5142,
      "##ammen": 5143,
      "##ition": 5144,
      "onmiddellijk": 5145,
      "##ive": 5146,
      "##geten": 5147,
      "fort": 5148,
      "brus": 5149,
      "##mond": 5150,
      "gemeld": 5151,
      "kent": 5152,
      "behandeld": 5153,
      "werkzaamheden": 5154,
      "ghe": 5155,
      "##ament": 5156,
      "zitten": 5157,
      "hoofdbestuur": 5158,
      "##isse": 5159,
      "63": 5160,
      "belanghebben": 5161,
      "breda": 5162,
      "66": 5163,
      "uitzonder": 5164,
      "##bil": 5165,
      "hetzij": 5166,
      "voorber": 5167,
      "##iment": 5168,
      "ins": 5169,
      "gehoord": 5170,
      "inform": 5171,
      "gre": 5172,
      "##bur": 5173,
      "waartoe": 5174,
      "##itien": 5175,
      "##isc": 5176,
      "hopen": 5177,
      "wetten": 5178,
      "beoor": 5179,
      "kwest": 5180,
      "3e": 5181,
      "verlies": 5182,
      "##zetten": 5183,
      "elders": 5184,
      "grenzen": 5185,
      "##waard": 5186,
      "beginsel": 5187,
      "mooie": 5188,
      "##ode": 5189,
      "stal": 5190,
      "onmogelijk": 5191,
      "beschikking": 5192,
      "ooit": 5193,
      "bas": 5194,
      "verhouding": 5195,
      "erv": 5196,
      "erg": 5197,
      "##zending": 5198,
      "dient": 5199,
      "##doende": 5200,
      "edel": 5201,
      "stof": 5202,
      "prec": 5203,
      "inn": 5204,
      "gering": 5205,
      "##dijk": 5206,
      "##boot": 5207,
      "##mann": 5208,
      "zorgen": 5209,
      "oranje": 5210,
      "tentoonstelling": 5211,
      "jongel": 5212,
      "paul": 5213,
      "##ick": 5214,
      "christelijke": 5215,
      "##hl": 5216,
      "pad": 5217,
      "meisje": 5218,
      "boe": 5219,
      "##oete": 5220,
      "gepl": 5221,
      "##inde": 5222,
      "##aand": 5223,
      "vle": 5224,
      "moed": 5225,
      "holl": 5226,
      "schot": 5227,
      "perceel": 5228,
      "ong": 5229,
      "cat": 5230,
      "politiek": 5231,
      "vereenigingen": 5232,
      "##leer": 5233,
      "zwarte": 5234,
      "opbren": 5235,
      "geacht": 5236,
      "##gebracht": 5237,
      "##ultuur": 5238,
      "onderwijzers": 5239,
      "##oost": 5240,
      "sectie": 5241,
      "bad": 5242,
      "voorloopig": 5243,
      "joden": 5244,
      "aanleg": 5245,
      "##ippen": 5246,
      "##megen": 5247,
      "beraad": 5248,
      "68": 5249,
      "##gte": 5250,
      "social": 5251,
      "##leggen": 5252,
      "moderne": 5253,
      "schad": 5254,
      "term": 5255,
      "##fs": 5256,
      "##gels": 5257,
      "##vert": 5258,
      "optreden": 5259,
      "instr": 5260,
      "##kerij": 5261,
      "bescher": 5262,
      "##jui": 5263,
      "##eeden": 5264,
      "wan": 5265,
      "ond": 5266,
      "179": 5267,
      "##th": 5268,
      "bou": 5269,
      "opgave": 5270,
      "krachten": 5271,
      "verwachten": 5272,
      "##markt": 5273,
      "goedkeuring": 5274,
      "vierde": 5275,
      "mais": 5276,
      "gouden": 5277,
      "behoefte": 5278,
      "negen": 5279,
      "hoogere": 5280,
      "daad": 5281,
      "lord": 5282,
      "##vraag": 5283,
      "kreeg": 5284,
      "61": 5285,
      "petr": 5286,
      "derhalve": 5287,
      "sijn": 5288,
      "hierbij": 5289,
      "zaturdag": 5290,
      "avec": 5291,
      "nous": 5292,
      "isra": 5293,
      "##uen": 5294,
      "##esse": 5295,
      "nal": 5296,
      "boord": 5297,
      "vertoon": 5298,
      "##ugt": 5299,
      "##ars": 5300,
      "zet": 5301,
      "paard": 5302,
      "commun": 5303,
      "67": 5304,
      "lat": 5305,
      "stell": 5306,
      "zacht": 5307,
      "gewicht": 5308,
      "##streeks": 5309,
      "penning": 5310,
      "betrokken": 5311,
      "##tel": 5312,
      "bijv": 5313,
      "begrijpen": 5314,
      "##telijke": 5315,
      "spanje": 5316,
      "##anda": 5317,
      "gewen": 5318,
      "##matig": 5319,
      "curs": 5320,
      "##isatie": 5321,
      "zang": 5322,
      "##stant": 5323,
      "##ocr": 5324,
      "bewezen": 5325,
      "uitbreid": 5326,
      "scheen": 5327,
      "schen": 5328,
      "nimmer": 5329,
      "beken": 5330,
      "##zoen": 5331,
      "##baren": 5332,
      "ouden": 5333,
      "plots": 5334,
      "##ov": 5335,
      "berlijn": 5336,
      "prakt": 5337,
      "public": 5338,
      "imp": 5339,
      "aandeel": 5340,
      "##tjes": 5341,
      "heilige": 5342,
      "mededeeling": 5343,
      "buitenlandsche": 5344,
      "patroon": 5345,
      "##tenis": 5346,
      "dins": 5347,
      "huwelijk": 5348,
      "gemelde": 5349,
      "titel": 5350,
      "bissch": 5351,
      "rh": 5352,
      "officier": 5353,
      "bak": 5354,
      "##inning": 5355,
      "sim": 5356,
      "weduwe": 5357,
      "sj": 5358,
      "##50": 5359,
      "##cc": 5360,
      "zoodanige": 5361,
      "vervolg": 5362,
      "kans": 5363,
      "afsch": 5364,
      "##igde": 5365,
      "deszelfs": 5366,
      "vry": 5367,
      "##ugde": 5368,
      "nijverheid": 5369,
      "##essen": 5370,
      "vergelijk": 5371,
      "bede": 5372,
      "77": 5373,
      "zieken": 5374,
      "##ork": 5375,
      "vertrekken": 5376,
      "150": 5377,
      "gef": 5378,
      "bereiken": 5379,
      "propag": 5380,
      "##plom": 5381,
      "jhr": 5382,
      "genaamd": 5383,
      "##eu": 5384,
      "waarb": 5385,
      "ontslag": 5386,
      "besprek": 5387,
      "nederlanden": 5388,
      "##ruk": 5389,
      "helpen": 5390,
      "##oest": 5391,
      "kolonien": 5392,
      "84": 5393,
      "##akte": 5394,
      "##ument": 5395,
      "##plaatsen": 5396,
      "##qui": 5397,
      "diver": 5398,
      "waaruit": 5399,
      "adm": 5400,
      "bevatten": 5401,
      "terecht": 5402,
      "##ugen": 5403,
      "glas": 5404,
      "brussel": 5405,
      "resultaat": 5406,
      "houding": 5407,
      "##ott": 5408,
      "twijfel": 5409,
      "##eii": 5410,
      "alsof": 5411,
      "bn": 5412,
      "binnenlandsche": 5413,
      "brit": 5414,
      "verleden": 5415,
      "##genen": 5416,
      "##iaan": 5417,
      "noor": 5418,
      "kunsten": 5419,
      "koninklijke": 5420,
      "74": 5421,
      "##zigd": 5422,
      "club": 5423,
      "lieden": 5424,
      "veert": 5425,
      "##empl": 5426,
      "##dagen": 5427,
      "71": 5428,
      "bes": 5429,
      "##iete": 5430,
      "##usie": 5431,
      "gehoor": 5432,
      "##eide": 5433,
      "middelburg": 5434,
      "bergen": 5435,
      "actie": 5436,
      "##ba": 5437,
      "83": 5438,
      "##tuig": 5439,
      "81": 5440,
      "cm": 5441,
      "bewer": 5442,
      "stuks": 5443,
      "##riv": 5444,
      "##tuigen": 5445,
      "afgeloopen": 5446,
      "##ftig": 5447,
      "dacht": 5448,
      "vog": 5449,
      "room": 5450,
      "overleg": 5451,
      "73": 5452,
      "##met": 5453,
      "voorgesteld": 5454,
      "besluiten": 5455,
      "beginselen": 5456,
      "jur": 5457,
      "##elend": 5458,
      "nijmegen": 5459,
      "##wijzing": 5460,
      "eerb": 5461,
      "overtuiging": 5462,
      "alwaar": 5463,
      "##ka": 5464,
      "gedeput": 5465,
      "##elyk": 5466,
      "uil": 5467,
      "redenen": 5468,
      "dichter": 5469,
      "medewerking": 5470,
      "begint": 5471,
      "geleid": 5472,
      "jj": 5473,
      "sec": 5474,
      "ing": 5475,
      "aanwez": 5476,
      "beslissing": 5477,
      "doe": 5478,
      "verscheidene": 5479,
      "rechten": 5480,
      "##getrokken": 5481,
      "tn": 5482,
      "kennisgeving": 5483,
      "can": 5484,
      "roer": 5485,
      "##oemt": 5486,
      "zynde": 5487,
      "##eedt": 5488,
      "helder": 5489,
      "verdr": 5490,
      "hi": 5491,
      "geschiedt": 5492,
      "##oogd": 5493,
      "nic": 5494,
      "gedachte": 5495,
      "begonnen": 5496,
      "cornel": 5497,
      "##kige": 5498,
      "abon": 5499,
      "peters": 5500,
      "##eringen": 5501,
      "koninklijk": 5502,
      "##zelfden": 5503,
      "##kn": 5504,
      "venn": 5505,
      "daarentegen": 5506,
      "zijt": 5507,
      "##oven": 5508,
      "uitg": 5509,
      "kwaad": 5510,
      "mogt": 5511,
      "aanbev": 5512,
      "planten": 5513,
      "kwaliteit": 5514,
      "##oeid": 5515,
      "##gene": 5516,
      "hierop": 5517,
      "zand": 5518,
      "uni": 5519,
      "##olie": 5520,
      "##oodigd": 5521,
      "duizend": 5522,
      "76": 5523,
      "##zaamheid": 5524,
      "arme": 5525,
      "bid": 5526,
      "deven": 5527,
      "##kracht": 5528,
      "##veen": 5529,
      "wetenschap": 5530,
      "pogingen": 5531,
      "##ulling": 5532,
      "geslacht": 5533,
      "##ommen": 5534,
      "88": 5535,
      "begrepen": 5536,
      "ecu": 5537,
      "##orten": 5538,
      "schijn": 5539,
      "ill": 5540,
      "ref": 5541,
      "##vallen": 5542,
      "zig": 5543,
      "sterke": 5544,
      "cred": 5545,
      "78": 5546,
      "vlug": 5547,
      "weig": 5548,
      "politieke": 5549,
      "overzicht": 5550,
      "gezicht": 5551,
      "gevolgd": 5552,
      "raads": 5553,
      "##teeken": 5554,
      "##ants": 5555,
      "geldt": 5556,
      "goedgekeurd": 5557,
      "##old": 5558,
      "mededeelingen": 5559,
      "##ms": 5560,
      "##igingen": 5561,
      "##phen": 5562,
      "zed": 5563,
      "sluiten": 5564,
      "gedaagde": 5565,
      "##weer": 5566,
      "verniet": 5567,
      "##rid": 5568,
      "82": 5569,
      "##tn": 5570,
      "##nemers": 5571,
      "positie": 5572,
      "feiten": 5573,
      "##beweging": 5574,
      "uitbreiding": 5575,
      "maak": 5576,
      "histor": 5577,
      "sinds": 5578,
      "bekwaam": 5579,
      "pond": 5580,
      "fer": 5581,
      "gor": 5582,
      "onderw": 5583,
      "elf": 5584,
      "zaal": 5585,
      "fransch": 5586,
      "gevoerd": 5587,
      "##oorn": 5588,
      "##ouwe": 5589,
      "io": 5590,
      "ui": 5591,
      "vergeten": 5592,
      "zoolang": 5593,
      "##inger": 5594,
      "kwestie": 5595,
      "##uchten": 5596,
      "400": 5597,
      "magt": 5598,
      "princip": 5599,
      "##zie": 5600,
      "luit": 5601,
      "vy": 5602,
      "twaal": 5603,
      "##komende": 5604,
      "gingen": 5605,
      "gebleken": 5606,
      "stads": 5607,
      "kas": 5608,
      "##aving": 5609,
      "pi": 5610,
      "lezers": 5611,
      "opbrengst": 5612,
      "##oorte": 5613,
      "##uf": 5614,
      "##cept": 5615,
      "limburg": 5616,
      "zoodra": 5617,
      "bedraagt": 5618,
      "##alt": 5619,
      "aff": 5620,
      "##gemerkt": 5621,
      "hoeveelheid": 5622,
      "krijgt": 5623,
      "vroegere": 5624,
      "69": 5625,
      "weenen": 5626,
      "trachten": 5627,
      "spe": 5628,
      "maast": 5629,
      "plotseling": 5630,
      "##kundigen": 5631,
      "kunt": 5632,
      "aux": 5633,
      "ul": 5634,
      "schee": 5635,
      "rest": 5636,
      "echtgenoot": 5637,
      "klaar": 5638,
      "bestond": 5639,
      "##standen": 5640,
      "vries": 5641,
      "oblig": 5642,
      "##waarts": 5643,
      "ƒ1": 5644,
      "##ama": 5645,
      "tl": 5646,
      "zilver": 5647,
      "tracht": 5648,
      "betrekkelijk": 5649,
      "voortdurend": 5650,
      "eiland": 5651,
      "hoofdstuk": 5652,
      "jn": 5653,
      "buitengewone": 5654,
      "begrooting": 5655,
      "opnieuw": 5656,
      "##appen": 5657,
      "gaven": 5658,
      "begrip": 5659,
      "##ieve": 5660,
      "##daag": 5661,
      "soerab": 5662,
      "sta": 5663,
      "norm": 5664,
      "tabak": 5665,
      "benoeming": 5666,
      "##inken": 5667,
      "ent": 5668,
      "rec": 5669,
      "uitmunten": 5670,
      "gemid": 5671,
      "weinige": 5672,
      "diens": 5673,
      "uitspraak": 5674,
      "luister": 5675,
      "ku": 5676,
      "hoogen": 5677,
      "##schot": 5678,
      "87": 5679,
      "bedoeling": 5680,
      "autor": 5681,
      "##eth": 5682,
      "##oph": 5683,
      "anna": 5684,
      "##rede": 5685,
      "schitter": 5686,
      "rente": 5687,
      "##bragt": 5688,
      "stak": 5689,
      "oefen": 5690,
      "##arch": 5691,
      "volgenden": 5692,
      "inrichting": 5693,
      "ruime": 5694,
      "internationale": 5695,
      "ministers": 5696,
      "programma": 5697,
      "sig": 5698,
      "halve": 5699,
      "cette": 5700,
      "schat": 5701,
      "geheim": 5702,
      "gelooven": 5703,
      "##stein": 5704,
      "##oedel": 5705,
      "wellicht": 5706,
      "stroom": 5707,
      "div": 5708,
      "dinsdag": 5709,
      "krachtig": 5710,
      "weldra": 5711,
      "deventer": 5712,
      "maastricht": 5713,
      "instit": 5714,
      "##sid": 5715,
      "##stof": 5716,
      "roode": 5717,
      "san": 5718,
      "evang": 5719,
      "tijdens": 5720,
      "keuken": 5721,
      "##ologie": 5722,
      "gegaan": 5723,
      "kerken": 5724,
      "##ly": 5725,
      "bijdragen": 5726,
      "ridder": 5727,
      "##ex": 5728,
      "til": 5729,
      "##schouw": 5730,
      "##eesche": 5731,
      "##achtige": 5732,
      "##arang": 5733,
      "onderhoud": 5734,
      "##arie": 5735,
      "frans": 5736,
      "sie": 5737,
      "##keurig": 5738,
      "bibli": 5739,
      "verkeer": 5740,
      "israel": 5741,
      "scheep": 5742,
      "tijds": 5743,
      "verp": 5744,
      "middags": 5745,
      "##uldigd": 5746,
      "tyd": 5747,
      "bere": 5748,
      "veiling": 5749,
      "parlement": 5750,
      "belastingen": 5751,
      "wenscht": 5752,
      "rechtbank": 5753,
      "##nemingen": 5754,
      "##imum": 5755,
      "##asse": 5756,
      "cijfers": 5757,
      "turk": 5758,
      "levering": 5759,
      "dra": 5760,
      "##jetten": 5761,
      "lijst": 5762,
      "dok": 5763,
      "rug": 5764,
      "##elende": 5765,
      "diplom": 5766,
      "##vankelijk": 5767,
      "zegen": 5768,
      "##uilen": 5769,
      "mol": 5770,
      "maga": 5771,
      "beeft": 5772,
      "vervangen": 5773,
      "prima": 5774,
      "##ager": 5775,
      "vernemen": 5776,
      "engelsch": 5777,
      "##ith": 5778,
      "trad": 5779,
      "max": 5780,
      "exploit": 5781,
      "wille": 5782,
      "##rist": 5783,
      "##uurd": 5784,
      "##regt": 5785,
      "buitengewoon": 5786,
      "xx": 5787,
      "ln": 5788,
      "kwee": 5789,
      "mun": 5790,
      "massa": 5791,
      "##rab": 5792,
      "ib": 5793,
      "han": 5794,
      "##ress": 5795,
      "##outen": 5796,
      "gelezen": 5797,
      "lof": 5798,
      "oplossing": 5799,
      "bron": 5800,
      "non": 5801,
      "bier": 5802,
      "aannemen": 5803,
      "##waardige": 5804,
      "district": 5805,
      "winst": 5806,
      "regten": 5807,
      "mogend": 5808,
      "##iz": 5809,
      "stren": 5810,
      "##ierd": 5811,
      "##ijds": 5812,
      "##jet": 5813,
      "86": 5814,
      "krijgs": 5815,
      "##ppen": 5816,
      "roepen": 5817,
      "##by": 5818,
      "ret": 5819,
      "plicht": 5820,
      "daaruit": 5821,
      "metho": 5822,
      "ic": 5823,
      "geestelijke": 5824,
      "##teurs": 5825,
      "##necht": 5826,
      "riep": 5827,
      "exempl": 5828,
      "kel": 5829,
      "hunnen": 5830,
      "mm": 5831,
      "##azen": 5832,
      "##ider": 5833,
      "ete": 5834,
      "gezin": 5835,
      "timmer": 5836,
      "bill": 5837,
      "##ieu": 5838,
      "tevreden": 5839,
      "mijnheer": 5840,
      "wilt": 5841,
      "##ustr": 5842,
      "telefoon": 5843,
      "##maar": 5844,
      "voorsp": 5845,
      "bis": 5846,
      "inwon": 5847,
      "##ateur": 5848,
      "##vige": 5849,
      "arrond": 5850,
      "79": 5851,
      "fot": 5852,
      "precies": 5853,
      "onderwerpen": 5854,
      "maer": 5855,
      "speciaal": 5856,
      "inz": 5857,
      "vreugde": 5858,
      "aau": 5859,
      "ontr": 5860,
      "pop": 5861,
      "verblijf": 5862,
      "##ini": 5863,
      "deelt": 5864,
      "tarwe": 5865,
      "##iteiten": 5866,
      "##gend": 5867,
      "ly": 5868,
      "genot": 5869,
      "bedragen": 5870,
      "tee": 5871,
      "hotel": 5872,
      "heet": 5873,
      "overtuigd": 5874,
      "##otte": 5875,
      "##broken": 5876,
      "##rijving": 5877,
      "verorden": 5878,
      "gezant": 5879,
      "##digt": 5880,
      "evangel": 5881,
      "##ara": 5882,
      "werklieden": 5883,
      "misd": 5884,
      "beslist": 5885,
      "##nes": 5886,
      "##brug": 5887,
      "neg": 5888,
      "behoorende": 5889,
      "univers": 5890,
      "zoogenaam": 5891,
      "tran": 5892,
      "belanghebbenden": 5893,
      "wonende": 5894,
      "resultaten": 5895,
      "amst": 5896,
      "aangevoerd": 5897,
      "wester": 5898,
      "voeten": 5899,
      "kring": 5900,
      "model": 5901,
      "##kunst": 5902,
      "comite": 5903,
      "adress": 5904,
      "gratis": 5905,
      "volstrekt": 5906,
      "das": 5907,
      "##hoff": 5908,
      "##bol": 5909,
      "rogge": 5910,
      "goedkoop": 5911,
      "onget": 5912,
      "dooreen": 5913,
      "vos": 5914,
      "onderling": 5915,
      "rekenen": 5916,
      "bakker": 5917,
      "ach": 5918,
      "volt": 5919,
      "meende": 5920,
      "##zeg": 5921,
      "waer": 5922,
      "##eezen": 5923,
      "##zins": 5924,
      "##zelven": 5925,
      "stam": 5926,
      "studen": 5927,
      "ff": 5928,
      "ingezonden": 5929,
      "nl": 5930,
      "##ochten": 5931,
      "wi": 5932,
      "schreef": 5933,
      "streven": 5934,
      "langen": 5935,
      "gecon": 5936,
      "##etenen": 5937,
      "nit": 5938,
      "volken": 5939,
      "brab": 5940,
      "leed": 5941,
      "logement": 5942,
      "##aarden": 5943,
      "##uv": 5944,
      "##beg": 5945,
      "##fterdam": 5946,
      "##atief": 5947,
      "wilhel": 5948,
      "bezitten": 5949,
      "##loopen": 5950,
      "##hart": 5951,
      "jaars": 5952,
      "afrik": 5953,
      "##rijzen": 5954,
      "heele": 5955,
      "klee": 5956,
      "##wijfeld": 5957,
      "hum": 5958,
      "##ged": 5959,
      "##adig": 5960,
      "apothe": 5961,
      "sing": 5962,
      "keuze": 5963,
      "os": 5964,
      "boekhandelaar": 5965,
      "sem": 5966,
      "droog": 5967,
      "uitzondering": 5968,
      "##ations": 5969,
      "##bor": 5970,
      "##ters": 5971,
      "mark": 5972,
      "pieter": 5973,
      "##oire": 5974,
      "##yer": 5975,
      "mont": 5976,
      "##wek": 5977,
      "##maker": 5978,
      "##zetting": 5979,
      "zjj": 5980,
      "beschouwen": 5981,
      "##bbe": 5982,
      "afgevaardigden": 5983,
      "##making": 5984,
      "##iti": 5985,
      "opp": 5986,
      "stonden": 5987,
      "liep": 5988,
      "abs": 5989,
      "dl": 5990,
      "##boom": 5991,
      "cas": 5992,
      "ondan": 5993,
      "##schappelijke": 5994,
      "##ring": 5995,
      "##eids": 5996,
      "nom": 5997,
      "##asting": 5998,
      "johannes": 5999,
      "zekerheid": 6000,
      "##spect": 6001,
      "standpunt": 6002,
      "aangezien": 6003,
      "russische": 6004,
      "genieten": 6005,
      "verzekerd": 6006,
      "inkomsten": 6007,
      "tor": 6008,
      "houdende": 6009,
      "onderscheidene": 6010,
      "99": 6011,
      "middag": 6012,
      "schie": 6013,
      "kanton": 6014,
      "hierin": 6015,
      "##gh": 6016,
      "ban": 6017,
      "sla": 6018,
      "92": 6019,
      "aart": 6020,
      "##lyke": 6021,
      "meestal": 6022,
      "##tens": 6023,
      "ondanks": 6024,
      "bevragen": 6025,
      "concur": 6026,
      "##ulde": 6027,
      "gewoonlijk": 6028,
      "eenheid": 6029,
      "beantwoord": 6030,
      "##bruik": 6031,
      "overweging": 6032,
      "##matige": 6033,
      "begeven": 6034,
      "werkge": 6035,
      "kloo": 6036,
      "##bt": 6037,
      "storm": 6038,
      "bevelen": 6039,
      "ingevolge": 6040,
      "vereenigde": 6041,
      "ner": 6042,
      "##inck": 6043,
      "halen": 6044,
      "menigte": 6045,
      "salaris": 6046,
      "vergun": 6047,
      "denkt": 6048,
      "bodem": 6049,
      "hamburg": 6050,
      "##aarten": 6051,
      "richt": 6052,
      "gevangenis": 6053,
      "erve": 6054,
      "verhooging": 6055,
      "##kosten": 6056,
      "twaalf": 6057,
      "dei": 6058,
      "deeze": 6059,
      "orgaan": 6060,
      "predikant": 6061,
      "hiermede": 6062,
      "hec": 6063,
      "elle": 6064,
      "etc": 6065,
      "meter": 6066,
      "##eerst": 6067,
      "lagere": 6068,
      "gedrukt": 6069,
      "zilveren": 6070,
      "##ardin": 6071,
      "aang": 6072,
      "ingang": 6073,
      "verzekering": 6074,
      "gy": 6075,
      "##ifte": 6076,
      "pijn": 6077,
      "schouw": 6078,
      "dagblad": 6079,
      "smaak": 6080,
      "##schappij": 6081,
      "kampen": 6082,
      "contract": 6083,
      "iu": 6084,
      "##kennen": 6085,
      "aangev": 6086,
      "ontvangst": 6087,
      "provinciale": 6088,
      "opstand": 6089,
      "verneemt": 6090,
      "##aaien": 6091,
      "ts": 6092,
      "##nu": 6093,
      "leest": 6094,
      "jaargang": 6095,
      "##ikte": 6096,
      "gemeenschap": 6097,
      "meub": 6098,
      "##kelijke": 6099,
      "dou": 6100,
      "kanaal": 6101,
      "opvoeding": 6102,
      "##ors": 6103,
      "daarover": 6104,
      "##oets": 6105,
      "scherp": 6106,
      "ingekomen": 6107,
      "harer": 6108,
      "##prijs": 6109,
      "wijlen": 6110,
      "lees": 6111,
      "tus": 6112,
      "##ulp": 6113,
      "lust": 6114,
      "confer": 6115,
      "##ace": 6116,
      "acte": 6117,
      "graf": 6118,
      "voorde": 6119,
      "kabinet": 6120,
      "##past": 6121,
      "##jen": 6122,
      "verdeeld": 6123,
      "##kamp": 6124,
      "spie": 6125,
      "##stigen": 6126,
      "zijden": 6127,
      "verlof": 6128,
      "##stat": 6129,
      "##ule": 6130,
      "contrib": 6131,
      "ernstige": 6132,
      "##ti": 6133,
      "trek": 6134,
      "dagbladen": 6135,
      "vv": 6136,
      "stelde": 6137,
      "afzonderlijk": 6138,
      "amfterdam": 6139,
      "noemt": 6140,
      "fra": 6141,
      "##wal": 6142,
      "ram": 6143,
      "ingenieur": 6144,
      "meenen": 6145,
      "##mis": 6146,
      "##rit": 6147,
      "baar": 6148,
      "##ji": 6149,
      "##bez": 6150,
      "verspreid": 6151,
      "##ymn": 6152,
      "##urig": 6153,
      "minstens": 6154,
      "##malen": 6155,
      "aanbeste": 6156,
      "2°": 6157,
      "96": 6158,
      "wedstrijden": 6159,
      "eten": 6160,
      "##organis": 6161,
      "hoed": 6162,
      "prem": 6163,
      "achten": 6164,
      "##oopt": 6165,
      "ov": 6166,
      "##llll": 6167,
      "conf": 6168,
      "gc": 6169,
      "##het": 6170,
      "thee": 6171,
      "##part": 6172,
      "roy": 6173,
      "##gebied": 6174,
      "##ours": 6175,
      "hertogen": 6176,
      "joodsche": 6177,
      "##ceelen": 6178,
      "##dracht": 6179,
      "##fabriek": 6180,
      "##ome": 6181,
      "verhaal": 6182,
      "controle": 6183,
      "jongste": 6184,
      "89": 6185,
      "scheeps": 6186,
      "rein": 6187,
      "##orde": 6188,
      "hage": 6189,
      "grondslag": 6190,
      "##issingen": 6191,
      "##volle": 6192,
      "journ": 6193,
      "##yde": 6194,
      "evenmin": 6195,
      "soo": 6196,
      "boot": 6197,
      "##ions": 6198,
      "gear": 6199,
      "wordende": 6200,
      "uitslag": 6201,
      "toonen": 6202,
      "terstond": 6203,
      "##prod": 6204,
      "verleenen": 6205,
      "##ico": 6206,
      "ijzeren": 6207,
      "hyp": 6208,
      "wethouders": 6209,
      "##gezonden": 6210,
      "opgedragen": 6211,
      "##oefening": 6212,
      "vermogen": 6213,
      "antwoordde": 6214,
      "jans": 6215,
      "zuster": 6216,
      "toegelaten": 6217,
      "volm": 6218,
      "gezel": 6219,
      "put": 6220,
      "##ivid": 6221,
      "grij": 6222,
      "##uer": 6223,
      "##andant": 6224,
      "##ogra": 6225,
      "gedrag": 6226,
      "93": 6227,
      "ick": 6228,
      "infant": 6229,
      "behoorlijk": 6230,
      "loopt": 6231,
      "productie": 6232,
      "betrekkingen": 6233,
      "zullende": 6234,
      "geboorte": 6235,
      "plaatselijke": 6236,
      "eenigszins": 6237,
      "##eeder": 6238,
      "##alk": 6239,
      "##diend": 6240,
      "roeden": 6241,
      "proces": 6242,
      "bepr": 6243,
      "nadeel": 6244,
      "##uel": 6245,
      "voldaan": 6246,
      "##ftr": 6247,
      "bevinden": 6248,
      "adj": 6249,
      "##sport": 6250,
      "##organisatie": 6251,
      "ontle": 6252,
      "melden": 6253,
      "buur": 6254,
      "jacht": 6255,
      "##hn": 6256,
      "##iem": 6257,
      "91": 6258,
      "##moedig": 6259,
      "cit": 6260,
      "yan": 6261,
      "beraadslag": 6262,
      "##omb": 6263,
      "korten": 6264,
      "dd": 6265,
      "deden": 6266,
      "zichzelf": 6267,
      "##merken": 6268,
      "grondwet": 6269,
      "veroordeeld": 6270,
      "assen": 6271,
      "##zn": 6272,
      "diverse": 6273,
      "gemeenter": 6274,
      "zagen": 6275,
      "##ouwer": 6276,
      "vermoed": 6277,
      "##levering": 6278,
      "##yp": 6279,
      "aardapp": 6280,
      "tegelijk": 6281,
      "majeste": 6282,
      "natie": 6283,
      "slaan": 6284,
      "##essie": 6285,
      "gebouwen": 6286,
      "##apper": 6287,
      "vruchten": 6288,
      "gedeputeerde": 6289,
      "hong": 6290,
      "vreemd": 6291,
      "makelaars": 6292,
      "##vak": 6293,
      "##beek": 6294,
      "##gar": 6295,
      "bezocht": 6296,
      "##jn": 6297,
      "##lich": 6298,
      "##wa": 6299,
      "zeil": 6300,
      "##mo": 6301,
      "run": 6302,
      "##ua": 6303,
      "koopen": 6304,
      "denkbeeld": 6305,
      "voorstelling": 6306,
      "betere": 6307,
      "kies": 6308,
      "constit": 6309,
      "denzelfden": 6310,
      "##vo": 6311,
      "individ": 6312,
      "bevonden": 6313,
      "##zucht": 6314,
      "beurt": 6315,
      "gast": 6316,
      "alb": 6317,
      "94": 6318,
      "tex": 6319,
      "discuss": 6320,
      "compag": 6321,
      "##aud": 6322,
      "##iend": 6323,
      "##deels": 6324,
      "##waarde": 6325,
      "ambtenaar": 6326,
      "overeenkomstig": 6327,
      "##tenissen": 6328,
      "##ittingen": 6329,
      "##vee": 6330,
      "verliezen": 6331,
      "##erking": 6332,
      "##ijven": 6333,
      "vaart": 6334,
      "veer": 6335,
      "##ffe": 6336,
      "nr": 6337,
      "publieke": 6338,
      "priester": 6339,
      "gebouwd": 6340,
      "mit": 6341,
      "propaganda": 6342,
      "zelven": 6343,
      "98": 6344,
      "perceelen": 6345,
      "##seh": 6346,
      "blijkbaar": 6347,
      "gymn": 6348,
      "97": 6349,
      "bevordering": 6350,
      "provincien": 6351,
      "jeug": 6352,
      "financien": 6353,
      "oogst": 6354,
      "arrest": 6355,
      "kra": 6356,
      "##aalden": 6357,
      "produc": 6358,
      "onderscheiden": 6359,
      "##omme": 6360,
      "getroffen": 6361,
      "haast": 6362,
      "aandeelen": 6363,
      "##umenten": 6364,
      "gericht": 6365,
      "##uister": 6366,
      "##ias": 6367,
      "honden": 6368,
      "120": 6369,
      "##unstig": 6370,
      "gekl": 6371,
      "##steen": 6372,
      "slacht": 6373,
      "bedroeg": 6374,
      "juiste": 6375,
      "borst": 6376,
      "friesland": 6377,
      "aanval": 6378,
      "##ana": 6379,
      "##act": 6380,
      "kijk": 6381,
      "onr": 6382,
      "verander": 6383,
      "##ino": 6384,
      "advies": 6385,
      "verdient": 6386,
      "178": 6387,
      "cle": 6388,
      "inschrijving": 6389,
      "##ukken": 6390,
      "##name": 6391,
      "##dc": 6392,
      "gevor": 6393,
      "aangenaam": 6394,
      "##rigting": 6395,
      "kust": 6396,
      "dj": 6397,
      "gerust": 6398,
      "verdediging": 6399,
      "bisschop": 6400,
      "ondersteun": 6401,
      "stok": 6402,
      "centrale": 6403,
      "##stal": 6404,
      "ces": 6405,
      "rev": 6406,
      "subsid": 6407,
      "lengte": 6408,
      "cel": 6409,
      "##rim": 6410,
      "penningmeester": 6411,
      "oen": 6412,
      "600": 6413,
      "concert": 6414,
      "##standers": 6415,
      "liggende": 6416,
      "bouwen": 6417,
      "york": 6418,
      "hond": 6419,
      "##bedrijf": 6420,
      "##zaal": 6421,
      "##meren": 6422,
      "verzonden": 6423,
      "talen": 6424,
      "overlijden": 6425,
      "geden": 6426,
      "vervallen": 6427,
      "zut": 6428,
      "##fort": 6429,
      "leur": 6430,
      "plat": 6431,
      "herhaald": 6432,
      "sterven": 6433,
      "ongetwijfeld": 6434,
      "verkiezing": 6435,
      "fijne": 6436,
      "schiedam": 6437,
      "vend": 6438,
      "verklaarde": 6439,
      "fonds": 6440,
      "civ": 6441,
      "japan": 6442,
      "opgericht": 6443,
      "##stoffen": 6444,
      "i°": 6445,
      "##itz": 6446,
      "pag": 6447,
      "waarsch": 6448,
      "##broek": 6449,
      "olie": 6450,
      "gedeeltelijk": 6451,
      "wilden": 6452,
      "artill": 6453,
      "zgn": 6454,
      "##ike": 6455,
      "##vat": 6456,
      "bc": 6457,
      "bijbel": 6458,
      "##jk": 6459,
      "##wend": 6460,
      "##verk": 6461,
      "exped": 6462,
      "kalm": 6463,
      "tijdschrift": 6464,
      "##atische": 6465,
      "will": 6466,
      "agent": 6467,
      "procure": 6468,
      "wetsont": 6469,
      "##raden": 6470,
      "ingezetenen": 6471,
      "##verkoop": 6472,
      "gezamen": 6473,
      "mann": 6474,
      "advertentien": 6475,
      "##une": 6476,
      "fabrik": 6477,
      "molen": 6478,
      "##usten": 6479,
      "##schepen": 6480,
      "bladz": 6481,
      "##zijds": 6482,
      "porte": 6483,
      "lieve": 6484,
      "bieden": 6485,
      "##ro": 6486,
      "##chem": 6487,
      "flor": 6488,
      "bewust": 6489,
      "bleven": 6490,
      "bespreking": 6491,
      "onafhank": 6492,
      "sociale": 6493,
      "##hoe": 6494,
      "hoorn": 6495,
      "vorig": 6496,
      "genade": 6497,
      "broeders": 6498,
      "##oeping": 6499,
      "bedrijven": 6500,
      "verwonder": 6501,
      "burgerlijke": 6502,
      "sel": 6503,
      "freder": 6504,
      "ontmoet": 6505,
      "toebe": 6506,
      "##ids": 6507,
      "alkmaar": 6508,
      "getrokken": 6509,
      "griff": 6510,
      "fabrieken": 6511,
      "vin": 6512,
      "ket": 6513,
      "beurs": 6514,
      "bereken": 6515,
      "inspec": 6516,
      "##dsel": 6517,
      "mes": 6518,
      "opleiding": 6519,
      "gevorm": 6520,
      "katoen": 6521,
      "liefst": 6522,
      "naauw": 6523,
      "dar": 6524,
      "kaas": 6525,
      "onderneming": 6526,
      "geroepen": 6527,
      "lut": 6528,
      "coup": 6529,
      "vestigen": 6530,
      "##aauw": 6531,
      "advoc": 6532,
      "ijs": 6533,
      "##up": 6534,
      "wijst": 6535,
      "platen": 6536,
      "tin": 6537,
      "conclusie": 6538,
      "##tent": 6539,
      "opzichte": 6540,
      "##deling": 6541,
      "behoeven": 6542,
      "vordering": 6543,
      "##sluiting": 6544,
      "##oefend": 6545,
      "regtbank": 6546,
      "lage": 6547,
      "##elaar": 6548,
      "##scher": 6549,
      "##ls": 6550,
      "boomen": 6551,
      "eenvoudige": 6552,
      "krachtens": 6553,
      "regelen": 6554,
      "belgische": 6555,
      "chin": 6556,
      "gebonden": 6557,
      "##spra": 6558,
      "herzien": 6559,
      "trouwens": 6560,
      "##steem": 6561,
      "inst": 6562,
      "diensten": 6563,
      "##trek": 6564,
      "wint": 6565,
      "lei": 6566,
      "##nemens": 6567,
      "bedre": 6568,
      "##acteur": 6569,
      "##belasting": 6570,
      "opening": 6571,
      "opvatting": 6572,
      "lee": 6573,
      "overwinning": 6574,
      "nos": 6575,
      "geweld": 6576,
      "franc": 6577,
      "##ici": 6578,
      "been": 6579,
      "aangelegen": 6580,
      "log": 6581,
      "winnen": 6582,
      "soldaten": 6583,
      "mogelijkheid": 6584,
      "besproken": 6585,
      "pruissen": 6586,
      "##hui": 6587,
      "##uite": 6588,
      "fond": 6589,
      "talrijke": 6590,
      "keeren": 6591,
      "ƒ3": 6592,
      "zwee": 6593,
      "erkennen": 6594,
      "fur": 6595,
      "##cten": 6596,
      "onderscheid": 6597,
      "waard": 6598,
      "cultuur": 6599,
      "##vrij": 6600,
      "geringe": 6601,
      "kada": 6602,
      "onrecht": 6603,
      "maatregel": 6604,
      "##geleverd": 6605,
      "relig": 6606,
      "cursus": 6607,
      "##oedige": 6608,
      "voorwerpen": 6609,
      "bus": 6610,
      "uitgesproken": 6611,
      "eet": 6612,
      "##cen": 6613,
      "manier": 6614,
      "let": 6615,
      "##genoote": 6616,
      "volg": 6617,
      "lading": 6618,
      "qua": 6619,
      "##alog": 6620,
      "##lin": 6621,
      "munt": 6622,
      "vergaderingen": 6623,
      "prachtige": 6624,
      "##ffrouw": 6625,
      "##oegde": 6626,
      "mogelijke": 6627,
      "zeeland": 6628,
      "##ao": 6629,
      "gehand": 6630,
      "verklaart": 6631,
      "surin": 6632,
      "ras": 6633,
      "meldt": 6634,
      "schapen": 6635,
      "ambt": 6636,
      "##drukt": 6637,
      "harm": 6638,
      "residen": 6639,
      "##illes": 6640,
      "ruimte": 6641,
      "##uimen": 6642,
      "##commissie": 6643,
      "##zelver": 6644,
      "linnen": 6645,
      "zelfstand": 6646,
      "heelt": 6647,
      "##por": 6648,
      "gegevens": 6649,
      "aangegeven": 6650,
      "##older": 6651,
      "geleverd": 6652,
      "##ograf": 6653,
      "toezicht": 6654,
      "##speeld": 6655,
      "hoofden": 6656,
      "bijzonderheden": 6657,
      "##opt": 6658,
      "sont": 6659,
      "##maals": 6660,
      "verboden": 6661,
      "##gemelde": 6662,
      "kool": 6663,
      "##aafd": 6664,
      "film": 6665,
      "sat": 6666,
      "napole": 6667,
      "rijst": 6668,
      "keizers": 6669,
      "noorden": 6670,
      "overge": 6671,
      "toev": 6672,
      "gepr": 6673,
      "cc": 6674,
      "##iiiiiiii": 6675,
      "gerecht": 6676,
      "##ftal": 6677,
      "erkend": 6678,
      "samarang": 6679,
      "##wagen": 6680,
      "zwits": 6681,
      "biedt": 6682,
      "250": 6683,
      "soeraba": 6684,
      "cre": 6685,
      "kast": 6686,
      "onversch": 6687,
      "ms": 6688,
      "##eild": 6689,
      "wis": 6690,
      "##strijd": 6691,
      "##cli": 6692,
      "##verm": 6693,
      "bevre": 6694,
      "##eegd": 6695,
      "bour": 6696,
      "pij": 6697,
      "getu": 6698,
      "handelingen": 6699,
      "##gestelde": 6700,
      "volgend": 6701,
      "baan": 6702,
      "uitgevoerd": 6703,
      "voorl": 6704,
      "##zend": 6705,
      "letters": 6706,
      "##keren": 6707,
      "##erve": 6708,
      "verr": 6709,
      "pater": 6710,
      "heem": 6711,
      "##reet": 6712,
      "mogendheden": 6713,
      "jij": 6714,
      "##tige": 6715,
      "machine": 6716,
      "##handelingen": 6717,
      "3de": 6718,
      "##plant": 6719,
      "zonen": 6720,
      "ec": 6721,
      "grand": 6722,
      "geschrift": 6723,
      "overeenstemming": 6724,
      "onderhouden": 6725,
      "oppervl": 6726,
      "gewonnen": 6727,
      "blok": 6728,
      "eerder": 6729,
      "methode": 6730,
      "leeraar": 6731,
      "zoekt": 6732,
      "##oge": 6733,
      "circul": 6734,
      "##ograph": 6735,
      "advertentie": 6736,
      "liter": 6737,
      "mus": 6738,
      "plannen": 6739,
      "offer": 6740,
      "wh": 6741,
      "afloop": 6742,
      "##brand": 6743,
      "##looze": 6744,
      "zwij": 6745,
      "##gebouw": 6746,
      "bewonder": 6747,
      "gedacht": 6748,
      "ros": 6749,
      "luc": 6750,
      "##alis": 6751,
      "cert": 6752,
      "waarlijk": 6753,
      "serv": 6754,
      "vlag": 6755,
      "verschijnen": 6756,
      "koffie": 6757,
      "stelling": 6758,
      "alex": 6759,
      "consul": 6760,
      "eeuwen": 6761,
      "tekst": 6762,
      "hh": 6763,
      "koopman": 6764,
      "schuur": 6765,
      "hecht": 6766,
      "##werkers": 6767,
      "voortaan": 6768,
      "myn": 6769,
      "tri": 6770,
      "verzoeken": 6771,
      "##ko": 6772,
      "tengevolge": 6773,
      "uitgever": 6774,
      "grootere": 6775,
      "bern": 6776,
      "vraagstuk": 6777,
      "##erende": 6778,
      "##oofde": 6779,
      "houten": 6780,
      "circa": 6781,
      "bekr": 6782,
      "nalaten": 6783,
      "beschikbaar": 6784,
      "minuten": 6785,
      "dev": 6786,
      "if": 6787,
      "portr": 6788,
      "dame": 6789,
      "##iaansche": 6790,
      "##yr": 6791,
      "lux": 6792,
      "vrijwill": 6793,
      "weekblad": 6794,
      "##eesters": 6795,
      "pastoor": 6796,
      "geenszins": 6797,
      "vn": 6798,
      "##ademie": 6799,
      "overheid": 6800,
      "laste": 6801,
      "voorschriften": 6802,
      "prachtig": 6803,
      "voornemens": 6804,
      "instituut": 6805,
      "jes": 6806,
      "verscha": 6807,
      "hoorde": 6808,
      "pan": 6809,
      "##dheid": 6810,
      "sir": 6811,
      "##rijding": 6812,
      "grote": 6813,
      "gewigt": 6814,
      "gedragen": 6815,
      "serie": 6816,
      "voornamelijk": 6817,
      "##oerde": 6818,
      "onaan": 6819,
      "dt": 6820,
      "lezer": 6821,
      "ae": 6822,
      "fel": 6823,
      "##gekeerd": 6824,
      "afzonderlijke": 6825,
      "bevorderen": 6826,
      "##isis": 6827,
      "beant": 6828,
      "moeilijkheden": 6829,
      "dav": 6830,
      "gereform": 6831,
      "wonen": 6832,
      "ran": 6833,
      "blijkens": 6834,
      "omstreeks": 6835,
      "hoogleer": 6836,
      "deugd": 6837,
      "troon": 6838,
      "##heven": 6839,
      "strek": 6840,
      "lste": 6841,
      "zoogenaamde": 6842,
      "echte": 6843,
      "philip": 6844,
      "bevr": 6845,
      "##selen": 6846,
      "##able": 6847,
      "huishoud": 6848,
      "zwe": 6849,
      "handelen": 6850,
      "##hoog": 6851,
      "bevoegdheid": 6852,
      "bul": 6853,
      "aal": 6854,
      "hertogenbosch": 6855,
      "verscheiden": 6856,
      "##sluis": 6857,
      "stede": 6858,
      "##sehe": 6859,
      "thom": 6860,
      "##erc": 6861,
      "corps": 6862,
      "##schaffing": 6863,
      "roem": 6864,
      "vonden": 6865,
      "alg": 6866,
      "sr": 6867,
      "genegen": 6868,
      "groene": 6869,
      "merken": 6870,
      "##geren": 6871,
      "amende": 6872,
      "hang": 6873,
      "fol": 6874,
      "coop": 6875,
      "aanvrage": 6876,
      "republiek": 6877,
      "ontslagen": 6878,
      "gewerkt": 6879,
      "verlangt": 6880,
      "##alisme": 6881,
      "##oeit": 6882,
      "##slaan": 6883,
      "voortgezet": 6884,
      "##drongen": 6885,
      "motor": 6886,
      "organis": 6887,
      "geleerd": 6888,
      "aanst": 6889,
      "procureur": 6890,
      "zelden": 6891,
      "##betaling": 6892,
      "oorlogs": 6893,
      "##aires": 6894,
      "gezet": 6895,
      "voorkomende": 6896,
      "##zinge": 6897,
      "uiterlijk": 6898,
      "langzaam": 6899,
      "kaart": 6900,
      "##ures": 6901,
      "fc": 6902,
      "inc": 6903,
      "##bi": 6904,
      "ses": 6905,
      "infanterie": 6906,
      "##ijck": 6907,
      "hop": 6908,
      "##ziek": 6909,
      "schrik": 6910,
      "geteekend": 6911,
      "gram": 6912,
      "economische": 6913,
      "vennootschap": 6914,
      "##eerende": 6915,
      "agenten": 6916,
      "kerkelijke": 6917,
      "uitdrukking": 6918,
      "draagt": 6919,
      "amerikaansche": 6920,
      "uitgevers": 6921,
      "komende": 6922,
      "gelijke": 6923,
      "jou": 6924,
      "##verg": 6925,
      "##erden": 6926,
      "regter": 6927,
      "##lam": 6928,
      "##heen": 6929,
      "##haald": 6930,
      "societe": 6931,
      "fait": 6932,
      "klooster": 6933,
      "staal": 6934,
      "voorkeur": 6935,
      "##usters": 6936,
      "##no": 6937,
      "##zett": 6938,
      "grootte": 6939,
      "louis": 6940,
      "rie": 6941,
      "vs": 6942,
      "godd": 6943,
      "##ject": 6944,
      "tim": 6945,
      "lt": 6946,
      "waarover": 6947,
      "trein": 6948,
      "passag": 6949,
      "bese": 6950,
      "persoonlijk": 6951,
      "##voering": 6952,
      "onbekend": 6953,
      "kui": 6954,
      "gemeenteraad": 6955,
      "gunstige": 6956,
      "wou": 6957,
      "##foort": 6958,
      "##feest": 6959,
      "##inke": 6960,
      "##ble": 6961,
      "voorkomt": 6962,
      "grens": 6963,
      "fraai": 6964,
      "ih": 6965,
      "bezoeken": 6966,
      "franschen": 6967,
      "##agne": 6968,
      "particuliere": 6969,
      "aanzienlijke": 6970,
      "gekregen": 6971,
      "sum": 6972,
      "vlak": 6973,
      "ontving": 6974,
      "##zo": 6975,
      "duizenden": 6976,
      "hoort": 6977,
      "##ooid": 6978,
      "##mach": 6979,
      "bovenstaande": 6980,
      "beleefd": 6981,
      "opgegeven": 6982,
      "##spoor": 6983,
      "##iug": 6984,
      "1867": 6985,
      "kleuren": 6986,
      "drukken": 6987,
      "##fonds": 6988,
      "##aringen": 6989,
      "bent": 6990,
      "##ild": 6991,
      "nn": 6992,
      "pian": 6993,
      "ordonn": 6994,
      "##anger": 6995,
      "napoleon": 6996,
      "vergunning": 6997,
      "##icus": 6998,
      "bescherming": 6999,
      "##ielen": 7000,
      "bitter": 7001,
      "##zamen": 7002,
      "##zaad": 7003,
      "onverm": 7004,
      "##loosheid": 7005,
      "chef": 7006,
      "derzelver": 7007,
      "##derij": 7008,
      "gelderland": 7009,
      "zout": 7010,
      "vracht": 7011,
      "##utr": 7012,
      "hartelijk": 7013,
      "##emmer": 7014,
      "ring": 7015,
      "linker": 7016,
      "##mus": 7017,
      "##inderen": 7018,
      "hiel": 7019,
      "##isser": 7020,
      "onw": 7021,
      "bevindt": 7022,
      "tarief": 7023,
      "##middels": 7024,
      "wissel": 7025,
      "rou": 7026,
      "##ura": 7027,
      "##ox": 7028,
      "artillerie": 7029,
      "##stede": 7030,
      "zonde": 7031,
      "##scholen": 7032,
      "noodzakelijkheid": 7033,
      "beft": 7034,
      "meda": 7035,
      "spreek": 7036,
      "gezelschap": 7037,
      "lied": 7038,
      "schuldig": 7039,
      "##vin": 7040,
      "bewon": 7041,
      "lek": 7042,
      "##istiek": 7043,
      "gouda": 7044,
      "verf": 7045,
      "visch": 7046,
      "poging": 7047,
      "bovengenoemde": 7048,
      "tegem": 7049,
      "europe": 7050,
      "##otten": 7051,
      "##steeg": 7052,
      "fle": 7053,
      "cene": 7054,
      "amsterdamsche": 7055,
      "rn": 7056,
      "nopens": 7057,
      "dia": 7058,
      "inmiddels": 7059,
      "tram": 7060,
      "onverschill": 7061,
      "trok": 7062,
      "jaarlijks": 7063,
      "zelfde": 7064,
      "besturen": 7065,
      "slechte": 7066,
      "zwitser": 7067,
      "##iens": 7068,
      "gent": 7069,
      "schijnen": 7070,
      "##deelde": 7071,
      "premie": 7072,
      "rt": 7073,
      "sten": 7074,
      "vous": 7075,
      "memorie": 7076,
      "onvol": 7077,
      "rustig": 7078,
      "##arbeid": 7079,
      "residentie": 7080,
      "heiligen": 7081,
      "##rt": 7082,
      "##iode": 7083,
      "antwoorden": 7084,
      "geboden": 7085,
      "paleis": 7086,
      "conferentie": 7087,
      "oom": 7088,
      "echtgenoote": 7089,
      "verbond": 7090,
      "veroorzaakt": 7091,
      "studenten": 7092,
      "ingev": 7093,
      "arbeider": 7094,
      "toelichting": 7095,
      "tegemoet": 7096,
      "trans": 7097,
      "leder": 7098,
      "##neden": 7099,
      "##baan": 7100,
      "vlaam": 7101,
      "nabijheid": 7102,
      "dea": 7103,
      "overd": 7104,
      "##ack": 7105,
      "termijn": 7106,
      "800": 7107,
      "cass": 7108,
      "omgeving": 7109,
      "##ueele": 7110,
      "jammer": 7111,
      "##oogde": 7112,
      "doop": 7113,
      "vloot": 7114,
      "uitk": 7115,
      "##path": 7116,
      "ingesteld": 7117,
      "werkelijkheid": 7118,
      "zending": 7119,
      "iet": 7120,
      "gestelde": 7121,
      "verzet": 7122,
      "aanhang": 7123,
      "maa": 7124,
      "05": 7125,
      "verfch": 7126,
      "##igste": 7127,
      "##wongen": 7128,
      "arg": 7129,
      "##iner": 7130,
      "1862": 7131,
      "110": 7132,
      "opmerking": 7133,
      "plaatsing": 7134,
      "beer": 7135,
      "steenen": 7136,
      "gewel": 7137,
      "##rechter": 7138,
      "las": 7139,
      "##stroom": 7140,
      "verwar": 7141,
      "navolgende": 7142,
      "duister": 7143,
      "##atieve": 7144,
      "boedel": 7145,
      "herinnering": 7146,
      "##reerd": 7147,
      "flink": 7148,
      "tc": 7149,
      "bruin": 7150,
      "##zin": 7151,
      "profess": 7152,
      "1920": 7153,
      "zn": 7154,
      "voldoening": 7155,
      "informatien": 7156,
      "##elein": 7157,
      "##aaid": 7158,
      "gesticht": 7159,
      "nomm": 7160,
      "hoofdstad": 7161,
      "##gebragt": 7162,
      "##schappelijk": 7163,
      "absol": 7164,
      "##meer": 7165,
      "gevormd": 7166,
      "##aagden": 7167,
      "katholieken": 7168,
      "##fde": 7169,
      "anti": 7170,
      "volledig": 7171,
      "zr": 7172,
      "akte": 7173,
      "missie": 7174,
      "toegekend": 7175,
      "koel": 7176,
      "admir": 7177,
      "revolution": 7178,
      "##40": 7179,
      "voorhanden": 7180,
      "geslagen": 7181,
      "ziju": 7182,
      "reizig": 7183,
      "slaap": 7184,
      "regels": 7185,
      "uuren": 7186,
      "##ukte": 7187,
      "gewaar": 7188,
      "verheven": 7189,
      "##urd": 7190,
      "ernst": 7191,
      "malen": 7192,
      "ist": 7193,
      "gelaten": 7194,
      "omvang": 7195,
      "##lig": 7196,
      "177": 7197,
      "comme": 7198,
      "##aus": 7199,
      "frederik": 7200,
      "misl": 7201,
      "leu": 7202,
      "vereenigd": 7203,
      "lokaal": 7204,
      "##tegenstaande": 7205,
      "##son": 7206,
      "##oederen": 7207,
      "vissch": 7208,
      "##iste": 7209,
      "burgers": 7210,
      "eervol": 7211,
      "##hoek": 7212,
      "present": 7213,
      "##onne": 7214,
      "diepe": 7215,
      "##vorens": 7216,
      "dog": 7217,
      "wetsontwerp": 7218,
      "##itu": 7219,
      "daag": 7220,
      "bloot": 7221,
      "klassen": 7222,
      "daartegen": 7223,
      "deelneming": 7224,
      "danken": 7225,
      "prinses": 7226,
      "sgra": 7227,
      "samenwerking": 7228,
      "ils": 7229,
      "wijl": 7230,
      "##eltje": 7231,
      "democr": 7232,
      "geste": 7233,
      "##drage": 7234,
      "##band": 7235,
      "schipper": 7236,
      "besteed": 7237,
      "bewoond": 7238,
      "##ych": 7239,
      "##schrijving": 7240,
      "sei": 7241,
      "verkooping": 7242,
      "cornelis": 7243,
      "##tijd": 7244,
      "militairen": 7245,
      "##onderwij": 7246,
      "##reff": 7247,
      "##ryk": 7248,
      "nuttig": 7249,
      "amers": 7250,
      "verzameling": 7251,
      "adri": 7252,
      "china": 7253,
      "spoorwegen": 7254,
      "##delingen": 7255,
      "diam": 7256,
      "ontvanger": 7257,
      "voegen": 7258,
      "alvorens": 7259,
      "##ton": 7260,
      "hat": 7261,
      "uitte": 7262,
      "##cer": 7263,
      "##ommel": 7264,
      "1879": 7265,
      "waarna": 7266,
      "fac": 7267,
      "gezocht": 7268,
      "schou": 7269,
      "tweeden": 7270,
      "##wegingen": 7271,
      "broch": 7272,
      "##illon": 7273,
      "meme": 7274,
      "koffij": 7275,
      "uitstekend": 7276,
      "well": 7277,
      "inzicht": 7278,
      "verdienen": 7279,
      "opg": 7280,
      "vertrouw": 7281,
      "toegepast": 7282,
      "pel": 7283,
      "hoofdzaak": 7284,
      "dertig": 7285,
      "zeld": 7286,
      "ets": 7287,
      "aangaande": 7288,
      "quel": 7289,
      "abonnement": 7290,
      "geer": 7291,
      "dagelijk": 7292,
      "beschouwing": 7293,
      "interess": 7294,
      "##gevonden": 7295,
      "##antien": 7296,
      "##terij": 7297,
      "och": 7298,
      "appel": 7299,
      "nummers": 7300,
      "heef": 7301,
      "##erlei": 7302,
      "richten": 7303,
      "kunnende": 7304,
      "onte": 7305,
      "ingediend": 7306,
      "##kist": 7307,
      "bood": 7308,
      "omschreven": 7309,
      "aanbesteding": 7310,
      "passen": 7311,
      "droef": 7312,
      "smart": 7313,
      "tand": 7314,
      "zielen": 7315,
      "ix": 7316,
      "nee": 7317,
      "##atsoen": 7318,
      "plaatse": 7319,
      "tilburg": 7320,
      "geregt": 7321,
      "toegang": 7322,
      "##onderwijs": 7323,
      "integen": 7324,
      "##sw": 7325,
      "keek": 7326,
      "hr": 7327,
      "kerker": 7328,
      "lagen": 7329,
      "##schoten": 7330,
      "sier": 7331,
      "meet": 7332,
      "gewijzigd": 7333,
      "bescheiden": 7334,
      "voetbal": 7335,
      "##nam": 7336,
      "ervaring": 7337,
      "arrondissement": 7338,
      "reserve": 7339,
      "##ariaat": 7340,
      "gerucht": 7341,
      "wetboek": 7342,
      "jer": 7343,
      "exec": 7344,
      "1914": 7345,
      "##opp": 7346,
      "##ctuur": 7347,
      "officieel": 7348,
      "##kwam": 7349,
      "##kam": 7350,
      "##ils": 7351,
      "blauw": 7352,
      "poort": 7353,
      "cate": 7354,
      "haa": 7355,
      "##stip": 7356,
      "test": 7357,
      "verpligt": 7358,
      "overstaan": 7359,
      "##streken": 7360,
      "langdur": 7361,
      "##verw": 7362,
      "##heim": 7363,
      "vernie": 7364,
      "sterker": 7365,
      "##zamer": 7366,
      "integendeel": 7367,
      "vermindering": 7368,
      "opgev": 7369,
      "proeven": 7370,
      "lijf": 7371,
      "aanwijzing": 7372,
      "madrid": 7373,
      "jub": 7374,
      "wenden": 7375,
      "inspecteur": 7376,
      "##ompen": 7377,
      "tout": 7378,
      "wapenen": 7379,
      "meermalen": 7380,
      "mich": 7381,
      "##ooien": 7382,
      "bevestigd": 7383,
      "inb": 7384,
      "##rische": 7385,
      "liv": 7386,
      "gt": 7387,
      "vanaf": 7388,
      "lasten": 7389,
      "enc": 7390,
      "afwijk": 7391,
      "##mt": 7392,
      "oef": 7393,
      "##straf": 7394,
      "##wekt": 7395,
      "##voet": 7396,
      "rusten": 7397,
      "bijeenkomst": 7398,
      "cath": 7399,
      "zuiden": 7400,
      "##jarige": 7401,
      "exploitatie": 7402,
      "verkeerde": 7403,
      "gelaat": 7404,
      "stoomboot": 7405,
      "kerst": 7406,
      "bijdrage": 7407,
      "hals": 7408,
      "##ating": 7409,
      "##ld": 7410,
      "broek": 7411,
      "koper": 7412,
      "verwezen": 7413,
      "entr": 7414,
      "aanvankelijk": 7415,
      "vertegenwoor": 7416,
      "overtre": 7417,
      "toegezonden": 7418,
      "teekenen": 7419,
      "geschil": 7420,
      "schoonheid": 7421,
      "##hard": 7422,
      "sympath": 7423,
      "##istisch": 7424,
      "verschijnt": 7425,
      "onderworpen": 7426,
      "flinke": 7427,
      "protestant": 7428,
      "petersburg": 7429,
      "##ieurs": 7430,
      "nicol": 7431,
      "werkgevers": 7432,
      "##oogen": 7433,
      "rig": 7434,
      "zingen": 7435,
      "##nemer": 7436,
      "##heffing": 7437,
      "##ute": 7438,
      "zutphen": 7439,
      "datum": 7440,
      "systeem": 7441,
      "georganis": 7442,
      "dubbel": 7443,
      "##ialen": 7444,
      "helaas": 7445,
      "journal": 7446,
      "mens": 7447,
      "pur": 7448,
      "etre": 7449,
      "mand": 7450,
      "##partij": 7451,
      "advocaat": 7452,
      "bien": 7453,
      "plecht": 7454,
      "##inus": 7455,
      "125": 7456,
      "verstrekt": 7457,
      "##ente": 7458,
      "krachtige": 7459,
      "hiervoor": 7460,
      "defin": 7461,
      "bie": 7462,
      "centraal": 7463,
      "##volen": 7464,
      "kampioen": 7465,
      "groepen": 7466,
      "vertellen": 7467,
      "moeij": 7468,
      "##arbeiders": 7469,
      "vergelijking": 7470,
      "##uldige": 7471,
      "fatsoen": 7472,
      "ki": 7473,
      "160": 7474,
      "waterstaat": 7475,
      "alom": 7476,
      "toestanden": 7477,
      "lit": 7478,
      "tijdelijk": 7479,
      "##ikken": 7480,
      "erger": 7481,
      "name": 7482,
      "maakten": 7483,
      "gespeeld": 7484,
      "ding": 7485,
      "uitoef": 7486,
      "reu": 7487,
      "bt": 7488,
      "##genoeg": 7489,
      "vergoeding": 7490,
      "##25": 7491,
      "gefch": 7492,
      "##elijkheden": 7493,
      "vette": 7494,
      "##asten": 7495,
      "links": 7496,
      "gestr": 7497,
      "besten": 7498,
      "slagen": 7499,
      "polder": 7500,
      "gebed": 7501,
      "majoor": 7502,
      "ingevoerd": 7503,
      "mos": 7504,
      "deux": 7505,
      "kwal": 7506,
      "schrijf": 7507,
      "##ston": 7508,
      "magazijn": 7509,
      "1928": 7510,
      "woningen": 7511,
      "oper": 7512,
      "top": 7513,
      "sint": 7514,
      "overt": 7515,
      "amersfoort": 7516,
      "haver": 7517,
      "vlucht": 7518,
      "heerlijk": 7519,
      "##ilde": 7520,
      "praktijk": 7521,
      "bewee": 7522,
      "nem": 7523,
      "schoen": 7524,
      "##illa": 7525,
      "nen": 7526,
      "alsdan": 7527,
      "##makers": 7528,
      "recl": 7529,
      "varen": 7530,
      "##itte": 7531,
      "erven": 7532,
      "##net": 7533,
      "voo": 7534,
      "beschouwingen": 7535,
      "ig": 7536,
      "loge": 7537,
      "aanbevolen": 7538,
      "##lic": 7539,
      "geel": 7540,
      "beslag": 7541,
      "majesteit": 7542,
      "opgel": 7543,
      "schrijvers": 7544,
      "scheids": 7545,
      "##eeven": 7546,
      "beschrijving": 7547,
      "chem": 7548,
      "waardig": 7549,
      "beslissen": 7550,
      "verzekeren": 7551,
      "doc": 7552,
      "##breekt": 7553,
      "ffi": 7554,
      "hierdoor": 7555,
      "##zag": 7556,
      "appell": 7557,
      "entre": 7558,
      "bly": 7559,
      "niettegenstaande": 7560,
      "hulde": 7561,
      "##wisseling": 7562,
      "bezigt": 7563,
      "oi": 7564,
      "verra": 7565,
      "conditien": 7566,
      "##oeke": 7567,
      "genootschap": 7568,
      "kilo": 7569,
      "voordracht": 7570,
      "iedereen": 7571,
      "aanvaard": 7572,
      "beetje": 7573,
      "ais": 7574,
      "verzekert": 7575,
      "teleur": 7576,
      "verge": 7577,
      "vergr": 7578,
      "##useum": 7579,
      "1925": 7580,
      "mochten": 7581,
      "uitgebreid": 7582,
      "afwe": 7583,
      "gebeurtenissen": 7584,
      "4e": 7585,
      "luidt": 7586,
      "speciale": 7587,
      "godsdienstige": 7588,
      "verkeerd": 7589,
      "pool": 7590,
      "gerekend": 7591,
      "##20": 7592,
      "##uft": 7593,
      "##pool": 7594,
      "##mi": 7595,
      "##vuldig": 7596,
      "getuig": 7597,
      "inlandsche": 7598,
      "hom": 7599,
      "beperkt": 7600,
      "spaansche": 7601,
      "mars": 7602,
      "##kade": 7603,
      "1929": 7604,
      "voornemen": 7605,
      "sociaal": 7606,
      "##bep": 7607,
      "sommigen": 7608,
      "scheepvaart": 7609,
      "luid": 7610,
      "straks": 7611,
      "contributie": 7612,
      "redacteur": 7613,
      "herstel": 7614,
      "waal": 7615,
      "vorderen": 7616,
      "##waarden": 7617,
      "##gest": 7618,
      "jose": 7619,
      "##gever": 7620,
      "griek": 7621,
      "angst": 7622,
      "hiertoe": 7623,
      "reeks": 7624,
      "##cha": 7625,
      "correspondentie": 7626,
      "ree": 7627,
      "uiterst": 7628,
      "##gelden": 7629,
      "graven": 7630,
      "##ior": 7631,
      "koophandel": 7632,
      "stoff": 7633,
      "fok": 7634,
      "degenen": 7635,
      "eerbied": 7636,
      "compl": 7637,
      "##oeiende": 7638,
      "dooden": 7639,
      "compagnie": 7640,
      "##ita": 7641,
      "bewind": 7642,
      "lijkt": 7643,
      "eta": 7644,
      "ea": 7645,
      "1930": 7646,
      "totdat": 7647,
      "2000": 7648,
      "1919": 7649,
      "mindere": 7650,
      "dil": 7651,
      "binnenland": 7652,
      "harte": 7653,
      "vereenigen": 7654,
      "##varen": 7655,
      "oudste": 7656,
      "##bber": 7657,
      "##belang": 7658,
      "##gave": 7659,
      "sneek": 7660,
      "beek": 7661,
      "##leen": 7662,
      "dusver": 7663,
      "##zal": 7664,
      "onjui": 7665,
      "vervaardigd": 7666,
      "##teren": 7667,
      "##steloos": 7668,
      "jaarlijksche": 7669,
      "vermelden": 7670,
      "vorsten": 7671,
      "dn": 7672,
      "instelling": 7673,
      "riet": 7674,
      "eed": 7675,
      "##zigingen": 7676,
      "brabant": 7677,
      "jen": 7678,
      "disp": 7679,
      "john": 7680,
      "1921": 7681,
      "strij": 7682,
      "provis": 7683,
      "toer": 7684,
      "##kring": 7685,
      "##ches": 7686,
      "mu": 7687,
      "##abeth": 7688,
      "##to": 7689,
      "ss": 7690,
      "pret": 7691,
      "bidden": 7692,
      "gevoelens": 7693,
      "stukje": 7694,
      "honder": 7695,
      "ien": 7696,
      "herk": 7697,
      "##eele": 7698,
      "##inchem": 7699,
      "voelen": 7700,
      "koers": 7701,
      "biljetten": 7702,
      "##60": 7703,
      "130": 7704,
      "kok": 7705,
      "##nog": 7706,
      "aangen": 7707,
      "##ificatie": 7708,
      "passagiers": 7709,
      "neutr": 7710,
      "beteekent": 7711,
      "wenschelijk": 7712,
      "##icn": 7713,
      "##richtingen": 7714,
      "oorspron": 7715,
      "behandelen": 7716,
      "101": 7717,
      "kiezen": 7718,
      "suriname": 7719,
      "##itten": 7720,
      "minst": 7721,
      "onsch": 7722,
      "mijnen": 7723,
      "geloofs": 7724,
      "##eefs": 7725,
      "##wegende": 7726,
      "veranderd": 7727,
      "##ley": 7728,
      "boekje": 7729,
      "##ieen": 7730,
      "daarmee": 7731,
      "portug": 7732,
      "##getreden": 7733,
      "geschonken": 7734,
      "##zakelijk": 7735,
      "##steren": 7736,
      "stier": 7737,
      "verrichten": 7738,
      "##ict": 7739,
      "gewenscht": 7740,
      "doordat": 7741,
      "breeder": 7742,
      "gein": 7743,
      "opzig": 7744,
      "buit": 7745,
      "##ket": 7746,
      "voelde": 7747,
      "##inop": 7748,
      "behoeften": 7749,
      "behoud": 7750,
      "gewest": 7751,
      "natuurlijke": 7752,
      "berekend": 7753,
      "##daar": 7754,
      "##hebber": 7755,
      "##ecten": 7756,
      "paris": 7757,
      "1913": 7758,
      "streken": 7759,
      "volgde": 7760,
      "toebehoor": 7761,
      "kolonel": 7762,
      "##handeling": 7763,
      "kist": 7764,
      "graag": 7765,
      "roman": 7766,
      "##anderd": 7767,
      "toont": 7768,
      "1931": 7769,
      "aangaat": 7770,
      "1878": 7771,
      "afrika": 7772,
      "patroons": 7773,
      "bg": 7774,
      "geef": 7775,
      "##cher": 7776,
      "##cour": 7777,
      "dest": 7778,
      "mex": 7779,
      "general": 7780,
      "ls": 7781,
      "organisaties": 7782,
      "nogmaals": 7783,
      "heilig": 7784,
      "daaromtrent": 7785,
      "camp": 7786,
      "oc": 7787,
      "breede": 7788,
      "ball": 7789,
      "zaand": 7790,
      "1918": 7791,
      "hooi": 7792,
      "rr": 7793,
      "tak": 7794,
      "##kantoor": 7795,
      "verover": 7796,
      "##ages": 7797,
      "##apt": 7798,
      "##gevoegd": 7799,
      "lessen": 7800,
      "stroo": 7801,
      "ang": 7802,
      "pos": 7803,
      "1927": 7804,
      "##kten": 7805,
      "wir": 7806,
      "##pend": 7807,
      "leef": 7808,
      "ingeschreven": 7809,
      "##ffer": 7810,
      "geoor": 7811,
      "1933": 7812,
      "##spectie": 7813,
      "bjj": 7814,
      "statuten": 7815,
      "##deld": 7816,
      "volledige": 7817,
      "gevorderd": 7818,
      "mod": 7819,
      "1923": 7820,
      "##auwe": 7821,
      "##bode": 7822,
      "ingericht": 7823,
      "luiden": 7824,
      "aanspraak": 7825,
      "vlissingen": 7826,
      "gras": 7827,
      "jegens": 7828,
      "mogten": 7829,
      "collega": 7830,
      "##erg": 7831,
      "verordening": 7832,
      "gauw": 7833,
      "iste": 7834,
      "lan": 7835,
      "##igr": 7836,
      "1922": 7837,
      "christenen": 7838,
      "##wol": 7839,
      "herberg": 7840,
      "aardappelen": 7841,
      "##omot": 7842,
      "rijke": 7843,
      "##uimd": 7844,
      "##naar": 7845,
      "psych": 7846,
      "gelooft": 7847,
      "glad": 7848,
      "commissarissen": 7849,
      "##hon": 7850,
      "crisis": 7851,
      "aangebracht": 7852,
      "ziekten": 7853,
      "##entr": 7854,
      "catalog": 7855,
      "leyden": 7856,
      "mom": 7857,
      "stoffen": 7858,
      "nadruk": 7859,
      "nota": 7860,
      "vertegenwoordigers": 7861,
      "##arissen": 7862,
      "##dorp": 7863,
      "##ineerd": 7864,
      "ftaande": 7865,
      "opgemerkt": 7866,
      "##rekte": 7867,
      "##mens": 7868,
      "levendig": 7869,
      "jullie": 7870,
      "harlingen": 7871,
      "##denken": 7872,
      "treedt": 7873,
      "waarschuw": 7874,
      "1932": 7875,
      "werkloosheid": 7876,
      "handhaven": 7877,
      "super": 7878,
      "##mina": 7879,
      "loopende": 7880,
      "visser": 7881,
      "##ain": 7882,
      "brak": 7883,
      "voedsel": 7884,
      "##mm": 7885,
      "leert": 7886,
      "too": 7887,
      "##iest": 7888,
      "onveranderd": 7889,
      "scha": 7890,
      "##ambten": 7891,
      "bata": 7892,
      "ontwerpen": 7893,
      "huy": 7894,
      "amstel": 7895,
      "opgaven": 7896,
      "zondags": 7897,
      "##ona": 7898,
      "verslagen": 7899,
      "nagel": 7900,
      "bibliotheek": 7901,
      "vermoeden": 7902,
      "depe": 7903,
      "1926": 7904,
      "invoering": 7905,
      "ingel": 7906,
      "##zi": 7907,
      "ondergaan": 7908,
      "vir": 7909,
      "ingenomen": 7910,
      "foto": 7911,
      "transport": 7912,
      "##kest": 7913,
      "140": 7914,
      "overij": 7915,
      "hee": 7916,
      "inzien": 7917,
      "1866": 7918,
      "verhoogd": 7919,
      "##hebbers": 7920,
      "vollen": 7921,
      "##ki": 7922,
      "##gelde": 7923,
      "1924": 7924,
      "ontvangt": 7925,
      "vereischt": 7926,
      "##ijns": 7927,
      "via": 7928,
      "lach": 7929,
      "bestuurs": 7930,
      "harten": 7931,
      "verzen": 7932,
      "heiden": 7933,
      "wild": 7934,
      "leerling": 7935,
      "nicht": 7936,
      "ji": 7937,
      "herv": 7938,
      "gewapen": 7939,
      "eo": 7940,
      "zicht": 7941,
      "faill": 7942,
      "lood": 7943,
      "##cel": 7944,
      "span": 7945,
      "##cb": 7946,
      "##hi": 7947,
      "##zegging": 7948,
      "uitgen": 7949,
      "resident": 7950,
      "cop": 7951,
      "##ati": 7952,
      "vice": 7953,
      "temper": 7954,
      "##koming": 7955,
      "##perk": 7956,
      "anton": 7957,
      "iederen": 7958,
      "zusters": 7959,
      "oprichting": 7960,
      "tijdstip": 7961,
      "regeer": 7962,
      "johanna": 7963,
      "alge": 7964,
      "verbinding": 7965,
      "koude": 7966,
      "##was": 7967,
      "verscheen": 7968,
      "##pre": 7969,
      "##aut": 7970,
      "romein": 7971,
      "ondert": 7972,
      "hoogleeraar": 7973,
      "##versum": 7974,
      "vervullen": 7975,
      "hef": 7976,
      "##teekening": 7977,
      "##har": 7978,
      "aankomst": 7979,
      "°p": 7980,
      "stoel": 7981,
      "##fchen": 7982,
      "rott": 7983,
      "##isf": 7984,
      "##erts": 7985,
      "meijer": 7986,
      "instellingen": 7987,
      "##ofte": 7988,
      "##horst": 7989,
      "sf": 7990,
      "verworpen": 7991,
      "resp": 7992,
      "##yks": 7993,
      "candidaten": 7994,
      "blan": 7995,
      "veertien": 7996,
      "onderzoeken": 7997,
      "##kan": 7998,
      "##eg": 7999,
      "zucht": 8000,
      "##spl": 8001,
      "##stelsel": 8002,
      "handelsblad": 8003,
      "##ologische": 8004,
      "##alm": 8005,
      "kalveren": 8006,
      "gevaarlijk": 8007,
      "##vet": 8008,
      "long": 8009,
      "##30": 8010,
      "verdedigen": 8011,
      "##wijst": 8012,
      "vakken": 8013,
      "spelers": 8014,
      "herinneren": 8015,
      "aus": 8016,
      "uitgel": 8017,
      "##zuur": 8018,
      "slaat": 8019,
      "voortd": 8020,
      "veront": 8021,
      "levert": 8022,
      "##tend": 8023,
      "wijzigingen": 8024,
      "koloniale": 8025,
      "##ora": 8026,
      "theorie": 8027,
      "versl": 8028,
      "bri": 8029,
      "aardig": 8030,
      "straten": 8031,
      "zonden": 8032,
      "us": 8033,
      "genoten": 8034,
      "bewerkt": 8035,
      "gebeuren": 8036,
      "bang": 8037,
      "onderhandelingen": 8038,
      "rund": 8039,
      "bewoners": 8040,
      "overwegende": 8041,
      "glim": 8042,
      "##dringen": 8043,
      "hersteld": 8044,
      "##legging": 8045,
      "1934": 8046,
      "hilversum": 8047,
      "branden": 8048,
      "gehei": 8049,
      "aanzienlijk": 8050,
      "ontbreekt": 8051,
      "##macht": 8052,
      "175": 8053,
      "opvol": 8054,
      "langzamer": 8055,
      "behel": 8056,
      "dol": 8057,
      "persoonlijke": 8058,
      "1864": 8059,
      "kou": 8060,
      "afg": 8061,
      "##werf": 8062,
      "oorspronkelijk": 8063,
      "popul": 8064,
      "ople": 8065,
      "loonen": 8066,
      "##schede": 8067,
      "bla": 8068,
      "##ese": 8069,
      "cen": 8070,
      "vermoedelijk": 8071,
      "concurr": 8072,
      "lond": 8073,
      "bevallen": 8074,
      "##port": 8075,
      "##bin": 8076,
      "hg": 8077,
      "adel": 8078,
      "##neemt": 8079,
      "geschen": 8080,
      "##poort": 8081,
      "expeditie": 8082,
      "apost": 8083,
      "##iteur": 8084,
      "derden": 8085,
      "sult": 8086,
      "##adel": 8087,
      "thomas": 8088,
      "drent": 8089,
      "waarmee": 8090,
      "subsidie": 8091,
      "fondsen": 8092,
      "sav": 8093,
      "vind": 8094,
      "nagenoeg": 8095,
      "rigt": 8096,
      "##75": 8097,
      "eerg": 8098,
      "kringen": 8099,
      "provinciaal": 8100,
      "grieken": 8101,
      "amendement": 8102,
      "beroepen": 8103,
      "bevond": 8104,
      "verlen": 8105,
      "sgravenhage": 8106,
      "bloei": 8107,
      "##vereenigingen": 8108,
      "leeuwen": 8109,
      "##schaft": 8110,
      "##gk": 8111,
      "famil": 8112,
      "twe": 8113,
      "esp": 8114,
      "kleeding": 8115,
      "compt": 8116,
      "vanden": 8117,
      "##borg": 8118,
      "victor": 8119,
      "leening": 8120,
      "cer": 8121,
      "voorbe": 8122,
      "nationaal": 8123,
      "01": 8124,
      "officieele": 8125,
      "achtereen": 8126,
      "terw": 8127,
      "product": 8128,
      "verschuldigd": 8129,
      "##zw": 8130,
      "discussie": 8131,
      "may": 8132,
      "beweren": 8133,
      "geor": 8134,
      "##clie": 8135,
      "stellig": 8136,
      "##houdende": 8137,
      "aangesloten": 8138,
      "smit": 8139,
      "##lag": 8140,
      "voortreff": 8141,
      "voorbeelden": 8142,
      "excellen": 8143,
      "##gelijke": 8144,
      "daden": 8145,
      "raden": 8146,
      "##pot": 8147,
      "##uiken": 8148,
      "rs": 8149,
      "klin": 8150,
      "gedreven": 8151,
      "sigaren": 8152,
      "1860": 8153,
      "welker": 8154,
      "boete": 8155,
      "##stigde": 8156,
      "gelieven": 8157,
      "##aur": 8158,
      "uitvoerig": 8159,
      "uitsp": 8160,
      "inwoners": 8161,
      "stichting": 8162,
      "westen": 8163,
      "##eekenden": 8164,
      "ci": 8165,
      "bode": 8166,
      "##ppel": 8167,
      "verkiezingen": 8168,
      "afgedaan": 8169,
      "##emaal": 8170,
      "liberale": 8171,
      "gaande": 8172,
      "nauwelijks": 8173,
      "verloop": 8174,
      "armee": 8175,
      "stuur": 8176,
      "sneeuw": 8177,
      "##knecht": 8178,
      "dringend": 8179,
      "aanvragen": 8180,
      "gewoonte": 8181,
      "##oeide": 8182,
      "ondervonden": 8183,
      "vorigen": 8184,
      "noodl": 8185,
      "vereischte": 8186,
      "inleiding": 8187,
      "comple": 8188,
      "ads": 8189,
      "bedrijfs": 8190,
      "pale": 8191,
      "■■": 8192,
      "kolonie": 8193,
      "enschede": 8194,
      "anne": 8195,
      "zekeren": 8196,
      "##plicht": 8197,
      "3°": 8198,
      "elftal": 8199,
      "##besturen": 8200,
      "producten": 8201,
      "kuy": 8202,
      "##daal": 8203,
      "stille": 8204,
      "verwachting": 8205,
      "hab": 8206,
      "gedwongen": 8207,
      "begeer": 8208,
      "hinder": 8209,
      "rand": 8210,
      "bunders": 8211,
      "streng": 8212,
      "onderzocht": 8213,
      "1910": 8214,
      "##einde": 8215,
      "sar": 8216,
      "strekken": 8217,
      "feder": 8218,
      "drank": 8219,
      "kanten": 8220,
      "##maatschappij": 8221,
      "vit": 8222,
      "##inie": 8223,
      "rozen": 8224,
      "nb": 8225,
      "tous": 8226,
      "genood": 8227,
      "marie": 8228,
      "ns": 8229,
      "hechten": 8230,
      "missen": 8231,
      "metaal": 8232,
      "1869": 8233,
      "treur": 8234,
      "##spit": 8235,
      "xv": 8236,
      "##willen": 8237,
      "behulp": 8238,
      "1865": 8239,
      "toestemming": 8240,
      "##rechten": 8241,
      "wo": 8242,
      "dubbele": 8243,
      "1870": 8244,
      "faire": 8245,
      "herhaaldelijk": 8246,
      "vijftig": 8247,
      "##ningen": 8248,
      "jare": 8249,
      "engelschen": 8250,
      "geachte": 8251,
      "uitger": 8252,
      "##ohen": 8253,
      "##vigen": 8254,
      "gekleur": 8255,
      "##actie": 8256,
      "rechtvaar": 8257,
      "hoofdzakelijk": 8258,
      "##sing": 8259,
      "vanzelf": 8260,
      "zuivere": 8261,
      "toegestaan": 8262,
      "1935": 8263,
      "##let": 8264,
      "artt": 8265,
      "stoomschip": 8266,
      "zegel": 8267,
      "edele": 8268,
      "geneeskundige": 8269,
      "legt": 8270,
      "##jon": 8271,
      "garni": 8272,
      "##jarig": 8273,
      "kiezers": 8274,
      "##jaren": 8275,
      "nar": 8276,
      "ruit": 8277,
      "1917": 8278,
      "##oefd": 8279,
      "1873": 8280,
      "notarissen": 8281,
      "overgegaan": 8282,
      "1912": 8283,
      "##bureau": 8284,
      "aanteeken": 8285,
      "guldens": 8286,
      "##ume": 8287,
      "geweten": 8288,
      "betoog": 8289,
      "uitmuntend": 8290,
      "1°": 8291,
      "hein": 8292,
      "candidaat": 8293,
      "bezorgd": 8294,
      "##houdt": 8295,
      "##ser": 8296,
      "troost": 8297,
      "sloot": 8298,
      "schriftelijk": 8299,
      "dankbaar": 8300,
      "verminderd": 8301,
      "bevattende": 8302,
      "##80": 8303,
      "105": 8304,
      "170": 8305,
      "schaal": 8306,
      "##oni": 8307,
      "levende": 8308,
      "veronder": 8309,
      "party": 8310,
      "1861": 8311,
      "##aet": 8312,
      "##regeling": 8313,
      "vertaling": 8314,
      "technische": 8315,
      "kapel": 8316,
      "klim": 8317,
      "gansche": 8318,
      "##nij": 8319,
      "102": 8320,
      "##gevende": 8321,
      "##oleum": 8322,
      "autoriteiten": 8323,
      "balen": 8324,
      "namiddag": 8325,
      "repar": 8326,
      "onger": 8327,
      "##streek": 8328,
      "universiteit": 8329,
      "bekenden": 8330,
      "ditmaal": 8331,
      "##emd": 8332,
      "redden": 8333,
      "herziening": 8334,
      "christelijk": 8335,
      "gewijd": 8336,
      "gift": 8337,
      "moei": 8338,
      "algemeenen": 8339,
      "zjjn": 8340,
      "tegenwoordigheid": 8341,
      "##ruim": 8342,
      "revolutie": 8343,
      "ier": 8344,
      "conserv": 8345,
      "opmerkingen": 8346,
      "voorzicht": 8347,
      "pou": 8348,
      "quaest": 8349,
      "##boeken": 8350,
      "##zake": 8351,
      "##ife": 8352,
      "vii": 8353,
      "##mate": 8354,
      "beelden": 8355,
      "beklaagde": 8356,
      "keulen": 8357,
      "##tz": 8358,
      "periode": 8359,
      "individu": 8360,
      "regiment": 8361,
      "1936": 8362,
      "stui": 8363,
      "uwen": 8364,
      "ƒ4": 8365,
      "vervuld": 8366,
      "adem": 8367,
      "##ln": 8368,
      "overbl": 8369,
      "hervormde": 8370,
      "geex": 8371,
      "toet": 8372,
      "##loozen": 8373,
      "prinsen": 8374,
      "hoopt": 8375,
      "italiaansche": 8376,
      "##zei": 8377,
      "##zier": 8378,
      "kadaster": 8379,
      "besloot": 8380,
      "##mg": 8381,
      "##fel": 8382,
      "inkomen": 8383,
      "##ipp": 8384,
      "##aval": 8385,
      "1859": 8386,
      "lil": 8387,
      "##zinnige": 8388,
      "103": 8389,
      "omstandigheid": 8390,
      "##dei": 8391,
      "##beelding": 8392,
      "##osc": 8393,
      "vt": 8394,
      "werkman": 8395,
      "##kondiging": 8396,
      "##alte": 8397,
      "sans": 8398,
      "bei": 8399,
      "havens": 8400,
      "##arina": 8401,
      "uitst": 8402,
      "onvoor": 8403,
      "uwer": 8404,
      "oft": 8405,
      "waarborg": 8406,
      "woonplaats": 8407,
      "museum": 8408,
      "gezell": 8409,
      "##rn": 8410,
      "ervan": 8411,
      "bag": 8412,
      "deen": 8413,
      "ey": 8414,
      "handh": 8415,
      "gered": 8416,
      "##igh": 8417,
      "1916": 8418,
      "typ": 8419,
      "##zorg": 8420,
      "elis": 8421,
      "##bus": 8422,
      "trekt": 8423,
      "kem": 8424,
      "gemoed": 8425,
      "schel": 8426,
      "##inu": 8427,
      "veiligheid": 8428,
      "nt": 8429,
      "bestrijding": 8430,
      "700": 8431,
      "piano": 8432,
      "peu": 8433,
      "droefheid": 8434,
      "##temin": 8435,
      "vervolgd": 8436,
      "daags": 8437,
      "moord": 8438,
      "hoedan": 8439,
      "gemiddeld": 8440,
      "##outh": 8441,
      "dezes": 8442,
      "##vre": 8443,
      "##ael": 8444,
      "bezol": 8445,
      "##vleesch": 8446,
      "##oeging": 8447,
      "muller": 8448,
      "##jt": 8449,
      "uitr": 8450,
      "104": 8451,
      "schier": 8452,
      "##artik": 8453,
      "voorwaarde": 8454,
      "mant": 8455,
      "schatkist": 8456,
      "uitkeering": 8457,
      "gemen": 8458,
      "vrouwe": 8459,
      "juffrouw": 8460,
      "treffen": 8461,
      "##zende": 8462,
      "gekocht": 8463,
      "speelt": 8464,
      "poe": 8465,
      "##nep": 8466,
      "1877": 8467,
      "bewaar": 8468,
      "##ites": 8469,
      "vroo": 8470,
      "spaar": 8471,
      "polen": 8472,
      "stort": 8473,
      "drukkerij": 8474,
      "langzamerhand": 8475,
      "1875": 8476,
      "176": 8477,
      "uitgenoodigd": 8478,
      "wege": 8479,
      "exemplaren": 8480,
      "beantwoorden": 8481,
      "geheelen": 8482,
      "strekking": 8483,
      "doll": 8484,
      "geslaagd": 8485,
      "voert": 8486,
      "eh": 8487,
      "openen": 8488,
      "##lik": 8489,
      "ghy": 8490,
      "haan": 8491,
      "oorzaken": 8492,
      "evenzeer": 8493,
      "##eur": 8494,
      "college": 8495,
      "vrijwel": 8496,
      "sticht": 8497,
      "##cor": 8498,
      "verdwenen": 8499,
      "verbinden": 8500,
      "toenem": 8501,
      "veranderen": 8502,
      "ordonnantie": 8503,
      "dein": 8504,
      "sloeg": 8505,
      "voormal": 8506,
      "bege": 8507,
      "mou": 8508,
      "##zegd": 8509,
      "##hagen": 8510,
      "##houdend": 8511,
      "bezittingen": 8512,
      "huisgez": 8513,
      "gelieve": 8514,
      "palm": 8515,
      "hebb": 8516,
      "eilanden": 8517,
      "##wat": 8518,
      "kelder": 8519,
      "vie": 8520,
      "tap": 8521,
      "apres": 8522,
      "unie": 8523,
      "jarige": 8524,
      "durven": 8525,
      "constr": 8526,
      "bijl": 8527,
      "lel": 8528,
      "beschaving": 8529,
      "vooruitgang": 8530,
      "##vader": 8531,
      "##drift": 8532,
      "##prijzen": 8533,
      "##aste": 8534,
      "zonne": 8535,
      "cijfer": 8536,
      "versche": 8537,
      "arab": 8538,
      "##afe": 8539,
      "aflevering": 8540,
      "##vele": 8541,
      "oorspronk": 8542,
      "hierboven": 8543,
      "haat": 8544,
      "##vertr": 8545,
      "afkomstig": 8546,
      "##risch": 8547,
      "vergez": 8548,
      "berust": 8549,
      "hl": 8550,
      "welkom": 8551,
      "kern": 8552,
      "1868": 8553,
      "depot": 8554,
      "gemaakte": 8555,
      "gedeelten": 8556,
      "merkwaardig": 8557,
      "nederlandschen": 8558,
      "beroemde": 8559,
      "roept": 8560,
      "##icie": 8561,
      "eigenschappen": 8562,
      "uiterste": 8563,
      "##halen": 8564,
      "##emar": 8565,
      "dagvaar": 8566,
      "fp": 8567,
      "duim": 8568,
      "herstellen": 8569,
      "##rikt": 8570,
      "kaste": 8571,
      "1863": 8572,
      "genoodzaakt": 8573,
      "gunst": 8574,
      "##rich": 8575,
      "effe": 8576,
      "tenzij": 8577,
      "aanbod": 8578,
      "hieruit": 8579,
      "vcr": 8580,
      "opera": 8581,
      "##stoe": 8582,
      "behoorde": 8583,
      "wierd": 8584,
      "1911": 8585,
      "doctor": 8586,
      "bewaren": 8587,
      "gebeurde": 8588,
      "kre": 8589,
      "lijnen": 8590,
      "albert": 8591,
      "##70": 8592,
      "lsten": 8593,
      "raam": 8594,
      "jansen": 8595,
      "pays": 8596,
      "##verslag": 8597,
      "dont": 8598,
      "koets": 8599,
      "toren": 8600,
      "drijven": 8601,
      "ellende": 8602,
      "tensl": 8603,
      "getrouw": 8604,
      "##fle": 8605,
      "verschijnsel": 8606,
      "wag": 8607,
      "verkon": 8608,
      "pruiss": 8609,
      "##eept": 8610,
      "christendom": 8611,
      "##atra": 8612,
      "oorsprong": 8613,
      "1937": 8614,
      "inwen": 8615,
      "##uste": 8616,
      "##punten": 8617,
      "pand": 8618,
      "loten": 8619,
      "##rs": 8620,
      "##delijk": 8621,
      "inzage": 8622,
      "##rig": 8623,
      "maag": 8624,
      "stijl": 8625,
      "lev": 8626,
      "##jo": 8627,
      "ocht": 8628,
      "tenslotte": 8629,
      "1908": 8630,
      "nergens": 8631,
      "held": 8632,
      "bega": 8633,
      "vnn": 8634,
      "johan": 8635,
      "vocht": 8636,
      "1909": 8637,
      "##quis": 8638,
      "verwer": 8639,
      "inner": 8640,
      "##bach": 8641,
      "##iede": 8642,
      "lode": 8643,
      "bewaard": 8644,
      "loco": 8645,
      "zaad": 8646,
      "##uch": 8647,
      "##achting": 8648,
      "compet": 8649,
      "effecten": 8650,
      "huizinge": 8651,
      "##bon": 8652,
      "##imo": 8653,
      "prob": 8654,
      "figuur": 8655,
      "steken": 8656,
      "verborgen": 8657,
      "dokter": 8658,
      "minimum": 8659,
      "aanbeveling": 8660,
      "ng": 8661,
      "##schr": 8662,
      "##kum": 8663,
      "dak": 8664,
      "maur": 8665,
      "hoofde": 8666,
      "eventu": 8667,
      "wettelijke": 8668,
      "enkelen": 8669,
      "plegt": 8670,
      "welwillen": 8671,
      "wetgeving": 8672,
      "gezind": 8673,
      "joseph": 8674,
      "gepleegd": 8675,
      "##ea": 8676,
      "overtuigen": 8677,
      "voorgestelde": 8678,
      "oorspronkelijke": 8679,
      "gemiddel": 8680,
      "##etjes": 8681,
      "werpen": 8682,
      "gereformeerde": 8683,
      "aanvraag": 8684,
      "##itief": 8685,
      "samenstelling": 8686,
      "##dent": 8687,
      "telegraaf": 8688,
      "##uts": 8689,
      "verlangd": 8690,
      "bijge": 8691,
      "getrouwd": 8692,
      "kisten": 8693,
      "##vn": 8694,
      "##abel": 8695,
      "zeeuw": 8696,
      "##oft": 8697,
      "##cm": 8698,
      "##heit": 8699,
      "deele": 8700,
      "schol": 8701,
      "state": 8702,
      "wenschte": 8703,
      "vaten": 8704,
      "cooper": 8705,
      "bezet": 8706,
      "napels": 8707,
      "fon": 8708,
      "muur": 8709,
      "##ijke": 8710,
      "##inea": 8711,
      "1871": 8712,
      "pacht": 8713,
      "vriendelijk": 8714,
      "##mes": 8715,
      "##allig": 8716,
      "1915": 8717,
      "heid": 8718,
      "cum": 8719,
      "ronde": 8720,
      "aangewend": 8721,
      "koor": 8722,
      "roos": 8723,
      "percent": 8724,
      "##ili": 8725,
      "dief": 8726,
      "jt": 8727,
      "##avel": 8728,
      "##stantinop": 8729,
      "##hu": 8730,
      "pic": 8731,
      "bv": 8732,
      "carl": 8733,
      "materiaal": 8734,
      "##ossen": 8735,
      "beoordeeling": 8736,
      "##deelt": 8737,
      "aren": 8738,
      "##elik": 8739,
      "koud": 8740,
      "##uwde": 8741,
      "##kondigd": 8742,
      "verwijderd": 8743,
      "##js": 8744,
      "francs": 8745,
      "petroleum": 8746,
      "afschaffing": 8747,
      "koo": 8748,
      "##industrie": 8749,
      "droeg": 8750,
      "colleg": 8751,
      "##lands": 8752,
      "165": 8753,
      "ay": 8754,
      "overgang": 8755,
      "kleed": 8756,
      "kaarten": 8757,
      "france": 8758,
      "vogel": 8759,
      "##gegeven": 8760,
      "admiraal": 8761,
      "hans": 8762,
      "circulaire": 8763,
      "zaandam": 8764,
      "##ija": 8765,
      "graan": 8766,
      "161": 8767,
      "##ern": 8768,
      "##ville": 8769,
      "godsdien": 8770,
      "gouvernements": 8771,
      "##ald": 8772,
      "heerscht": 8773,
      "banden": 8774,
      "##win": 8775,
      "zeem": 8776,
      "sant": 8777,
      "##ooning": 8778,
      "##iie": 8779,
      "obligatien": 8780,
      "hut": 8781,
      "huid": 8782,
      "meel": 8783,
      "##genoemd": 8784,
      "##aansch": 8785,
      "uitv": 8786,
      "streek": 8787,
      "##eesten": 8788,
      "boekverkoop": 8789,
      "bestreden": 8790,
      "##gaders": 8791,
      "eeuwige": 8792,
      "ving": 8793,
      "dio": 8794,
      "##ata": 8795,
      "##arta": 8796,
      "benoemen": 8797,
      "163": 8798,
      "sted": 8799,
      "collectie": 8800,
      "getuige": 8801,
      "##houdingen": 8802,
      "kolen": 8803,
      "##inga": 8804,
      "kijken": 8805,
      "##schrijven": 8806,
      "##ijl": 8807,
      "voordat": 8808,
      "zette": 8809,
      "##onderwijzer": 8810,
      "cri": 8811,
      "##adigheid": 8812,
      "##merkt": 8813,
      "oock": 8814,
      "vesting": 8815,
      "##yzen": 8816,
      "crediet": 8817,
      "deut": 8818,
      "##geest": 8819,
      "geraakt": 8820,
      "afgelegd": 8821,
      "menschelijke": 8822,
      "seizoen": 8823,
      "refer": 8824,
      "onmis": 8825,
      "pref": 8826,
      "##alie": 8827,
      "uitgez": 8828,
      "vere": 8829,
      "veranderingen": 8830,
      "ƒ5": 8831,
      "ontdekt": 8832,
      "gemoet": 8833,
      "nd": 8834,
      "denkbeelden": 8835,
      "##rei": 8836,
      "1858": 8837,
      "##kes": 8838,
      "tijde": 8839,
      "prol": 8840,
      "##sehen": 8841,
      "ech": 8842,
      "##ventie": 8843,
      "js": 8844,
      "tranen": 8845,
      "ondervinding": 8846,
      "eis": 8847,
      "maatschappelijke": 8848,
      "ott": 8849,
      "ondergeteekenden": 8850,
      "##eille": 8851,
      "uitgeoefend": 8852,
      "demon": 8853,
      "##ugel": 8854,
      "##ouwers": 8855,
      "slaven": 8856,
      "ev": 8857,
      "grav": 8858,
      "coll": 8859,
      "dienste": 8860,
      "ontbreken": 8861,
      "##nemend": 8862,
      "1848": 8863,
      "breedte": 8864,
      "##laan": 8865,
      "ondernemingen": 8866,
      "ontkennen": 8867,
      "orig": 8868,
      "##verzeker": 8869,
      "pu": 8870,
      "##agers": 8871,
      "fraaije": 8872,
      "##eldoorn": 8873,
      "##sting": 8874,
      "##orging": 8875,
      "moment": 8876,
      "##brief": 8877,
      "beet": 8878,
      "opgeheven": 8879,
      "brouwer": 8880,
      "koek": 8881,
      "staking": 8882,
      "##iche": 8883,
      "steunen": 8884,
      "medaille": 8885,
      "makelaar": 8886,
      "mac": 8887,
      "sacr": 8888,
      "mas": 8889,
      "telt": 8890,
      "gearriv": 8891,
      "erkent": 8892,
      "##som": 8893,
      "zaa": 8894,
      "schouwburg": 8895,
      "big": 8896,
      "##stes": 8897,
      "immer": 8898,
      "##ooft": 8899,
      "decl": 8900,
      "droom": 8901,
      "roermond": 8902,
      "idee": 8903,
      "gestorven": 8904,
      "1907": 8905,
      "##zonderd": 8906,
      "motie": 8907,
      "verantwoordelijkheid": 8908,
      "weezen": 8909,
      "wetenschappelijke": 8910,
      "ontwikkeld": 8911,
      "oplever": 8912,
      "vergezeld": 8913,
      "egyp": 8914,
      "onverschillig": 8915,
      "vernomen": 8916,
      "ult": 8917,
      "nor": 8918,
      "vreezen": 8919,
      "mijner": 8920,
      "strekkende": 8921,
      "verschaffen": 8922,
      "##verkl": 8923,
      "schep": 8924,
      "zeit": 8925,
      "hoogd": 8926,
      "terugk": 8927,
      "machin": 8928,
      "afhank": 8929,
      "##inne": 8930,
      "geill": 8931,
      "kleinen": 8932,
      "evangelie": 8933,
      "##arij": 8934,
      "tract": 8935,
      "leiders": 8936,
      "##90": 8937,
      "hierna": 8938,
      "telegram": 8939,
      "trap": 8940,
      "##iering": 8941,
      "orden": 8942,
      "order": 8943,
      "cant": 8944,
      "europeesche": 8945,
      "onnoo": 8946,
      "peil": 8947,
      "lichten": 8948,
      "cassatie": 8949,
      "hangt": 8950,
      "##aafde": 8951,
      "aanm": 8952,
      "##zy": 8953,
      "zor": 8954,
      "legen": 8955,
      "zod": 8956,
      "billijke": 8957,
      "ontvingen": 8958,
      "##kking": 8959,
      "liver": 8960,
      "eigene": 8961,
      "affaire": 8962,
      "##oeve": 8963,
      "##hangen": 8964,
      "1872": 8965,
      "freg": 8966,
      "##meesters": 8967,
      "uitgebre": 8968,
      "auf": 8969,
      "welks": 8970,
      "1876": 8971,
      "##gelegde": 8972,
      "krank": 8973,
      "nass": 8974,
      "wijd": 8975,
      "##keu": 8976,
      "##astiek": 8977,
      "##han": 8978,
      "##ijm": 8979,
      "bestemming": 8980,
      "spiegel": 8981,
      "onjuist": 8982,
      "renten": 8983,
      "middenstand": 8984,
      "mgr": 8985,
      "genoegzaam": 8986,
      "##orst": 8987,
      "grave": 8988,
      "cam": 8989,
      "bediening": 8990,
      "1874": 8991,
      "boog": 8992,
      "aandoen": 8993,
      "##heyt": 8994,
      "##num": 8995,
      "eindhoven": 8996,
      "feitelijk": 8997,
      "##oonde": 8998,
      "##boomen": 8999,
      "cost": 9000,
      "vaststelling": 9001,
      "geestdrift": 9002,
      "##wil": 9003,
      "fout": 9004,
      "##pelijk": 9005,
      "onrust": 9006,
      "verhalen": 9007,
      "onthouden": 9008,
      "ligch": 9009,
      "wekken": 9010,
      "1857": 9011,
      "kalk": 9012,
      "##heeren": 9013,
      "klok": 9014,
      "##stelt": 9015,
      "bestek": 9016,
      "mans": 9017,
      "##aine": 9018,
      "achteruit": 9019,
      "sporen": 9020,
      "schippers": 9021,
      "geraken": 9022,
      "diepte": 9023,
      "##bra": 9024,
      "beraadslagingen": 9025,
      "doorl": 9026,
      "##zinnig": 9027,
      "mist": 9028,
      "cu": 9029,
      "##itters": 9030,
      "voorheen": 9031,
      "tv": 9032,
      "donkere": 9033,
      "verdrag": 9034,
      "stilte": 9035,
      "156": 9036,
      "geweig": 9037,
      "wort": 9038,
      "daaronder": 9039,
      "voelt": 9040,
      "##lust": 9041,
      "##namen": 9042,
      "prae": 9043,
      "##ourn": 9044,
      "##club": 9045,
      "opgemaakt": 9046,
      "draa": 9047,
      "fen": 9048,
      "zoet": 9049,
      "##breuk": 9050,
      "overbo": 9051,
      "108": 9052,
      "soe": 9053,
      "daarenboven": 9054,
      "##nomen": 9055,
      "##woordt": 9056,
      "sluis": 9057,
      "auto": 9058,
      "##wikk": 9059,
      "##ues": 9060,
      "ploeg": 9061,
      "apeldoorn": 9062,
      "wetenschappen": 9063,
      "##vende": 9064,
      "##erkte": 9065,
      "##offic": 9066,
      "1905": 9067,
      "kregen": 9068,
      "betr": 9069,
      "onzeker": 9070,
      "komst": 9071,
      "vermeerdering": 9072,
      "##eien": 9073,
      "latere": 9074,
      "dess": 9075,
      "testament": 9076,
      "omstreken": 9077,
      "religie": 9078,
      "bewegen": 9079,
      "ek": 9080,
      "fris": 9081,
      "aj": 9082,
      "eerw": 9083,
      "professor": 9084,
      "##heil": 9085,
      "##bn": 9086,
      "kende": 9087,
      "archite": 9088,
      "schoot": 9089,
      "ris": 9090,
      "billijk": 9091,
      "veilen": 9092,
      "practisch": 9093,
      "verhin": 9094,
      "##sem": 9095,
      "export": 9096,
      "##kas": 9097,
      "sterf": 9098,
      "##zem": 9099,
      "welvaart": 9100,
      "geestelijk": 9101,
      "qual": 9102,
      "rouw": 9103,
      "dirk": 9104,
      "prince": 9105,
      "sic": 9106,
      "vooreerst": 9107,
      "sous": 9108,
      "aangelegenheden": 9109,
      "##woning": 9110,
      "zeilen": 9111,
      "sich": 9112,
      "drag": 9113,
      "gedane": 9114,
      "houd": 9115,
      "##atr": 9116,
      "voordragt": 9117,
      "##wijn": 9118,
      "strekt": 9119,
      "##wassen": 9120,
      "uitoefenen": 9121,
      "pon": 9122,
      "115": 9123,
      "mc": 9124,
      "that": 9125,
      "besm": 9126,
      "ich": 9127,
      "uitkomen": 9128,
      "warmte": 9129,
      "##spraken": 9130,
      "##uist": 9131,
      "commandant": 9132,
      "palest": 9133,
      "klass": 9134,
      "heide": 9135,
      "historische": 9136,
      "woe": 9137,
      "1906": 9138,
      "fraaie": 9139,
      "slagers": 9140,
      "uitnoo": 9141,
      "tocht": 9142,
      "staf": 9143,
      "vlam": 9144,
      "pau": 9145,
      "kwartier": 9146,
      "##hei": 9147,
      "kerkeraad": 9148,
      "are": 9149,
      "honger": 9150,
      "societeit": 9151,
      "kad": 9152,
      "losse": 9153,
      "##cijf": 9154,
      "catalogus": 9155,
      "welnu": 9156,
      "matt": 9157,
      "bewijst": 9158,
      "mitsgaders": 9159,
      "bruine": 9160,
      "apotheker": 9161,
      "arts": 9162,
      "steenk": 9163,
      "157": 9164,
      "gelijken": 9165,
      "wakker": 9166,
      "portret": 9167,
      "gevoegd": 9168,
      "##yf": 9169,
      "gegrond": 9170,
      "nommer": 9171,
      "gelet": 9172,
      "brochure": 9173,
      "##bak": 9174,
      "vijfde": 9175,
      "##ementen": 9176,
      "##klasse": 9177,
      "schiet": 9178,
      "##nede": 9179,
      "burgerlijk": 9180,
      "belijden": 9181,
      "verval": 9182,
      "ween": 9183,
      "##aff": 9184,
      "aanvallen": 9185,
      "bevest": 9186,
      "##rekers": 9187,
      "##ella": 9188,
      "vaartuigen": 9189,
      "3000": 9190,
      "vandaar": 9191,
      "rondom": 9192,
      "harde": 9193,
      "toegevoegd": 9194,
      "july": 9195,
      "##pleging": 9196,
      "inv": 9197,
      "##cret": 9198,
      "mulder": 9199,
      "souver": 9200,
      "##ateurs": 9201,
      "164": 9202,
      "beschreven": 9203,
      "doende": 9204,
      "vriendschap": 9205,
      "##ary": 9206,
      "resol": 9207,
      "vormt": 9208,
      "naer": 9209,
      "eerbie": 9210,
      "##uyt": 9211,
      "schu": 9212,
      "verantwoording": 9213,
      "voed": 9214,
      "kleinere": 9215,
      "ondersteuning": 9216,
      "##oozen": 9217,
      "inzen": 9218,
      "merc": 9219,
      "##lach": 9220,
      "oh": 9221,
      "voorgeschreven": 9222,
      "neus": 9223,
      "ontst": 9224,
      "lant": 9225,
      "##10": 9226,
      "plaatsver": 9227,
      "geweigerd": 9228,
      "wilhelmina": 9229,
      "warme": 9230,
      "vaders": 9231,
      "##verde": 9232,
      "##adige": 9233,
      "alc": 9234,
      "1854": 9235,
      "##etsen": 9236,
      "kenn": 9237,
      "lippen": 9238,
      "neem": 9239,
      "##hoo": 9240,
      "paroch": 9241,
      "ramp": 9242,
      "practische": 9243,
      "enf": 9244,
      "catharina": 9245,
      "jeugdige": 9246,
      "bud": 9247,
      "##ani": 9248,
      "##jaars": 9249,
      "##melo": 9250,
      "oefeningen": 9251,
      "mitsdien": 9252,
      "##22": 9253,
      "dagvaarding": 9254,
      "##raven": 9255,
      "##lc": 9256,
      "fant": 9257,
      "veertig": 9258,
      "gebroken": 9259,
      "grootendeels": 9260,
      "##anus": 9261,
      "snelheid": 9262,
      "verschrik": 9263,
      "##slieden": 9264,
      "regent": 9265,
      "overgaan": 9266,
      "begroet": 9267,
      "bart": 9268,
      "ochtend": 9269,
      "britsche": 9270,
      "inval": 9271,
      "jarig": 9272,
      "gezamenlijk": 9273,
      "boos": 9274,
      "afb": 9275,
      "verdedig": 9276,
      "vermeerderd": 9277,
      "##wit": 9278,
      "katholiek": 9279,
      "##ibus": 9280,
      "nis": 9281,
      "jus": 9282,
      "##stell": 9283,
      "zuider": 9284,
      "concurrentie": 9285,
      "voorbereiding": 9286,
      "bekwaamheid": 9287,
      "verzoeke": 9288,
      "##aga": 9289,
      "primo": 9290,
      "eigenlijke": 9291,
      "griffier": 9292,
      "kaap": 9293,
      "strijden": 9294,
      "grande": 9295,
      "uu": 9296,
      "##fp": 9297,
      "samengesteld": 9298,
      "letterkunde": 9299,
      "##uldigde": 9300,
      "##pende": 9301,
      "hierover": 9302,
      "nuttige": 9303,
      "ophouden": 9304,
      "heerschen": 9305,
      "cler": 9306,
      "ene": 9307,
      "maximum": 9308,
      "##igte": 9309,
      "bord": 9310,
      "tegenwoordigen": 9311,
      "hieronder": 9312,
      "academie": 9313,
      "synode": 9314,
      "eeuwig": 9315,
      "out": 9316,
      "geint": 9317,
      "buurt": 9318,
      "hieraan": 9319,
      "rijden": 9320,
      "##afel": 9321,
      "dieper": 9322,
      "vrijen": 9323,
      "zwitserland": 9324,
      "174": 9325,
      "##oosten": 9326,
      "##vis": 9327,
      "hoven": 9328,
      "hielden": 9329,
      "##ffend": 9330,
      "laan": 9331,
      "mission": 9332,
      "reizen": 9333,
      "lijd": 9334,
      "##sd": 9335,
      "melding": 9336,
      "petrus": 9337,
      "hevige": 9338,
      "excellentie": 9339,
      "##ftraat": 9340,
      "vertoonen": 9341,
      "bevorderd": 9342,
      "verdwijnen": 9343,
      "##staanden": 9344,
      "##bew": 9345,
      "tegenstelling": 9346,
      "hospit": 9347,
      "constat": 9348,
      "mech": 9349,
      "##33": 9350,
      "moer": 9351,
      "noot": 9352,
      "aanvulling": 9353,
      "hevig": 9354,
      "bom": 9355,
      "dapper": 9356,
      "tusschenkomst": 9357,
[...]
