[PAD]
[UNK]
[CLS]
[SEP]
[MASK]
!
"
#
$
%
&
'
(
)
*
+
,
-
.
/
0
1
2
3
4
5
6
7
8
9
:
;
<
=
>
?
@
[
\
]
^
_
`
a
b
c
d
e
f
g
h
i
j
k
l
m
n
o
p
q
r
s
t
u
v
w
x
y
z
{
|
}
~
¡
¢
£
¤
¥
¦
§
¨
©
ª
«
¬
®
¯
°
±
²
³
´
µ
¶
·
¸
¹
º
»
¼
½
¾
¿
×
ß
æ
ð
÷
ø
þ
đ
ħ
ı
ĳ
ŀ
ł
ŉ
ŋ
œ
ſ
ƀ
ƍ
ƒ
ƕ
ƞ
ƥ
ƨ
ƭ
ƴ
ƶ
ƺ
ƽ
ƿ
ǁ
ǝ
ǥ
ǳ
ȣ
ȥ
ȵ
ȷ
ȸ
ȼ
ɇ
ɐ
ɑ
ɒ
ɔ
ɘ
ə
ɛ
ɜ
ɟ
ɡ
ɣ
ɤ
ɥ
ɨ
ɩ
ɪ
ɮ
ɯ
ɱ
ɲ
ɳ
ɵ
ɸ
ɹ
ɽ
ʀ
ʃ
ʇ
ʈ
ʊ
ʌ
ʍ
ʎ
ʏ
ʒ
ʓ
ʔ
ʘ
ʙ
ʚ
ʞ
ʟ
ʦ
ʧ
ʴ
ʹ
ʺ
ʻ
ʼ
ʽ
ʾ
ʿ
ˀ
˃
˄
ˆ
ˇ
ˉ
ˊ
ˋ
ː
˓
˔
˕
˖
˘
˙
˚
˛
˜
˟
˦
˫
ˬ
˼
͵
ͻ
΄
α
β
γ
δ
ε
ζ
η
θ
ι
κ
λ
μ
ν
ξ
ο
π
ρ
ς
σ
τ
υ
φ
χ
ψ
ω
ϐ
ϑ
ϒ
ϕ
ϖ
ϗ
ϙ
ϛ
ϝ
ϟ
ϣ
ϥ
ϧ
ϩ
ϫ
ϭ
ϯ
ϰ
ϱ
ϲ
ϳ
ϵ
ϸ
ϻ
а
б
в
г
д
е
з
и
к
л
м
н
о
п
р
с
т
у
ф
х
ц
ч
ш
ь
э
я
ђ
є
ѕ
і
ѡ
ѣ
ѱ
ѳ
ѵ
ѽ
ҍ
ғ
ҩ
ҫ
ә
ӡ
ՙ
՚
շ
պ
ռ
ց
־
׀
׃
׉
א
ב
ג
ד
ה
ו
ז
ח
ט
י
ך
כ
ל
ם
מ
ן
נ
ס
ע
ף
פ
ץ
צ
ק
ר
ש
ת
װ
ױ
ײ
׳
״
؉
،
؛
ء
ا
ب
ة
ت
ث
ح
د
ذ
ر
ز
ض
ع
ـ
ف
ق
ل
م
ن
و
٭
ٯ
ٵ
ڊ
ڍ
ں
ۃ
۰
ܟ
ߢ
ऒ
૛
૞
ଗ
ப
ா
෯
๭
຾
ໞ
༐
༑
ཎ
ཐ
࿖
࿥
࿾
တ
႒
ძ
ᄇ
ᄐ
ᅦ
ᅪ
ᆹ
ᆺ
ᇀ
ᑢ
ᗭ
ᛉ
ᛋ
ᛣ
៱
៿
ᦠ
ᴉ
ᴐ
ᴑ
ᴕ
ᴖ
ᴗ
ᴣ
ᵊ
ᵡ
ᵱ
ᵹ
ᶚ
἖
὆
᾵
᾽
᾿
῀
῾
‐
‒
–
—
―
‖
‘
’
‚
‛
“
”
„
†
‡
•
…
‧
‰
‱
′
″
‴
‵
‹
›
※
‾
‿
⁀
⁂
⁊
⁋
⁌
⁍
⁎
⁐
⁑
⁒
⁙
⁛
⁰
ⁱ
⁴
⁵
⁷
⁸
₣
₤
€
₰
₽
⃳
⃽
ℂ
℈
ℒ
℔
ℕ
℞
™
℣
℥
ℨ
℩
ℴ
ℵ
⅄
⅒
⅓
⅔
⅕
⅖
⅗
⅘
⅙
⅚
⅛
⅜
⅝
⅞
⅟
ⅻ
ↄ
←
↑
→
↓
↔
↕
↠
↢
↣
↦
⇄
⇐
⇒
⇓
⇔
⇸
∀
∂
∅
∆
∈
∊
∏
∐
∑
−
∓
∔
∕
∖
∗
∘
∙
√
∛
∜
∝
∞
∟
∠
∣
∥
∧
∨
∩
∪
∫
∯
∲
∴
∵
∶
∷
∸
∺
∼
∽
∾
≃
≈
≏
≑
≙
≡
≤
≥
≦
≧
≨
≪
≫
≶
≷
⊊
⊎
⊔
⊕
⊙
⊚
⊡
⊢
⊣
⊤
⊥
⊺
⋀
⋁
⋅
⋆
⋎
⋝
⋮
⋯
⋱
⌃
⌅
⌆
⌇
⌈
⌉
⌒
⌕
⌖
⌢
⌣
⍘
⍦
⍳
⍵
⎕
⎫
⎬
⎭
⏑
①
②
③
④
⑤
⑥
⑧
⑫
⑬
ⓖ
ⓩ
⓪
─
│
┏
┐
┚
┩
┬
┳
┴
┼
═
╧
╳
■
□
▫
▬
▭
▱
▲
△
▴
▵
►
▼
▽
◄
◆
◇
○
●
◠
◡
◦
◪
◯
◻
◽
★
☆
☉
☊
☋
☌
☍
☐
☙
☚
☛
☜
☞
☩
☼
☽
☾
☿
♀
♁
♂
♃
♄
♈
♉
♊
♋
♌
♍
♎
♏
♐
♑
♒
♓
♠
♡
♢
♣
♥
♦
♩
♪
♬
♭
♮
♯
♰
⚫
⚬
⛤
✓
✕
✝
✠
✡
✢
✪
✱
✳
✼
❁
❋
❖
❘
❡
❦
❧
❪
➛
⟂
⡗
⤟
⦙
⦣
⦶
⨀
⩗
⩷
⩽
⪌
⪙
⪚
⫟
⫨
ⴀ
ⴷ
ⵀ
⸗
⽝
〈
〉
〟
〰
〲
〳
〹
し
元
绿
ꝑ
ꝓ
ꝗ
ꝙ
ꝝ
ꝭ
ꝰ
ꝶ
ꞵ
ꭕ
ꮙ
ﬁ
ﬂ
ﬃ
ﬠ
ﬡ
ﬢ
ﬣ
ﬤ
ﬥ
ﬦ
ﬧ
ﬨ
ﭏ
ﭙ
ﮔ
ﮬ
ﯩ
ﯾ
ﰆ
ﲝ
ﲣ
ﲩ
ﳊ
ﳌ
ﳎ
ﳏ
ﳓ
ﳣ
︵
︶
︷
︸
ﺋ
ﺎ
ﺐ
ﺑ
ﺒ
ﺔ
ﺖ
ﺗ
ﺘ
ﺞ
ﺟ
ﺣ
ﺧ
ﺪ
ﺮ
ﺰ
ﺲ
ﺳ
ﺴ
ﺷ
ﺸ
ﺼ
ﺿ
ﻀ
ﻂ
ﻃ
ﻄ
ﻊ
ﻋ
ﻌ
ﻎ
ﻏ
ﻐ
ﻓ
ﻔ
ﻗ
ﻘ
ﻚ
ﻛ
ﻜ
ﻞ
ﻟ
ﻠ
ﻢ
ﻣ
ﻤ
ﻦ
ﻧ
ﻨ
ﻪ
ﻫ
ﻬ
ﻮ
ﻰ
ﻴ
ﻻ
ﻼ
＋
＜
＝
］
ｂ
ｔ
￬
￮
￵
￶
￼
##u
##i
##t
##o
##e
##n
##c
##a
##l
##r
##v
##p
##d
##y
##f
##m
##g
##s
##j
##♦
##b
##h
##z
##w
##■
##6
##k
##ß
##q
##7
##x
##°
##π
##ε
##β
##ο
##υ
##λ
##σ
##α
##ν
##ƒ
##2
##1
##3
##4
##5
##£
##™
##8
##9
##0
##®
##¥
##±
##¬
##χ
##ι
##ς
##©
##ɇ
##€
##³
##¦
##ϑ
##ϛ
##η
##τ
##œ
##ꝰ
##□
##᾽
##γ
##ω
##ξ
##δ
##ﯾ
##ﺎ
##ـ
##ﻘ
##ﺳ
##י
##ב
##ל
##ח
##ו
##ר
##κ
##ϱ
##ϵ
##μ
##ĳ
##ϰ
##ə
##¼
##˙
##æ
##þ
##ﬂ
##ı
##ψ
##★
##ª
##ø
##ɛ
##ʧ
##и
##θ
##ρ
##❘
##ﬁ
##ð
##φ
##ᴕ
##ϕ
##¨
##א
##ŋ
##►
##´
##ה
##מ
##ζ
##▼
##ט
##ס
##×
##⃳
##½
##ʾ
##ך
##ʺ
##ꝶ
##ש
##פ
##כ
##ם
##ſ
##⅝
##᾿
##◡
##₽
##ן
##¯
##נ
##ת
##ק
##◠
##ƀ
##ʒ
##⅘
##√
##¾
##ז
##∥
##῀
##ɔ
##ˆ
##ϒ
##ʹ
##ɣ
##៱
##ꝗ
##đ
##ʼ
##♂
##е
##צ
##ד
##⅕
##ɪ
##∊
##ȣ
##ł
##ﻧ
##ﻤ
##ﻴ
##ﻟ
##ا
##℣
##ʔ
##ג
##б
##ѡ
##∴
##в
##∷
##⋆
##ɑ
##⅜
##❖
##ע
##✓
##ϐ
##￼
##ﯩ
##ﻠ
##ﻗ
##ﬠ
##о
##с
##ʃ
##у
##⅙
##⅓
##⅔
##а
##п
##ʽ
##ں
##ﻓ
##ر
##т
##ƿ
##÷
##▴
##²
##ﺮ
##و
##ﺒ
##ﻣ
##ȷ
##⇔
##⅖
##∼
##ː
##⅛
##∂
##ף
##ь
##∣
##⁰
##◄
##˘
##¸
##∘
##¢
##ɩ
##ɐ
##ɯ
##ˬ
##ƽ
##ﲝ
##⊎
##ױ
##ໞ
##♄
##˜
##ﻮ
##ٵ
##῾
##ϖ
##↑
##ﻫ
##ڊ
##ץ
##ʊ
##˔
##→
##ϲ
##ʇ
##〳
##ә
##х
##ϧ
##ப
##ײ
##װ
##ꝑ
##ϙ
##ғ
##♉
##ħ
##ʈ
##ɒ
##∆
##˟
##˦
##ꞵ
##ʌ
##º
##˖
##ǝ
##᾵
##л
##ђ
##к
##▲
##〲
##⅞
##ﺿ
##ﻻ
##є
##∪
##│
##׉
##ﻄ
##♈
##΄
##ʻ
##¹
##ɲ
##ѣ
##−
##し
##☜
##⅚
##ↄ
##ﻌ
##⌢
##∶
##∙
##℔
##ﻬ
##ﺑ
##⅗
##ﬃ
##˕
##ن
##♬
##ɹ
##ՙ
##☩
##ƍ
##♠
##ϟ
##ﳊ
##ˊ
##ﳎ
##ﳏ
##ܟ
##ϭ
##⁴
##պ
##┴
##р
##ƺ
##µ
##ﻃ
##ϣ
##ˋ
##͵
##ﻋ
##＋
##တ
##ᵊ
##ﻛ
##ﺸ
##і
##⋅
##☞
##∧
##ҫ
##ℨ
##ﻔ
##ﳓ
##ﺼ
##ﺣ
##ϩ
##ҩ
##≃
##ϗ
##┐
##ﬥ
##①
##ꝝ
##⍵
##ф
##຾
##˫
##ʍ
##◻
##г
##ռ
##☆
##ɤ
##ᴖ
##ﻨ
##▭
##ﺰ
##♣
##❋
##ﻼ
##ﮬ
##ﺘ
##ﺗ
##ѳ
##⩽
##ᄇ
##ᅪ
##ᇀ
##˓
##ᴉ
##ᛋ
##∞
##ꮙ
##₤
##ͻ
##￶
##┩
##ʿ
##ﭏ
##ﺧ
##ᵹ
##◦
##ȥ
##ﭙ
##ѽ
##ﻜ
##ɡ
##ѕ
##ѵ
##℩
##ƴ
##∠
##὆
##ꝭ
##♌
##♭
##⑫
##ꝙ
##ℴ
##ȵ
##∨
##ʟ
##ﮔ
##☉
##♎
##ϸ
##ﺴ
##ﻏ
##↦
##н
##ɱ
##ϫ
##ӡ
##д
##ﳣ
##ϝ
##ϯ
##ﲩ
##ɳ
##ϳ
##ɵ
##⁵
##ҍ
##⌣
##ƞ
##❁
##∈
##ﻀ
##ﬨ
##ﺟ
##๭
##⌅
##ᅦ
##ᆹ
##☋
##⦣
##د
##≑
##ᴐ
##♪
##ء
##ˇ
##ﺪ
##♃
##◯
##ف
##ﻐ
##♩
##ⁱ
##ʙ
##②
##м
##♥
##ˉ
##⑧
##∅
##ˀ
##✠
##≙
##ɥ
##∲
##ꭕ
##៿
##ﬧ
##ŀ
##♀
##⋱
##ǁ
##⍳
##☊
##˄
##ℒ
##⊚
##ﬢ
##ﬦ
##ɸ
##➛
##ɘ
##ϥ
##ᆺ
##࿖
##⁷
##ǥ
##ﳌ
##ɮ
##૞
##ɟ
##∑
##˚
##ﺋ
##ﺷ
##ŉ
##⁸
##○
##∫
##ɨ
##⍘
##←
##ｔ
##♯
##ｂ
##з
##἖
##ʞ
##ꝓ
##∵
##⌕
##◽
##ذ
##☼
##ڍ
##♊
##ཐ
##ٯ
##ш
##⑬
##ز
##⇓
##⤟
##en
##er
##an
##ij
##et
de
##el
##oo
##ch
##aa
##in
##st
van
en
##ie
##de
##oor
ge
##ing
##den
##at
in
het
##aar
##on
##it
##der
##ig
te
ver
een
##oe
##or
be
##sch
##ee
##gen
##ar
##cht
##al
##ge
on
voor
op
##re
den
al
aan
##eer
##ijk
##ou
##ijn
##ei
st
##ken
##le
dat
##ver
##ol
##and
##om
##is
##ur
##ot
##ven
is
##te
##iet
##am
zijn
met
der
##ra
##ien
##il
die
##un
##aat
##ft
he
uit
niet
##elijk
wor
##ag
##as
door
##ze
##ten
sch
re
bij
##ier
##eid
om
##een
##og
##ui
##ul
##us
##aan
##ad
##len
##em
gr
over
le
tot
##ingen
wer
##ers
##rij
##dig
##ok
er
we
##ste
als
##eld
waar
zoo
onder
men
##sche
##pen
##kt
of
##heid
##es
##zen
##nen
dan
##aal
##ke
##ang
worden
daar
##ond
##ele
an
wel
##he
##we
##ri
hij
##oen
##ich
##ap
##ent
##id
##ant
##ster
af
##dt
vol
##ige
##eeft
bl
##sl
ook
##bb
##oet
sp
ze
maar
##uit
heeft
zich
br
pr
##ct
ar
##omen
wij
##ve
zij
was
##elen
dit
ter
##ouw
vr
alle
##icht
##sten
##ik
##ter
deze
ont
##aren
hoo
##be
##ak
pl
##bben
na
zal
##ds
##lijk
ik
naar
18
ten
##oon
##sp
gen
gev
hebben
heer
##onder
##uw
bet
##br
##wij
eene
nog
##acht
##sen
##ker
##op
##land
##igen
##gt
##uk
##uur
##oed
dr
toe
##ne
##oer
groo
me
##00
##gel
##ic
wat
gem
##ger
wordt
eer
##ber
ma
##ut
##erk
ne
##wee
zou
ander
bel
am
##och
##ff
##schen
tegen
verk
##men
##bl
ber
##ug
##art
##je
meer
##stel
geen
had
beh
##uis
kun
moet
des
##elf
best
fr
kan
hun
ons
haar
19
hier
##um
gel
##dam
##racht
##oek
min
##onden
##deel
##aats
ged
##ijd
##aag
##aten
wil
##oop
##os
hem
va
zul
##elijke
##hou
##eel
##ir
se
##aam
con
werd
dien
la
gew
##atie
geb
##van
##dag
nie
##ist
##omm
##iss
##aak
werk
##pl
el
##oord
##ders
##ende
##ans
ger
##end
##ion
nu
kon
bed
##gem
##agen
sl
##schap
##chter
##rek
##zer
her
##iek
wet
##me
twee
##ust
bo
ad
##ii
##komen
kunnen
##res
##gev
ou
bev
##wer
##aad
kl
##ga
welke
##ort
##fd
##se
##oem
##are
##oel
##gens
gez
per
ch
##eeds
##deren
##im
##oc
beg
hand
##of
th
jaar
##tr
##dien
##del
bez
no
##amen
10
zeer
##ind
or
art
tr
##ogen
hoe
moe
goed
##ling
##od
onze
##uiten
plaats
##gd
neder
##ia
##nem
##waar
versch
vor
##str
zullen
11
fran
##ire
verl
##ief
##eek
##ann
et
##ische
doen
##ite
laat
ben
je
##ood
gesch
##igt
groot
tijd
##au
##ip
##innen
zelf
##oot
##yn
gele
verb
andere
gehe
##alen
##els
vl
##ale
aange
##ine
veel
##stand
##baar
land
##kend
##eerd
mede
##aakt
##ast
mid
##dige
##ue
##geven
hou
##dat
besch
leven
mijn
kr
ap
##ocht
##ins
##cr
dag
ie
12
##af
##aande
man
##uwe
vrij
##kom
##aris
waren
gemeen
##ill
ex
##vol
##ies
oor
gee
##dering
hoofd
mar
##ister
mee
even
##av
kw
##ab
##mer
amster
verm
groote
verz
##ost
##anden
reeds
goe
##rijk
amsterdam
mij
eigen
##our
##iging
15
##ac
##zien
##king
comm
toch
##man
bep
##jes
##ool
##voer
##ard
alleen
sle
boven
zijne
kle
lang
get
besl
##bij
prij
##isch
##chts
##heden
jon
##dr
weer
eerste
voort
##ding
##ragen
eenige
##eling
dus
##ens
toen
zonder
fe
moeten
par
##ma
buiten
##urg
##steld
zw
uitge
##eiden
##eem
##ging
##ks
##wel
hoog
##gende
pers
##ce
belang
geh
nederland
##per
staat
##ater
##gemeen
##ucht
##lijke
doch
ken
kam
nat
##eil
##recht
##ass
do
##wijl
##lem
##houden
huis
##oom
##ctie
##oeg
mei
##elt
17
##allen
hel
algemeen
nieuwe
##eren
binnen
##orm
20
noo
##ank
##ieden
##usschen
##zonder
jan
##pt
##age
##stig
##ings
##cl
gebr
komen
##oten
##uren
open
16
##ide
##ink
##ees
25
##ck
##gr
##zelf
##ets
50
geheel
##if
du
arb
##eed
##eeren
vert
hen
blij
echter
##oren
##ont
##ouwen
##uid
str
jaren
rot
##spr
leden
##ler
verw
##dere
##oopen
ij
##nis
thans
kom
##angen
by
##kende
##burg
mog
##iel
##off
##eerde
##slag
slechts
##itie
werden
nieuw
eens
##vaar
maken
14
pro
recht
##iv
##oort
weg
ant
13
gra
##get
av
ind
minister
alles
##zel
maat
vereen
##illen
gelegen
##als
part
##derd
##woor
tusschen
bew
##na
##ed
grond
##aken
gou
##rift
##vl
kin
##kun
geven
##tal
inde
##mid
enz
boek
kerk
##hand
##stelling
go
##uar
##ggen
dezer
##int
##eiding
##ellen
##igheid
inge
un
##elde
bren
##ert
mag
reg
##inden
##ure
wann
##terdam
gebrui
terwijl
com
kap
terug
zien
wanneer
zeker
hol
mo
stad
##oos
heeren
##ade
##ett
30
verga
##schapp
engel
##cn
##ember
##reven
##ied
##tem
heb
##gaan
##aald
##kl
dagen
mis
mr
##ub
##vr
les
##oef
##bo
##werk
##ijden
ee
drie
##ijf
weder
ein
qu
elk
000
verh
zyn
il
fl
##osten
deel
ha
##over
##ss
stuk
want
##da
pre
##etten
fa
prijs
##issie
rotterdam
##oh
ke
##emen
wen
##genomen
koning
heden
##yk
not
uur
gemeente
##ubl
##inc
##iden
##ering
gaan
##ieren
maand
schrij
##straat
enk
koop
alt
laatste
bur
hunne
##vangen
##reden
artik
##reken
pol
##wijs
##ec
the
##ation
ste
verkl
mor
opge
##voor
gevol
bestuur
##vens
##ieven
##zaam
##inn
kracht
leer
di
##unt
##huis
da
##doen
##eef
dec
##staan
water
##oemd
##onen
rijk
##iteit
##fch
##woord
##kelijk
##okken
##urs
##uim
##ate
dire
omdat
achter
##deeling
##vang
##aard
goede
niets
##itter
iets
stem
jul
##org
##igd
##oep
##eeken
##onds
gegeven
##ijen
verg
volgens
cent
wed
ald
##ell
eerst
##itt
tweede
gere
##oeken
gij
uw
komt
vast
##est
wein
##zicht
au
##komst
nam
pa
off
##vers
##uin
dienst
chri
verschillen
##elden
meen
gewee
##bare
lie
##oken
##weg
kant
houden
prov
##rik
##ril
##aas
sn
dc
oogen
vergadering
kamer
##oepen
zouden
god
vier
##aden
adres
##door
##digen
geweest
har
nov
cor
zelfs
gener
nemen
afge
##wezen
verder
aug
gek
volgende
weten
##eest
gelijk
##dert
##tegen
##mede
school
##orden
##anten
##uy
waarin
gemaakt
gl
hal
hadden
##dan
##ren
im
acht
brengen
li
blijk
april
24
kol
mogelijk
ii
minder
##gang
sm
##richt
##veel
geest
##oof
vraag
##uc
##rijd
natuur
middel
gods
##ud
192
##min
##ord
laten
willen
jun
22
##pr
##bouw
vele
jui
##uizen
##rag
##pe
##oorden
##tu
##achten
21
spr
waarvan
licht
##oog
##ame
##keur
zie
##sel
##zing
kinderen
##ming
lief
dezen
##ath
##oedig
##aaf
allen
wijze
res
ut
##zelfde
betre
voorz
##aling
##qu
##co
##its
oude
##les
hart
duit
bijzonder
steeds
verschillende
##ult
##eeuw
##aagd
ieder
oct
186
vooral
secr
hare
##werp
vader
##ere
##ob
wie
##ander
bekend
##eten
##digd
##toe
23
##eert
gehouden
sche
hy
191
maart
##trent
##all
publ
beide
geld
bek
##fe
##erd
##zij
wa
##gele
gedaan
##log
zaak
##fl
woord
commissie
##ons
##dags
voorn
100
liet
at
##leg
heel
raad
anders
mil
stand
paar
oog
weinig
##oemde
maatschapp
druk
##ph
ontvangen
mogen
kennis
regel
##maal
ab
handel
##aars
187
zooals
##gez
ja
##olen
##ina
artikel
bat
einde
##cte
zei
##dem
cl
##ong
zy
indien
##anis
28
193
lo
##ragt
betrek
doel
eu
##zig
##iers
secret
tra
naam
vroe
##eester
col
##handel
lid
##merk
gedeel
werken
ster
zee
vrien
##blad
##io
ure
blijven
holland
27
##houd
gest
kwam
oud
##schrift
##ving
arbeid
aller
##druk
aantal
40
##ts
gesl
verd
##ijnen
##ette
vrouw
##nemen
onver
geval
26
hul
dier
##ande
amb
##lingen
week
##rekken
##one
zaken
ei
##ijs
##aire
voorstel
staats
bar
algemeene
zeggen
samen
zegt
##par
genomen
gesteld
plaat
ga
vertr
gebruik
oorlog
uitvoer
##eiders
verv
##aagt
##ioen
##ikk
vau
moest
##aast
##jj
##zelve
##zeker
beste
provinc
verle
generaal
##geb
kor
rei
##kens
wereld
krij
utrecht
febr
reken
vereeniging
anderen
stellen
aldaar
##tie
##leiding
christ
offic
noodig
##raf
gaat
iv
##urende
lig
##open
tre
ven
to
##app
juist
blad
ontw
daarvan
##plaat
kn
##bre
onderz
gebe
##elijkheid
behoor
noord
klein
wit
omtrent
##ius
##tra
daarom
schoon
##gesteld
meest
dito
##ober
enkele
don
185
brieven
staan
##uss
kleine
overeen
som
##enen
##ner
behand
co
##ha
besluit
vroeger
##beeld
29
gouver
volk
##delen
inter
##ess
vern
belast
pet
##oerd
##uld
geeft
##con
ker
voet
ende
weet
geluk
##dienst
menschen
nood
doet
voldoen
prijzen
##ichten
echt
later
mensch
januar
##gew
gelegenheid
##hier
31
aard
que
hoor
val
vinden
lag
##ps
##veren
aar
##isten
kei
altijd
##yt
staten
onbe
vervol
rij
##reg
kar
##out
##que
zo
behoe
##werpen
eind
##ach
von
ft
klas
geworden
voorzien
oo
ol
##eeg
bene
mon
toon
gron
##best
vak
pas
ve
eenig
##dom
n°
##venh
sep
ac
##deeld
sal
##woordig
##geen
del
##zers
waarop
190
int
hui
##stuk
frank
schip
##oeren
gedurende
vre
##ys
##berg
december
lui
##uil
pra
##ho
##bren
dank
onderwijs
##hen
##blik
post
maatschappij
woorden
##wet
##ichting
dor
##lement
##eken
wegens
eeuw
reger
zoon
voorzitter
kal
pat
regt
heil
##mers
alhier
ruim
##ffen
spoor
##ijnt
septem
##ooi
tele
##rie
sa
august
##onnen
cr
##oemen
tw
zond
dam
franco
toege
##oelen
##anc
ren
##aring
waarde
tevens
zoodat
november
notaris
feit
gun
##aalde
noch
kort
##ll
##leven
bestaan
##bel
soc
rege
org
zui
##rijf
belangrijk
##weging
##anen
ro
maan
##oss
secretaris
dood
moeder
volgen
##scht
geschieden
##alve
##venhage
september
##ikt
nederlandsche
won
##etter
reden
fin
ph
hetgeen
kunst
ce
gekomen
verzeker
geze
joh
##igheden
##ore
60
##slagen
bre
hooger
##aart
35
vi
sy
spoedig
verkrij
##deelen
persoon
comp
strijd
##ille
geene
oe
##ous
burger
verkoop
##wijk
rom
##pel
aanv
aut
##oegen
em
##landsche
ging
##elijken
prof
vij
##ai
prins
nooit
geheele
##staande
len
tel
ser
win
##ement
sol
##aakte
##loop
gevr
lot
##eemt
##ouwd
##diging
personen
antwoord
beter
aanzien
pres
##indt
##rak
kind
##schrij
##stem
bouw
eur
##att
conc
partij
##ieke
pe
gedeelte
afdeeling
arbeiders
eenen
amer
##raad
##atten
qui
184
##licht
augustus
half
##nement
##ukt
zuid
##sproken
waarbij
bi
zon
zijnde
daarbij
##amp
nederl
ca
##oens
##briek
oogenblik
75
##fen
tal
##ning
avond
##zak
##oonen
kolon
##middel
directe
dik
##hem
##iaal
##ante
##ureau
onzen
toestand
##lang
##ooten
bijn
sedert
october
jong
leeuw
war
slot
##eekt
ongev
genoeg
bestaat
europ
rust
##kr
regering
ra
pri
##leden
bekomen
veroor
zooveel
##oond
gehad
verpl
stoom
##ieken
##orgen
hof
##ulden
daartoe
##iale
onge
##vel
mer
##rokken
ontwikk
est
aand
volle
vreem
februar
midden
##uz
vijf
bijna
steen
maakt
##akt
##unten
eener
##amer
##che
##anisatie
ziek
cour
##ib
##uigen
maanden
##ften
onderzoek
##achte
mel
##boek
##fte
milit
berei
##vloed
geloof
wezen
nij
##neming
wier
##apen
red
aangenomen
blijft
proc
cons
##regen
ligt
##istr
##air
80
##dragen
orde
verst
##ongen
dezelfde
zoodan
##vou
levens
##elijks
dans
##000
sterk
hulp
londen
##koop
bedoel
namen
juli
maandag
ern
roo
tien
pen
welk
wien
gravenhage
zel
brief
as
plaatsen
haarlem
verband
wy
##gde
##ae
ziet
jonge
hooge
liefde
ko
mot
##rekt
nation
##lo
ty
##geld
zondag
gep
189
bal
##stellen
plan
vriend
juni
pour
##bet
es
volks
schr
klasse
var
kosten
##mat
##ange
##plaats
bezit
ware
uitga
gebracht
##eep
ple
vragen
publiek
##athol
goederen
indie
woens
gevraagd
bepaald
morgen
engeland
keizer
eisch
ru
overl
##oden
##ium
natuurlijk
##aansche
vaneen
##sluit
sc
leiden
##ieten
frankrijk
##isme
##ield
kop
##utie
##ux
ir
bil
port
pct
##isteren
ondersch
ned
bedr
brand
cont
##issen
##hr
##ole
zijde
rijks
wilde
bor
besp
vorm
hert
it
letter
amerik
duid
dis
##form
daarna
car
##schappen
nader
bot
ho
##aliteit
dezelve
si
##mak
arn
arm
##tje
##va
verbet
##aai
sur
dw
##heer
##schijn
oosten
##gs
##kte
verzoek
##bestuur
00
jac
uren
##offen
handen
donder
zin
zag
duitsch
##wijzen
nad
vorige
##oeder
ontvang
##jaar
begr
45
gaf
oost
##eerden
deed
188
belg
##oorten
tegenover
##oeden
geve
##akken
##ein
langs
groningen
##wegen
##tig
adv
##fer
lever
bond
mill
##gevoerd
##plaatst
spec
macht
##oeien
opv
omstand
ed
##ugd
werkzaam
##onn
##wijf
betrekking
zijner
32
gene
somm
##menten
bureau
gevallen
wol
##kig
##immer
##red
aanbe
schil
fransche
loop
##ident
waarom
##lei
zes
neer
##fa
gezegd
elke
gewoon
tur
##aagde
kennen
##elle
183
gevolg
mijne
##schreven
##val
schijnt
##gaande
tuin
onzer
##uik
regeering
##li
beteeken
##daan
konink
##werken
##oegd
##antwoord
mevr
##orie
##kunde
vrouwen
##bank
##rachten
ongeveer
ju
blijkt
dicht
woensdag
##assen
33
bra
ba
##atien
invloed
gevaar
##rein
zoowel
##werking
pal
##spraak
bestaande
##sz
verdien
nut
stil
vers
##cu
rep
##schien
rekening
zulk
##ilijk
kathol
wensch
##her
##vaart
burgem
kapit
ka
hoop
voorkomen
betreft
##mar
genees
##itting
misschien
zen
benoemd
aanwe
meis
##erkt
gar
verkoopen
verslag
beschik
west
##ffende
##teur
stukken
##nie
##erde
##loo
lin
voorwaar
aanleiding
veran
##zaak
overtu
waardoor
##iep
daarop
gemak
derde
daardoor
##deelingen
##geving
ia
prod
landbouw
##iere
##oit
leger
bank
##welk
##uig
##boden
##alingen
##ilie
spel
##spe
onderwij
lij
derg
fam
ambten
spreken
politie
uiter
gezien
godsdienst
tij
voorts
##uldig
nacht
verde
##stelde
##igten
##antie
batav
and
openbare
aen
gisteren
eenvou
herinn
mak
willem
36
daarin
dem
zit
stond
##kundige
teeken
##iezen
groen
##pers
##kers
gulden
une
##emand
taal
moeilijk
uwe
##houding
34
##anje
schrijven
my
duidelijk
su
duur
##aarne
kost
mocht
mannen
diep
los
rond
id
##vor
70
gouvernement
##eering
schepen
##genaam
2e
za
vrucht
##meester
ta
##school
hetwelk
##ces
##amb
handels
ele
num
aandacht
hebbende
##mand
bevor
stemmen
haag
paarden
getr
##kel
ital
jav
hot
##stigd
avonds
gevonden
gevoel
##punt
parijs
##hel
##sc
zoude
90
##oi
admin
vei
pap
##sk
##stit
sub
woon
ds
zat
##zijn
##oeding
feest
rapp
##aap
ass
beroep
##rage
loon
huur
voldoende
organisatie
batavia
tar
##arden
##agt
dom
vond
punt
burgemeester
volgt
blz
gede
##eesch
colle
##ial
denk
bedrag
##erie
volkomen
lett
vrede
verkocht
##und
##gst
wedst
dad
##ise
##vorm
##oud
wei
geleden
taf
37
##olog
##oir
##yl
oordeel
mat
donderdag
prot
namid
##yke
dep
verwacht
net
geplaatst
##rijden
wal
##issch
begins
gewone
noodzak
##ient
gebeur
heen
gaarne
geschiedenis
##oomen
vroeg
laatst
pred
vertegen
vereenig
spre
sui
straf
##ht
##sn
onm
lucht
grooter
mem
vindt
ongel
ton
##iger
veld
grooten
##fi
##ca
##orpen
commiss
mej
nadere
##digheid
arnhem
##anders
tem
##onde
##gl
bedrijf
zwaar
julij
##tre
aanvaar
adver
##kken
zulks
reis
##rijven
staande
##entie
administr
zeven
gevangen
directeur
##oei
engelsche
##gevol
januari
##iedt
immers
##sm
dui
omstandigheden
##tement
aanmerk
rus
vooruit
##verd
##ait
middelen
##ozen
hei
inden
geloo
daarvoor
fir
opper
bee
verdere
lich
##onderd
keu
38
##eidene
##wen
perc
naast
wapen
provincie
besloten
gebied
##olle
##oth
##ift
niemand
soort
##gelegd
voorge
bleef
zil
gedr
lijk
##veld
pass
##ots
##ian
##inkel
##ctor
begin
junij
tegenwoordig
landen
millioen
zitting
bijeen
##vereen
##kingen
toel
##ouden
wagen
##tt
result
hebt
ord
genoemd
##pass
##stige
vraagt
verhe
eindelijk
opzicht
herh
prop
betreffende
##west
tijden
##fche
##waren
##grond
exp
denken
iemand
55
bovendien
fijn
behalve
menig
ontwerp
hoeveel
centr
bevol
##oeld
liggen
##inge
##uten
182
schrijver
##gra
##oneel
steun
##tes
aangeboden
overw
##richting
voer
depar
vee
deelen
boekhandel
##bed
ineen
##akker
morgens
regeling
mal
zamen
krijgen
bestem
##ym
##aalt
maria
aanb
pracht
moo
vermeld
##ogr
markt
berg
wijk
##ni
buitengew
##11
ingez
##genoot
leg
bijzondere
##ific
beneden
lange
cou
behandeling
##ow
##digde
##schip
##uctie
hout
vermin
doo
voren
gevoelen
elkaar
agen
##onk
##itiek
beve
42
for
##iiii
enkel
vest
##ose
lezen
slecht
##hoor
duitsche
vrijheid
cir
nederlandsch
opl
boer
geschikt
openbaar
sept
##ci
zorg
##achtig
lijn
jacob
pruis
java
behoort
##kon
gezond
bu
vrijdag
dee
bewijs
##kw
##tien
begrij
##ije
meening
##dur
##rib
##omp
ministerie
leeuwarden
konden
bekl
nadat
##ude
huw
##erm
##oede
mach
48
alsmede
nauw
##ja
naa
39
##regelen
dadelijk
##ane
muz
daer
trouw
##inding
##sters
bosch
genoemde
beschouw
belangrijke
merk
##schijnlijk
artikelen
##zoo
duizen
##gevaar
##spre
ll
zelve
grootste
##erij
##gelijk
overleden
gesloten
weld
fabriek
gebragt
duitschland
extra
bevolking
bem
erken
ide
dragen
##komsten
vaar
##zet
leeft
##eenen
idem
elkander
soorten
##nn
eg
##echt
zu
bekende
##gevolge
moge
spoorweg
nabij
tegenwoor
##use
graaf
hetzelfde
##schriften
##ffing
##eim
firma
erf
opger
##lieden
loopen
ziekte
straat
gelukkig
wenschen
zi
##iefde
44
41
kat
gec
ellen
##uwen
gemakkelijk
##gbaar
##ustrie
##neur
verbl
dal
keur
verklaard
slag
dergelijke
gelden
zuiver
opmerk
##hout
soms
hend
ziel
houdt
stat
schuld
suiker
onderget
beweging
meester
neemt
opt
hu
ontwikkeling
##wijls
zeide
zoodanig
##ric
43
kapite
##eeks
velen
gereed
waarheid
belasting
mits
lager
vrees
dikwijls
afzonder
verhoo
bonds
brengt
tent
##nel
corre
voorh
dist
verkregen
toepass
##fr
vrienden
ham
invoer
rui
oostenrijk
karakt
##oes
por
##won
gemeenten
##oy
loc
last
neen
bleek
##ete
christus
zijnen
witte
gebruikt
acc
zulke
toekomst
meeste
dur
##stemming
ges
regen
suc
bun
vuur
europa
overige
belangen
##ator
##zijde
##chen
piet
##ullen
pens
ct
##ositie
jl
koningin
##ulen
moder
ijzer
##middelen
##ussen
fil
financ
intern
vormen
181
kwamen
kapt
hunner
snel
eersten
spreekt
aarde
vertrouwen
##regel
##stra
##ique
taak
opga
troepen
meerder
maakte
cong
verre
aldus
##uut
kamp
cap
daaraan
pog
bloed
reda
verwij
schrift
adverten
bewijzen
tit
200
##ung
##sh
##scha
boeken
verlaten
und
##breid
##ari
predik
##repen
##eis
##uiden
uitsluit
verkrijgbaar
cn
onderwerp
bepalingen
che
scher
bereid
verloren
##elingen
partijen
##jar
##eede
##hans
geschreven
##bond
hoewel
mi
sou
melk
beteekenis
65
evenwel
##lever
##ene
vel
uitgaven
rechts
##erv
werkt
tab
##sloten
president
eil
bon
uitvoering
##gelaten
voord
dingen
verleend
##mans
leggen
bekw
koff
hoek
##istische
deu
hist
valt
500
onderv
##deringen
terrein
hoof
verbonden
wind
maal
huize
##ijt
ag
##ischen
namiddags
##hebben
##loos
##stellingen
christen
##eter
dienen
eenmaal
##rip
##stad
##houders
lu
kapitein
new
verlang
47
med
ouderd
sin
familie
noemen
bepaalde
##sland
##onken
##staat
aant
wacht
hield
winter
plus
goud
##icul
po
##eens
##werkt
benevens
ongeluk
ouderdom
ni
##ben
maatregelen
rel
sommige
##oll
ontb
stelt
voornaam
##etting
##ogram
dames
##anken
##za
##oeven
##eloos
opgenomen
hoogte
betaling
zom
personeel
trekken
vonnis
belangstelling
inhoud
##iii
##mie
riv
totaal
so
##aarde
waarschijnlijk
wist
karakter
##eekende
hooren
gren
leiding
hor
kinder
##bert
##urt
vallen
eigenaar
geopen
nationale
departement
mad
##lijken
##szins
46
deur
##arb
winkel
##spel
speel
hemel
dings
pak
hertog
gevestigd
52
##aux
##hoven
gebouw
dochter
inlicht
spra
##huizen
nap
courant
januarij
veil
hard
afd
burg
telkens
getuigen
langer
patr
boeren
mond
##genoemde
blik
voordeel
##iter
schilder
rede
bericht
berigt
just
##ock
##pp
##chn
bos
##ay
##dra
komm
##put
uitdruk
zoover
geboren
##brengen
voeren
##rigt
##ution
##oofd
johann
wijz
gunstig
jr
kantore
verklaring
brug
##fc
rapport
vaderland
##lijn
##ction
##ats
lim
##arte
eiken
bedien
stra
gh
inlichtingen
lam
##andid
voorloop
gevolge
weken
vertegenwoordig
##uwd
leid
##aamd
voorbeeld
##lyk
ai
##sb
##etje
jez
aangekomen
mater
##ign
##rekking
rol
##ment
februari
wijzen
##ieur
kantoor
medege
oorspr
sprak
lands
##othe
inderd
militaire
##zinn
bevat
ingen
pot
##kerk
contra
tol
berigten
jo
getal
syn
##komt
overal
slotte
111
inderdaad
wonder
##maat
scholen
sam
internation
verzam
##atuur
stu
lijden
armen
##pens
voormid
verkie
inschrij
##lt
haren
##woorden
##wacht
directie
jeugd
afgel
##ple
##oekt
fig
behoef
85
administratie
##hol
delft
redactie
bezwaar
twijf
aanwezig
inf
honderd
##wege
vijand
reglement
##do
ob
vrije
rechter
##di
stud
verschil
indruk
althans
##ice
dubb
eigendom
ak
protest
ontstaan
##ieel
behouden
app
##water
##ote
arr
moesten
49
##eekend
verzocht
ti
onmiddel
kruis
vervolgens
##mee
##ossing
##wijze
werking
##schte
verei
ambtenaren
##oeders
examen
2de
wijs
##yen
##gezet
zater
werkelijk
54
daaren
woning
##era
##ook
bloem
fre
voorwaarden
cond
corresp
##annen
schade
uitgegeven
hon
broeder
gesp
##chten
##ry
lou
tu
behooren
proef
vermeer
##schoon
##bracht
kab
beeld
ur
stel
zend
cijf
##kant
verstand
tentoon
goeden
##verga
##inen
bezoek
waaraan
gol
##lie
##arm
##haven
uyt
arch
gewij
worde
ot
gouverneur
gezonden
##rijs
##ieele
56
nou
##mel
##aties
53
russ
particul
allerlei
leerlingen
180
baron
##anning
cur
verbr
daarmede
##komstig
gebrek
vaste
##gaat
wee
beheer
fch
##eider
cents
geg
pract
amerika
jaarlijk
econ
51
overigen
##ijer
nummer
##volgende
zwolle
phil
##vi
##langs
afstand
onmog
schrijft
eenigen
alzoo
bevel
##ooting
##yd
behoeft
fi
bezig
##ois
tegenwoordige
##iff
jar
vreemde
aanvang
##zigt
namens
zyne
##gn
lichaam
deb
##stond
##oppen
rusland
bol
##will
tj
spreker
##keuring
fab
stij
vleesch
muziek
liber
past
konings
mooi
hendrik
uitsluitend
sh
inl
korte
paus
zekere
##oude
##ance
voel
voorbij
##gracht
beginnen
eere
toepassing
verbetering
##ah
heere
##oefen
gesproken
eff
form
stels
haven
stap
wets
makel
verkrijgen
##intig
dingsdag
##gegaan
vervoer
leen
minste
belgie
##cke
uiteen
trou
voorstellen
wedstrijd
aanvoer
##aer
##vreden
raa
vaak
direct
lande
commissaris
ps
jour
gezag
helft
vertrek
##cs
##fter
##gelegen
blijken
rem
jongen
congres
verlangen
iedere
gal
##ingt
betalen
act
##hof
##vereeniging
uitm
ouder
cal
leeren
evenals
beden
##oenen
econom
kie
hoogste
warm
##des
zenden
laag
eischen
eenvoudig
afgevaar
##gement
##iele
##gesch
verdw
##oemden
##comm
meld
##derde
geschied
waaronder
overeenkomst
##bes
punten
##urdag
##onie
mevrouw
ouders
band
##keer
waarmede
hoogst
treden
wijn
buitenland
ontde
donker
succes
jezus
word
##beelden
nieuws
maje
##iten
##zeer
##oote
dorp
industrie
##issing
##ta
bedoeld
##ye
insp
vooraf
ave
##otheek
wr
##ham
exc
aanget
verricht
##bergen
moeite
hiervan
wiss
kg
##zaken
luiten
plant
verschijn
meisjes
##keurd
koe
gan
onlangs
geopend
begon
vastgesteld
meerdere
opr
eischer
##ootschap
revol
##ijken
##ogt
1000
fun
prie
##gevallen
##wiss
##ile
##vig
##eland
waarvoor
eigenlijk
boter
ep
##bosch
char
jood
kleur
boom
jongens
##ns
##hor
ann
zetten
vis
##ines
telef
##schenen
rad
voe
miss
wederom
wees
stemming
zeg
lad
57
##aen
kapitaal
##ema
##baarheid
rijn
##kamer
marine
##atis
verster
jam
all
ofschoon
##rest
dun
bedoelde
##cul
##rijke
veen
58
##genooten
##halve
vertrokken
##assa
antwerpen
##lijkheid
hil
brood
station
dord
breed
##ges
vorst
vervaar
verantwoord
liever
##zee
zaterdag
tafel
mart
sen
stelsel
gedachten
zwart
##ais
gelder
tek
voornaamste
gezondheid
def
loo
##hebb
tan
##lij
##nt
vaa
twintig
princ
bepaling
aangewezen
prin
gas
luitenant
##verheid
##maken
namelijk
##issement
noodige
##strekt
frie
##uys
##ica
maj
vac
62
kwart
dre
laatsten
arbeids
eveneens
viel
concl
staatsblad
kil
spelen
beiden
benoem
verplicht
zware
uitste
onaf
##hank
roe
wijziging
son
##atting
bezwaren
oorzaak
##amelijk
##gek
##leur
richting
verandering
zoeken
betaald
##zame
disc
meent
##stukken
schut
##hal
nieuwen
onderwijzer
##waardig
ri
tooneel
##houder
vlie
##isters
##brieken
meerderheid
zult
genoegen
##nieuw
##cken
bracht
300
geregeld
vet
##auw
februarij
##gers
vat
##vent
aanmerking
mate
bereikt
wiens
##stens
wegen
steden
expl
gevolgen
sw
sport
beschouwd
geliefde
wand
program
rog
##boven
rome
voorm
ernstig
verklaren
jap
##goed
##digden
papier
sold
det
hetzelve
gelegd
militair
voormiddags
zake
##yden
gu
iii
##nd
aanvaarden
bevoegd
verschenen
verspre
pensioen
officieren
leveren
##gekomen
overigens
aft
hollandsche
gekozen
contr
voornoemd
##ng
tou
gewe
katholieke
ijver
afdeelingen
72
##inder
##rouw
berichten
##bli
ontm
gebleven
elect
rid
##vergadering
##leken
##zelfs
huizen
gewezen
##geer
##orp
sprake
bele
corresponden
dordrecht
tt
republ
mul
opdat
sym
bloemen
##iu
##la
keer
##kundig
##gemaakt
soer
wachten
voortdur
thuis
inger
verstaan
##orven
indische
behoeve
##bar
##telijk
##wed
kamers
obl
##ada
lok
##bal
chr
ooster
##avond
candid
bestemd
dir
##bladen
gang
nag
dagelijks
techn
justitie
gebruiken
64
##oeten
italie
bru
dijk
##ssel
noodzakelijk
sluit
##zingen
##ras
medegedeeld
onderste
gi
zwak
goedge
telegr
overleed
zomer
voorraad
hervorm
aanstaande
groep
59
##ooze
##inet
ler
##vrouw
studie
##zaakt
bepalen
varkens
##rict
ue
ondergeteekende
eng
maas
alk
##uct
heu
##enten
##vingen
##orgd
dek
welken
schoone
rivier
zak
kroon
##ix
95
intusschen
aa
vo
lezing
gronden
##eefd
bladen
rood
leeftijd
dringen
##hang
rang
##ques
##gere
afl
haer
uitgave
dieren
##noo
fraa
ƒ2
##sver
##ammen
##ition
onmiddellijk
##ive
##geten
fort
brus
##mond
gemeld
kent
behandeld
werkzaamheden
ghe
##ament
zitten
hoofdbestuur
##isse
63
belanghebben
breda
66
uitzonder
##bil
hetzij
voorber
##iment
ins
gehoord
inform
gre
##bur
waartoe
##itien
##isc
hopen
wetten
beoor
kwest
3e
verlies
##zetten
elders
grenzen
##waard
beginsel
mooie
##ode
stal
onmogelijk
beschikking
ooit
bas
verhouding
erv
erg
##zending
dient
##doende
edel
stof
prec
inn
gering
##dijk
##boot
##mann
zorgen
oranje
tentoonstelling
jongel
paul
##ick
christelijke
##hl
pad
meisje
boe
##oete
gepl
##inde
##aand
vle
moed
holl
schot
perceel
ong
cat
politiek
vereenigingen
##leer
zwarte
opbren
geacht
##gebracht
##ultuur
onderwijzers
##oost
sectie
bad
voorloopig
joden
aanleg
##ippen
##megen
beraad
68
##gte
social
##leggen
moderne
schad
term
##fs
##gels
##vert
optreden
instr
##kerij
bescher
##jui
##eeden
wan
ond
179
##th
bou
opgave
krachten
verwachten
##markt
goedkeuring
vierde
mais
gouden
behoefte
negen
hoogere
daad
lord
##vraag
kreeg
61
petr
derhalve
sijn
hierbij
zaturdag
avec
nous
isra
##uen
##esse
nal
boord
vertoon
##ugt
##ars
zet
paard
commun
67
lat
stell
zacht
gewicht
##streeks
penning
betrokken
##tel
bijv
begrijpen
##telijke
spanje
##anda
gewen
##matig
curs
##isatie
zang
##stant
##ocr
bewezen
uitbreid
scheen
schen
nimmer
beken
##zoen
##baren
ouden
plots
##ov
berlijn
prakt
public
imp
aandeel
##tjes
heilige
mededeeling
buitenlandsche
patroon
##tenis
dins
huwelijk
gemelde
titel
bissch
rh
officier
bak
##inning
sim
weduwe
sj
##50
##cc
zoodanige
vervolg
kans
afsch
##igde
deszelfs
vry
##ugde
nijverheid
##essen
vergelijk
bede
77
zieken
##ork
vertrekken
150
gef
bereiken
propag
##plom
jhr
genaamd
##eu
waarb
ontslag
besprek
nederlanden
##ruk
helpen
##oest
kolonien
84
##akte
##ument
##plaatsen
##qui
diver
waaruit
adm
bevatten
terecht
##ugen
glas
brussel
resultaat
houding
##ott
twijfel
##eii
alsof
bn
binnenlandsche
brit
verleden
##genen
##iaan
noor
kunsten
koninklijke
74
##zigd
club
lieden
veert
##empl
##dagen
71
bes
##iete
##usie
gehoor
##eide
middelburg
bergen
actie
##ba
83
##tuig
81
cm
bewer
stuks
##riv
##tuigen
afgeloopen
##ftig
dacht
vog
room
overleg
73
##met
voorgesteld
besluiten
beginselen
jur
##elend
nijmegen
##wijzing
eerb
overtuiging
alwaar
##ka
gedeput
##elyk
uil
redenen
dichter
medewerking
begint
geleid
jj
sec
ing
aanwez
beslissing
doe
verscheidene
rechten
##getrokken
tn
kennisgeving
can
roer
##oemt
zynde
##eedt
helder
verdr
hi
geschiedt
##oogd
nic
gedachte
begonnen
cornel
##kige
abon
peters
##eringen
koninklijk
##zelfden
##kn
venn
daarentegen
zijt
##oven
uitg
kwaad
mogt
aanbev
planten
kwaliteit
##oeid
##gene
hierop
zand
uni
##olie
##oodigd
duizend
76
##zaamheid
arme
bid
deven
##kracht
##veen
wetenschap
pogingen
##ulling
geslacht
##ommen
88
begrepen
ecu
##orten
schijn
ill
ref
##vallen
zig
sterke
cred
78
vlug
weig
politieke
overzicht
gezicht
gevolgd
raads
##teeken
##ants
geldt
goedgekeurd
##old
mededeelingen
##ms
##igingen
##phen
zed
sluiten
gedaagde
##weer
verniet
##rid
82
##tn
##nemers
positie
feiten
##beweging
uitbreiding
maak
histor
sinds
bekwaam
pond
fer
gor
onderw
elf
zaal
fransch
gevoerd
##oorn
##ouwe
io
ui
vergeten
zoolang
##inger
kwestie
##uchten
400
magt
princip
##zie
luit
vy
twaal
##komende
gingen
gebleken
stads
kas
##aving
pi
lezers
opbrengst
##oorte
##uf
##cept
limburg
zoodra
bedraagt
##alt
aff
##gemerkt
hoeveelheid
krijgt
vroegere
69
weenen
trachten
spe
maast
plotseling
##kundigen
kunt
aux
ul
schee
rest
echtgenoot
klaar
bestond
##standen
vries
oblig
##waarts
ƒ1
##ama
tl
zilver
tracht
betrekkelijk
voortdurend
eiland
hoofdstuk
jn
buitengewone
begrooting
opnieuw
##appen
gaven
begrip
##ieve
##daag
soerab
sta
norm
tabak
benoeming
##inken
ent
rec
uitmunten
gemid
weinige
diens
uitspraak
luister
ku
hoogen
##schot
87
bedoeling
autor
##eth
##oph
anna
##rede
schitter
rente
##bragt
stak
oefen
##arch
volgenden
inrichting
ruime
internationale
ministers
programma
sig
halve
cette
schat
geheim
gelooven
##stein
##oedel
wellicht
stroom
div
dinsdag
krachtig
weldra
deventer
maastricht
instit
##sid
##stof
roode
san
evang
tijdens
keuken
##ologie
gegaan
kerken
##ly
bijdragen
ridder
##ex
til
##schouw
##eesche
##achtige
##arang
onderhoud
##arie
frans
sie
##keurig
bibli
verkeer
israel
scheep
tijds
verp
middags
##uldigd
tyd
bere
veiling
parlement
belastingen
wenscht
rechtbank
##nemingen
##imum
##asse
cijfers
turk
levering
dra
##jetten
lijst
dok
rug
##elende
diplom
##vankelijk
zegen
##uilen
mol
maga
beeft
vervangen
prima
##ager
vernemen
engelsch
##ith
trad
max
exploit
wille
##rist
##uurd
##regt
buitengewoon
xx
ln
kwee
mun
massa
##rab
ib
han
##ress
##outen
gelezen
lof
oplossing
bron
non
bier
aannemen
##waardige
district
winst
regten
mogend
##iz
stren
##ierd
##ijds
##jet
86
krijgs
##ppen
roepen
##by
ret
plicht
daaruit
metho
ic
geestelijke
##teurs
##necht
riep
exempl
kel
hunnen
mm
##azen
##ider
ete
gezin
timmer
bill
##ieu
tevreden
mijnheer
wilt
##ustr
telefoon
##maar
voorsp
bis
inwon
##ateur
##vige
arrond
79
fot
precies
onderwerpen
maer
speciaal
inz
vreugde
aau
ontr
pop
verblijf
##ini
deelt
tarwe
##iteiten
##gend
ly
genot
bedragen
tee
hotel
heet
overtuigd
##otte
##broken
##rijving
verorden
gezant
##digt
evangel
##ara
werklieden
misd
beslist
##nes
##brug
neg
behoorende
univers
zoogenaam
tran
belanghebbenden
wonende
resultaten
amst
aangevoerd
wester
voeten
kring
model
##kunst
comite
adress
gratis
volstrekt
das
##hoff
##bol
rogge
goedkoop
onget
dooreen
vos
onderling
rekenen
bakker
ach
volt
meende
##zeg
waer
##eezen
##zins
##zelven
stam
studen
ff
ingezonden
nl
##ochten
wi
schreef
streven
langen
gecon
##etenen
nit
volken
brab
leed
logement
##aarden
##uv
##beg
##fterdam
##atief
wilhel
bezitten
##loopen
##hart
jaars
afrik
##rijzen
heele
klee
##wijfeld
hum
##ged
##adig
apothe
sing
keuze
os
boekhandelaar
sem
droog
uitzondering
##ations
##bor
##ters
mark
pieter
##oire
##yer
mont
##wek
##maker
##zetting
zjj
beschouwen
##bbe
afgevaardigden
##making
##iti
opp
stonden
liep
abs
dl
##boom
cas
ondan
##schappelijke
##ring
##eids
nom
##asting
johannes
zekerheid
##spect
standpunt
aangezien
russische
genieten
verzekerd
inkomsten
tor
houdende
onderscheidene
99
middag
schie
kanton
hierin
##gh
ban
sla
92
aart
##lyke
meestal
##tens
ondanks
bevragen
concur
##ulde
gewoonlijk
eenheid
beantwoord
##bruik
overweging
##matige
begeven
werkge
kloo
##bt
storm
bevelen
ingevolge
vereenigde
ner
##inck
halen
menigte
salaris
vergun
denkt
bodem
hamburg
##aarten
richt
gevangenis
erve
verhooging
##kosten
twaalf
dei
deeze
orgaan
predikant
hiermede
hec
elle
etc
meter
##eerst
lagere
gedrukt
zilveren
##ardin
aang
ingang
verzekering
gy
##ifte
pijn
schouw
dagblad
smaak
##schappij
kampen
contract
iu
##kennen
aangev
ontvangst
provinciale
opstand
verneemt
##aaien
ts
##nu
leest
jaargang
##ikte
gemeenschap
meub
##kelijke
dou
kanaal
opvoeding
##ors
daarover
##oets
scherp
ingekomen
harer
##prijs
wijlen
lees
tus
##ulp
lust
confer
##ace
acte
graf
voorde
kabinet
##past
##jen
verdeeld
##kamp
spie
##stigen
zijden
verlof
##stat
##ule
contrib
ernstige
##ti
trek
dagbladen
vv
stelde
afzonderlijk
amfterdam
noemt
fra
##wal
ram
ingenieur
meenen
##mis
##rit
baar
##ji
##bez
verspreid
##ymn
##urig
minstens
##malen
aanbeste
2°
96
wedstrijden
eten
##organis
hoed
prem
achten
##oopt
ov
##llll
conf
gc
##het
thee
##part
roy
##gebied
##ours
hertogen
joodsche
##ceelen
##dracht
##fabriek
##ome
verhaal
controle
jongste
89
scheeps
rein
##orde
hage
grondslag
##issingen
##volle
journ
##yde
evenmin
soo
boot
##ions
gear
wordende
uitslag
toonen
terstond
##prod
verleenen
##ico
ijzeren
hyp
wethouders
##gezonden
opgedragen
##oefening
vermogen
antwoordde
jans
zuster
toegelaten
volm
gezel
put
##ivid
grij
##uer
##andant
##ogra
gedrag
93
ick
infant
behoorlijk
loopt
productie
betrekkingen
zullende
geboorte
plaatselijke
eenigszins
##eeder
##alk
##diend
roeden
proces
bepr
nadeel
##uel
voldaan
##ftr
bevinden
adj
##sport
##organisatie
ontle
melden
buur
jacht
##hn
##iem
91
##moedig
cit
yan
beraadslag
##omb
korten
dd
deden
zichzelf
##merken
grondwet
veroordeeld
assen
##zn
diverse
gemeenter
zagen
##ouwer
vermoed
##levering
##yp
aardapp
tegelijk
majeste
natie
slaan
##essie
gebouwen
##apper
vruchten
gedeputeerde
hong
vreemd
makelaars
##vak
##beek
##gar
bezocht
##jn
##lich
##wa
zeil
##mo
run
##ua
koopen
denkbeeld
voorstelling
betere
kies
constit
denzelfden
##vo
individ
bevonden
##zucht
beurt
gast
alb
94
tex
discuss
compag
##aud
##iend
##deels
##waarde
ambtenaar
overeenkomstig
##tenissen
##ittingen
##vee
verliezen
##erking
##ijven
vaart
veer
##ffe
nr
publieke
priester
gebouwd
mit
propaganda
zelven
98
perceelen
##seh
blijkbaar
gymn
97
bevordering
provincien
jeug
financien
oogst
arrest
kra
##aalden
produc
onderscheiden
##omme
getroffen
haast
aandeelen
##umenten
gericht
##uister
##ias
honden
120
##unstig
gekl
##steen
slacht
bedroeg
juiste
borst
friesland
aanval
##ana
##act
kijk
onr
verander
##ino
advies
verdient
178
cle
inschrijving
##ukken
##name
##dc
gevor
aangenaam
##rigting
kust
dj
gerust
verdediging
bisschop
ondersteun
stok
centrale
##stal
ces
rev
subsid
lengte
cel
##rim
penningmeester
oen
600
concert
##standers
liggende
bouwen
york
hond
##bedrijf
##zaal
##meren
verzonden
talen
overlijden
geden
vervallen
zut
##fort
leur
plat
herhaald
sterven
ongetwijfeld
verkiezing
fijne
schiedam
vend
verklaarde
fonds
civ
japan
opgericht
##stoffen
i°
##itz
pag
waarsch
##broek
olie
gedeeltelijk
wilden
artill
zgn
##ike
##vat
bc
bijbel
##jk
##wend
##verk
exped
kalm
tijdschrift
##atische
will
agent
procure
wetsont
##raden
ingezetenen
##verkoop
gezamen
mann
advertentien
##une
fabrik
molen
##usten
##schepen
bladz
##zijds
porte
lieve
bieden
##ro
##chem
flor
bewust
bleven
bespreking
onafhank
sociale
##hoe
hoorn
vorig
genade
broeders
##oeping
bedrijven
verwonder
burgerlijke
sel
freder
ontmoet
toebe
##ids
alkmaar
getrokken
griff
fabrieken
vin
ket
beurs
bereken
inspec
##dsel
mes
opleiding
gevorm
katoen
liefst
naauw
dar
kaas
onderneming
geroepen
lut
coup
vestigen
##aauw
advoc
ijs
##up
wijst
platen
tin
conclusie
##tent
opzichte
##deling
behoeven
vordering
##sluiting
##oefend
regtbank
lage
##elaar
##scher
##ls
boomen
eenvoudige
krachtens
regelen
belgische
chin
gebonden
##spra
herzien
trouwens
##steem
inst
diensten
##trek
wint
lei
##nemens
bedre
##acteur
##belasting
opening
opvatting
lee
overwinning
nos
geweld
franc
##ici
been
aangelegen
log
winnen
soldaten
mogelijkheid
besproken
pruissen
##hui
##uite
fond
talrijke
keeren
ƒ3
zwee
erkennen
fur
##cten
onderscheid
waard
cultuur
##vrij
geringe
kada
onrecht
maatregel
##geleverd
relig
cursus
##oedige
voorwerpen
bus
uitgesproken
eet
##cen
manier
let
##genoote
volg
lading
qua
##alog
##lin
munt
vergaderingen
prachtige
##ffrouw
##oegde
mogelijke
zeeland
##ao
gehand
verklaart
surin
ras
meldt
schapen
ambt
##drukt
harm
residen
##illes
ruimte
##uimen
##commissie
##zelver
linnen
zelfstand
heelt
##por
gegevens
aangegeven
##older
geleverd
##ograf
toezicht
##speeld
hoofden
bijzonderheden
##opt
sont
##maals
verboden
##gemelde
kool
##aafd
film
sat
napole
rijst
keizers
noorden
overge
toev
gepr
cc
##iiiiiiii
gerecht
##ftal
erkend
samarang
##wagen
zwits
biedt
250
soeraba
cre
kast
onversch
ms
##eild
wis
##strijd
##cli
##verm
bevre
##eegd
bour
pij
getu
handelingen
##gestelde
volgend
baan
uitgevoerd
voorl
##zend
letters
##keren
##erve
verr
pater
heem
##reet
mogendheden
jij
##tige
machine
##handelingen
3de
##plant
zonen
ec
grand
geschrift
overeenstemming
onderhouden
oppervl
gewonnen
blok
eerder
methode
leeraar
zoekt
##oge
circul
##ograph
advertentie
liter
mus
plannen
offer
wh
afloop
##brand
##looze
zwij
##gebouw
bewonder
gedacht
ros
luc
##alis
cert
waarlijk
serv
vlag
verschijnen
koffie
stelling
alex
consul
eeuwen
tekst
hh
koopman
schuur
hecht
##werkers
voortaan
myn
tri
verzoeken
##ko
tengevolge
uitgever
grootere
bern
vraagstuk
##erende
##oofde
houten
circa
bekr
nalaten
beschikbaar
minuten
dev
if
portr
dame
##iaansche
##yr
lux
vrijwill
weekblad
##eesters
pastoor
geenszins
vn
##ademie
overheid
laste
voorschriften
prachtig
voornemens
instituut
jes
verscha
hoorde
pan
##dheid
sir
##rijding
grote
gewigt
gedragen
serie
voornamelijk
##oerde
onaan
dt
lezer
ae
fel
##gekeerd
afzonderlijke
bevorderen
##isis
beant
moeilijkheden
dav
gereform
wonen
ran
blijkens
omstreeks
hoogleer
deugd
troon
##heven
strek
lste
zoogenaamde
echte
philip
bevr
##selen
##able
huishoud
zwe
handelen
##hoog
bevoegdheid
bul
aal
hertogenbosch
verscheiden
##sluis
stede
##sehe
thom
##erc
corps
##schaffing
roem
vonden
alg
sr
genegen
groene
merken
##geren
amende
hang
fol
coop
aanvrage
republiek
ontslagen
gewerkt
verlangt
##alisme
##oeit
##slaan
voortgezet
##drongen
motor
organis
geleerd
aanst
procureur
zelden
##betaling
oorlogs
##aires
gezet
voorkomende
##zinge
uiterlijk
langzaam
kaart
##ures
fc
inc
##bi
ses
infanterie
##ijck
hop
##ziek
schrik
geteekend
gram
economische
vennootschap
##eerende
agenten
kerkelijke
uitdrukking
draagt
amerikaansche
uitgevers
komende
gelijke
jou
##verg
##erden
regter
##lam
##heen
##haald
societe
fait
klooster
staal
voorkeur
##usters
##no
##zett
grootte
louis
rie
vs
godd
##ject
tim
lt
waarover
trein
passag
bese
persoonlijk
##voering
onbekend
kui
gemeenteraad
gunstige
wou
##foort
##feest
##inke
##ble
voorkomt
grens
fraai
ih
bezoeken
franschen
##agne
particuliere
aanzienlijke
gekregen
sum
vlak
ontving
##zo
duizenden
hoort
##ooid
##mach
bovenstaande
beleefd
opgegeven
##spoor
##iug
1867
kleuren
drukken
##fonds
##aringen
bent
##ild
nn
pian
ordonn
##anger
napoleon
vergunning
##icus
bescherming
##ielen
bitter
##zamen
##zaad
onverm
##loosheid
chef
derzelver
##derij
gelderland
zout
vracht
##utr
hartelijk
##emmer
ring
linker
##mus
##inderen
hiel
##isser
onw
bevindt
tarief
##middels
wissel
rou
##ura
##ox
artillerie
##stede
zonde
##scholen
noodzakelijkheid
beft
meda
spreek
gezelschap
lied
schuldig
##vin
bewon
lek
##istiek
gouda
verf
visch
poging
bovengenoemde
tegem
europe
##otten
##steeg
fle
cene
amsterdamsche
rn
nopens
dia
inmiddels
tram
onverschill
trok
jaarlijks
zelfde
besturen
slechte
zwitser
##iens
gent
schijnen
##deelde
premie
rt
sten
vous
memorie
onvol
rustig
##arbeid
residentie
heiligen
##rt
##iode
antwoorden
geboden
paleis
conferentie
oom
echtgenoote
verbond
veroorzaakt
studenten
ingev
arbeider
toelichting
tegemoet
trans
leder
##neden
##baan
vlaam
nabijheid
dea
overd
##ack
termijn
800
cass
omgeving
##ueele
jammer
##oogde
doop
vloot
uitk
##path
ingesteld
werkelijkheid
zending
iet
gestelde
verzet
aanhang
maa
05
verfch
##igste
##wongen
arg
##iner
1862
110
opmerking
plaatsing
beer
steenen
gewel
##rechter
las
##stroom
verwar
navolgende
duister
##atieve
boedel
herinnering
##reerd
flink
tc
bruin
##zin
profess
1920
zn
voldoening
informatien
##elein
##aaid
gesticht
nomm
hoofdstad
##gebragt
##schappelijk
absol
##meer
gevormd
##aagden
katholieken
##fde
anti
volledig
zr
akte
missie
toegekend
koel
admir
revolution
##40
voorhanden
geslagen
ziju
reizig
slaap
regels
uuren
##ukte
gewaar
verheven
##urd
ernst
malen
ist
gelaten
omvang
##lig
177
comme
##aus
frederik
misl
leu
vereenigd
lokaal
##tegenstaande
##son
##oederen
vissch
##iste
burgers
eervol
##hoek
present
##onne
diepe
##vorens
dog
wetsontwerp
##itu
daag
bloot
klassen
daartegen
deelneming
danken
prinses
sgra
samenwerking
ils
wijl
##eltje
democr
geste
##drage
##band
schipper
besteed
bewoond
##ych
##schrijving
sei
verkooping
cornelis
##tijd
militairen
##onderwij
##reff
##ryk
nuttig
amers
verzameling
adri
china
spoorwegen
##delingen
diam
ontvanger
voegen
alvorens
##ton
hat
uitte
##cer
##ommel
1879
waarna
fac
gezocht
schou
tweeden
##wegingen
broch
##illon
meme
koffij
uitstekend
well
inzicht
verdienen
opg
vertrouw
toegepast
pel
hoofdzaak
dertig
zeld
ets
aangaande
quel
abonnement
geer
dagelijk
beschouwing
interess
##gevonden
##antien
##terij
och
appel
nummers
heef
##erlei
richten
kunnende
onte
ingediend
##kist
bood
omschreven
aanbesteding
passen
droef
smart
tand
zielen
ix
nee
##atsoen
plaatse
tilburg
geregt
toegang
##onderwijs
integen
##sw
keek
hr
kerker
lagen
##schoten
sier
meet
gewijzigd
bescheiden
voetbal
##nam
ervaring
arrondissement
reserve
##ariaat
gerucht
wetboek
jer
exec
1914
##opp
##ctuur
officieel
##kwam
##kam
##ils
blauw
poort
cate
haa
##stip
test
verpligt
overstaan
##streken
langdur
##verw
##heim
vernie
sterker
##zamer
integendeel
vermindering
opgev
proeven
lijf
aanwijzing
madrid
jub
wenden
inspecteur
##ompen
tout
wapenen
meermalen
mich
##ooien
bevestigd
inb
##rische
liv
gt
vanaf
lasten
enc
afwijk
##mt
oef
##straf
##wekt
##voet
rusten
bijeenkomst
cath
zuiden
##jarige
exploitatie
verkeerde
gelaat
stoomboot
kerst
bijdrage
hals
##ating
##ld
broek
koper
verwezen
entr
aanvankelijk
vertegenwoor
overtre
toegezonden
teekenen
geschil
schoonheid
##hard
sympath
##istisch
verschijnt
onderworpen
flinke
protestant
petersburg
##ieurs
nicol
werkgevers
##oogen
rig
zingen
##nemer
##heffing
##ute
zutphen
datum
systeem
georganis
dubbel
##ialen
helaas
journal
mens
pur
etre
mand
##partij
advocaat
bien
plecht
##inus
125
verstrekt
##ente
krachtige
hiervoor
defin
bie
centraal
##volen
kampioen
groepen
vertellen
moeij
##arbeiders
vergelijking
##uldige
fatsoen
ki
160
waterstaat
alom
toestanden
lit
tijdelijk
##ikken
erger
name
maakten
gespeeld
ding
uitoef
reu
bt
##genoeg
vergoeding
##25
gefch
##elijkheden
vette
##asten
links
gestr
besten
slagen
polder
gebed
majoor
ingevoerd
mos
deux
kwal
schrijf
##ston
magazijn
1928
woningen
oper
top
sint
overt
amersfoort
haver
vlucht
heerlijk
##ilde
praktijk
bewee
nem
schoen
##illa
nen
alsdan
##makers
recl
varen
##itte
erven
##net
voo
beschouwingen
ig
loge
aanbevolen
##lic
geel
beslag
majesteit
opgel
schrijvers
scheids
##eeven
beschrijving
chem
waardig
beslissen
verzekeren
doc
##breekt
ffi
hierdoor
##zag
appell
entre
bly
niettegenstaande
hulde
##wisseling
bezigt
oi
verra
conditien
##oeke
genootschap
kilo
voordracht
iedereen
aanvaard
beetje
ais
verzekert
teleur
verge
vergr
##useum
1925
mochten
uitgebreid
afwe
gebeurtenissen
4e
luidt
speciale
godsdienstige
verkeerd
pool
gerekend
##20
##uft
##pool
##mi
##vuldig
getuig
inlandsche
hom
beperkt
spaansche
mars
##kade
1929
voornemen
sociaal
##bep
sommigen
scheepvaart
luid
straks
contributie
redacteur
herstel
waal
vorderen
##waarden
##gest
jose
##gever
griek
angst
hiertoe
reeks
##cha
correspondentie
ree
uiterst
##gelden
graven
##ior
koophandel
stoff
fok
degenen
eerbied
compl
##oeiende
dooden
compagnie
##ita
bewind
lijkt
eta
ea
1930
totdat
2000
1919
mindere
dil
binnenland
harte
vereenigen
##varen
oudste
##bber
##belang
##gave
sneek
beek
##leen
dusver
##zal
onjui
vervaardigd
##teren
##steloos
jaarlijksche
vermelden
vorsten
dn
instelling
riet
eed
##zigingen
brabant
jen
disp
john
1921
strij
provis
toer
##kring
##ches
mu
##abeth
##to
ss
pret
bidden
gevoelens
stukje
honder
ien
herk
##eele
##inchem
voelen
koers
biljetten
##60
130
kok
##nog
aangen
##ificatie
passagiers
neutr
beteekent
wenschelijk
##icn
##richtingen
oorspron
behandelen
101
kiezen
suriname
##itten
minst
onsch
mijnen
geloofs
##eefs
##wegende
veranderd
##ley
boekje
##ieen
daarmee
portug
##getreden
geschonken
##zakelijk
##steren
stier
verrichten
##ict
gewenscht
doordat
breeder
gein
opzig
buit
##ket
voelde
##inop
behoeften
behoud
gewest
natuurlijke
berekend
##daar
##hebber
##ecten
paris
1913
streken
volgde
toebehoor
kolonel
##handeling
kist
graag
roman
##anderd
toont
1931
aangaat
1878
afrika
patroons
bg
geef
##cher
##cour
dest
mex
general
ls
organisaties
nogmaals
heilig
daaromtrent
camp
oc
breede
ball
zaand
1918
hooi
rr
tak
##kantoor
verover
##ages
##apt
##gevoegd
lessen
stroo
ang
pos
1927
##kten
wir
##pend
leef
ingeschreven
##ffer
geoor
1933
##spectie
bjj
statuten
##deld
volledige
gevorderd
mod
1923
##auwe
##bode
ingericht
luiden
aanspraak
vlissingen
gras
jegens
mogten
collega
##erg
verordening
gauw
iste
lan
##igr
1922
christenen
##wol
herberg
aardappelen
##omot
rijke
##uimd
##naar
psych
gelooft
glad
commissarissen
##hon
crisis
aangebracht
ziekten
##entr
catalog
leyden
mom
stoffen
nadruk
nota
vertegenwoordigers
##arissen
##dorp
##ineerd
ftaande
opgemerkt
##rekte
##mens
levendig
jullie
harlingen
##denken
treedt
waarschuw
1932
werkloosheid
handhaven
super
##mina
loopende
visser
##ain
brak
voedsel
##mm
leert
too
##iest
onveranderd
scha
##ambten
bata
ontwerpen
huy
amstel
opgaven
zondags
##ona
verslagen
nagel
bibliotheek
vermoeden
depe
1926
invoering
ingel
##zi
ondergaan
vir
ingenomen
foto
transport
##kest
140
overij
hee
inzien
1866
verhoogd
##hebbers
vollen
##ki
##gelde
1924
ontvangt
vereischt
##ijns
via
lach
bestuurs
harten
verzen
heiden
wild
leerling
nicht
ji
herv
gewapen
eo
zicht
faill
lood
##cel
span
##cb
##hi
##zegging
uitgen
resident
cop
##ati
vice
temper
##koming
##perk
anton
iederen
zusters
oprichting
tijdstip
regeer
johanna
alge
verbinding
koude
##was
verscheen
##pre
##aut
romein
ondert
hoogleeraar
##versum
vervullen
hef
##teekening
##har
aankomst
°p
stoel
##fchen
rott
##isf
##erts
meijer
instellingen
##ofte
##horst
sf
verworpen
resp
##yks
candidaten
blan
veertien
onderzoeken
##kan
##eg
zucht
##spl
##stelsel
handelsblad
##ologische
##alm
kalveren
gevaarlijk
##vet
long
##30
verdedigen
##wijst
vakken
spelers
herinneren
aus
uitgel
##zuur
slaat
voortd
veront
levert
##tend
wijzigingen
koloniale
##ora
theorie
versl
bri
aardig
straten
zonden
us
genoten
bewerkt
gebeuren
bang
onderhandelingen
rund
bewoners
overwegende
glim
##dringen
hersteld
##legging
1934
hilversum
branden
gehei
aanzienlijk
ontbreekt
##macht
175
opvol
langzamer
behel
dol
persoonlijke
1864
kou
afg
##werf
oorspronkelijk
popul
ople
loonen
##schede
bla
##ese
cen
vermoedelijk
concurr
lond
bevallen
##port
##bin
hg
adel
##neemt
geschen
##poort
expeditie
apost
##iteur
derden
sult
##adel
thomas
drent
waarmee
subsidie
fondsen
sav
vind
nagenoeg
rigt
##75
eerg
kringen
provinciaal
grieken
amendement
beroepen
bevond
verlen
sgravenhage
bloei
##vereenigingen
leeuwen
##schaft
##gk
famil
twe
esp
kleeding
compt
vanden
##borg
victor
leening
cer
voorbe
nationaal
01
officieele
achtereen
terw
product
verschuldigd
##zw
discussie
may
beweren
geor
##clie
stellig
##houdende
aangesloten
smit
##lag
voortreff
voorbeelden
excellen
##gelijke
daden
raden
##pot
##uiken
rs
klin
gedreven
sigaren
1860
welker
boete
##stigde
gelieven
##aur
uitvoerig
uitsp
inwoners
stichting
westen
##eekenden
ci
bode
##ppel
verkiezingen
afgedaan
##emaal
liberale
gaande
nauwelijks
verloop
armee
stuur
sneeuw
##knecht
dringend
aanvragen
gewoonte
##oeide
ondervonden
vorigen
noodl
vereischte
inleiding
comple
ads
bedrijfs
pale
■■
kolonie
enschede
anne
zekeren
##plicht
3°
elftal
##besturen
producten
kuy
##daal
stille
verwachting
hab
gedwongen
begeer
hinder
rand
bunders
streng
onderzocht
1910
##einde
sar
strekken
feder
drank
kanten
##maatschappij
vit
##inie
rozen
nb
tous
genood
marie
ns
hechten
missen
metaal
1869
treur
##spit
xv
##willen
behulp
1865
toestemming
##rechten
wo
dubbele
1870
faire
herhaaldelijk
vijftig
##ningen
jare
engelschen
geachte
uitger
##ohen
##vigen
gekleur
##actie
rechtvaar
hoofdzakelijk
##sing
vanzelf
zuivere
toegestaan
1935
##let
artt
stoomschip
zegel
edele
geneeskundige
legt
##jon
garni
##jarig
kiezers
##jaren
nar
ruit
1917
##oefd
1873
notarissen
overgegaan
1912
##bureau
aanteeken
guldens
##ume
geweten
betoog
uitmuntend
1°
hein
candidaat
bezorgd
##houdt
##ser
troost
sloot
schriftelijk
dankbaar
verminderd
bevattende
##80
105
170
schaal
##oni
levende
veronder
party
1861
##aet
##regeling
vertaling
technische
kapel
klim
gansche
##nij
102
##gevende
##oleum
autoriteiten
balen
namiddag
repar
onger
##streek
universiteit
bekenden
ditmaal
##emd
redden
herziening
christelijk
gewijd
gift
moei
algemeenen
zjjn
tegenwoordigheid
##ruim
revolutie
ier
conserv
opmerkingen
voorzicht
pou
quaest
##boeken
##zake
##ife
vii
##mate
beelden
beklaagde
keulen
##tz
periode
individu
regiment
1936
stui
uwen
ƒ4
vervuld
adem
##ln
overbl
hervormde
geex
toet
##loozen
prinsen
hoopt
italiaansche
##zei
##zier
kadaster
besloot
##mg
##fel
inkomen
##ipp
##aval
1859
lil
##zinnige
103
omstandigheid
##dei
##beelding
##osc
vt
werkman
##kondiging
##alte
sans
bei
havens
##arina
uitst
onvoor
uwer
oft
waarborg
woonplaats
museum
gezell
##rn
ervan
bag
deen
ey
handh
gered
##igh
1916
typ
##zorg
elis
##bus
trekt
kem
gemoed
schel
##inu
veiligheid
nt
bestrijding
700
piano
peu
droefheid
##temin
vervolgd
daags
moord
hoedan
gemiddeld
##outh
dezes
##vre
##ael
bezol
##vleesch
##oeging
muller
##jt
uitr
104
schier
##artik
voorwaarde
mant
schatkist
uitkeering
gemen
vrouwe
juffrouw
treffen
##zende
gekocht
speelt
poe
##nep
1877
bewaar
##ites
vroo
spaar
polen
stort
drukkerij
langzamerhand
1875
176
uitgenoodigd
wege
exemplaren
beantwoorden
geheelen
strekking
doll
geslaagd
voert
eh
openen
##lik
ghy
haan
oorzaken
evenzeer
##eur
college
vrijwel
sticht
##cor
verdwenen
verbinden
toenem
veranderen
ordonnantie
dein
sloeg
voormal
bege
mou
##zegd
##hagen
##houdend
bezittingen
huisgez
gelieve
palm
hebb
eilanden
##wat
kelder
vie
tap
apres
unie
jarige
durven
constr
bijl
lel
beschaving
vooruitgang
##vader
##drift
##prijzen
##aste
zonne
cijfer
versche
arab
##afe
aflevering
##vele
oorspronk
hierboven
haat
##vertr
afkomstig
##risch
vergez
berust
hl
welkom
kern
1868
depot
gemaakte
gedeelten
merkwaardig
nederlandschen
beroemde
roept
##icie
eigenschappen
uiterste
##halen
##emar
dagvaar
fp
duim
herstellen
##rikt
kaste
1863
genoodzaakt
gunst
##rich
effe
tenzij
aanbod
hieruit
vcr
opera
##stoe
behoorde
wierd
1911
doctor
bewaren
gebeurde
kre
lijnen
albert
##70
lsten
raam
jansen
pays
##verslag
dont
koets
toren
drijven
ellende
tensl
getrouw
##fle
verschijnsel
wag
verkon
pruiss
##eept
christendom
##atra
oorsprong
1937
inwen
##uste
##punten
pand
loten
##rs
##delijk
inzage
##rig
maag
stijl
lev
##jo
ocht
tenslotte
1908
nergens
held
bega
vnn
johan
vocht
1909
##quis
verwer
inner
##bach
##iede
lode
bewaard
loco
zaad
##uch
##achting
compet
effecten
huizinge
##bon
##imo
prob
figuur
steken
verborgen
dokter
minimum
aanbeveling
ng
##schr
##kum
dak
maur
hoofde
eventu
wettelijke
enkelen
plegt
welwillen
wetgeving
gezind
joseph
gepleegd
##ea
overtuigen
voorgestelde
oorspronkelijke
gemiddel
##etjes
werpen
gereformeerde
aanvraag
##itief
samenstelling
##dent
telegraaf
##uts
verlangd
bijge
getrouwd
kisten
##vn
##abel
zeeuw
##oft
##cm
##heit
deele
schol
state
wenschte
vaten
cooper
bezet
napels
fon
muur
##ijke
##inea
1871
pacht
vriendelijk
##mes
##allig
1915
heid
cum
ronde
aangewend
koor
roos
percent
##ili
dief
jt
##avel
##stantinop
##hu
pic
bv
carl
materiaal
##ossen
beoordeeling
##deelt
aren
##elik
koud
##uwde
##kondigd
verwijderd
##js
francs
petroleum
afschaffing
koo
##industrie
droeg
colleg
##lands
165
ay
overgang
kleed
kaarten
france
vogel
##gegeven
admiraal
hans
circulaire
zaandam
##ija
graan
161
##ern
##ville
godsdien
gouvernements
##ald
heerscht
banden
##win
zeem
sant
##ooning
##iie
obligatien
hut
huid
meel
##genoemd
##aansch
uitv
streek
##eesten
boekverkoop
bestreden
##gaders
eeuwige
ving
dio
##ata
##arta
benoemen
163
sted
collectie
getuige
##houdingen
kolen
##inga
kijken
##schrijven
##ijl
voordat
zette
##onderwijzer
cri
##adigheid
##merkt
oock
vesting
##yzen
crediet
deut
##geest
geraakt
afgelegd
menschelijke
seizoen
refer
onmis
pref
##alie
uitgez
vere
veranderingen
ƒ5
ontdekt
gemoet
nd
denkbeelden
##rei
1858
##kes
tijde
prol
##sehen
ech
##ventie
js
tranen
ondervinding
eis
maatschappelijke
ott
ondergeteekenden
##eille
uitgeoefend
demon
##ugel
##ouwers
slaven
ev
grav
coll
dienste
ontbreken
##nemend
1848
breedte
##laan
ondernemingen
ontkennen
orig
##verzeker
pu
##agers
fraaije
##eldoorn
##sting
##orging
moment
##brief
beet
opgeheven
brouwer
koek
staking
##iche
steunen
medaille
makelaar
mac
sacr
mas
telt
gearriv
erkent
##som
zaa
schouwburg
big
##stes
immer
##ooft
decl
droom
roermond
idee
gestorven
1907
##zonderd
motie
verantwoordelijkheid
weezen
wetenschappelijke
ontwikkeld
oplever
vergezeld
egyp
onverschillig
vernomen
ult
nor
vreezen
mijner
strekkende
verschaffen
##verkl
schep
zeit
hoogd
terugk
machin
afhank
##inne
geill
kleinen
evangelie
##arij
tract
leiders
##90
hierna
telegram
trap
##iering
orden
order
cant
europeesche
onnoo
peil
lichten
cassatie
hangt
##aafde
aanm
##zy
zor
legen
zod
billijke
ontvingen
##kking
liver
eigene
affaire
##oeve
##hangen
1872
freg
##meesters
uitgebre
auf
welks
1876
##gelegde
krank
nass
wijd
##keu
##astiek
##han
##ijm
bestemming
spiegel
onjuist
renten
middenstand
mgr
genoegzaam
##orst
grave
cam
bediening
1874
boog
aandoen
##heyt
##num
eindhoven
feitelijk
##oonde
##boomen
cost
vaststelling
geestdrift
##wil
fout
##pelijk
onrust
verhalen
onthouden
ligch
wekken
1857
kalk
##heeren
klok
##stelt
bestek
mans
##aine
achteruit
sporen
schippers
geraken
diepte
##bra
beraadslagingen
doorl
##zinnig
mist
cu
##itters
voorheen
tv
donkere
verdrag
stilte
156
geweig
wort
daaronder
voelt
##lust
##namen
prae
##ourn
##club
opgemaakt
draa
fen
zoet
##breuk
overbo
108
soe
daarenboven
##nomen
##woordt
sluis
auto
##wikk
##ues
ploeg
apeldoorn
wetenschappen
##vende
##erkte
##offic
1905
kregen
betr
onzeker
komst
vermeerdering
##eien
latere
dess
testament
omstreken
religie
bewegen
ek
fris
aj
eerw
professor
##heil
##bn
kende
archite
schoot
ris
billijk
veilen
practisch
verhin
##sem
export
##kas
sterf
##zem
welvaart
geestelijk
qual
rouw
dirk
prince
sic
vooreerst
sous
aangelegenheden
##woning
zeilen
sich
drag
gedane
houd
##atr
voordragt
##wijn
strekt
##wassen
uitoefenen
pon
115
mc
that
besm
ich
uitkomen
warmte
##spraken
##uist
commandant
palest
klass
heide
historische
woe
1906
fraaie
slagers
uitnoo
tocht
staf
vlam
pau
kwartier
##hei
kerkeraad
are
honger
societeit
kad
losse
##cijf
catalogus
welnu
matt
bewijst
mitsgaders
bruine
apotheker
arts
steenk
157
gelijken
wakker
portret
gevoegd
##yf
gegrond
nommer
gelet
brochure
##bak
vijfde
##ementen
##klasse
schiet
##nede
burgerlijk
belijden
verval
ween
##aff
aanvallen
bevest
##rekers
##ella
vaartuigen
3000
vandaar
rondom
harde
toegevoegd
july
##pleging
inv
##cret
mulder
souver
##ateurs
164
beschreven
doende
vriendschap
##ary
resol
vormt
naer
eerbie
##uyt
schu
verantwoording
voed
kleinere
ondersteuning
##oozen
inzen
merc
##lach
oh
voorgeschreven
neus
ontst
lant
##10
plaatsver
geweigerd
wilhelmina
warme
vaders
##verde
##adige
alc
1854
##etsen
kenn
lippen
neem
##hoo
paroch
ramp
practische
enf
catharina
jeugdige
bud
##ani
##jaars
##melo
oefeningen
mitsdien
##22
dagvaarding
##raven
##lc
fant
veertig
gebroken
grootendeels
##anus
snelheid
verschrik
##slieden
regent
overgaan
begroet
bart
ochtend
britsche
inval
jarig
gezamenlijk
boos
afb
verdedig
vermeerderd
##wit
katholiek
##ibus
nis
jus
##stell
zuider
concurrentie
voorbereiding
bekwaamheid
verzoeke
##aga
primo
eigenlijke
griffier
kaap
strijden
grande
uu
##fp
samengesteld
letterkunde
##uldigde
##pende
hierover
nuttige
ophouden
heerschen
cler
ene
maximum
##igte
bord
tegenwoordigen
hieronder
academie
synode
eeuwig
out
geint
buurt
hieraan
rijden
##afel
dieper
vrijen
zwitserland
174
##oosten
##vis
hoven
hielden
##ffend
laan
mission
reizen
lijd
##sd
melding
petrus
hevige
excellentie
##ftraat
vertoonen
bevorderd
verdwijnen
##staanden
##bew
tegenstelling
hospit
constat
mech
##33
moer
noot
aanvulling
hevig
bom
dapper
tusschenkomst
##oogden
levend
abra
ideaal
oostenrijksche
kuyper
perf
wijden
militie
voorjaar
genoemden
##gevoel
##oeng
cha
##volgens
mt
##schikt
##iatie
kne
gevaren
smal
##uck
gemiddelde
##wereld
rob
##uinen
nauwkeurig
uitdrukkelijk
##oogt
nes
sil
##jl
##eh
135
##jr
waa
margar
millioenen
etait
energ
correspondent
overgenomen
vijanden
quaestie
heelemaal
mode
up
##stander
1900
zg
gebeurd
lidmaat
dergelijk
##yne
aanwezige
bac
##volging
liverpool
theor
historie
sumatra
tf
harmonie
tamelijk
sympathie
rat
vu
##utt
tante
heerlijke
##icr
bijk
1851
sluiting
1938
intr
schim
runderen
oefenen
##graf
##schil
strand
meesten
werkelijke
##stantinopel
star
verplichting
behoudens
118
166
korps
jaarwed
voorspoedig
pend
onderlinge
zonderling
takken
huys
##graaf
##ssen
ml
##deaux
herhaalde
uitl
##mal
waargenomen
##fz
arrondissements
allemaal
latijn
##aals
tom
juny
afgevaardigde
##ooren
hav
granen
##hoofd
statistiek
hall
pie
priesters
##burger
eea
##ols
voorschijn
bok
veelal
hartst
aanmerkelijk
afdeel
avait
godt
106
##ping
1903
koeien
zuur
spir
goedgevonden
##iviteit
achtte
dorpen
##kust
##ano
meeren
mey
papieren
zenuw
##ghen
onop
teekening
ruwe
paulus
lar
##ftien
opgewekt
##ijdig
diploma
reizigers
rich
ld
##magt
##aps
jean
##ikking
koopers
posten
gebeden
##staand
wisten
##vermogen
##mende
bouwland
borg
texel
vermelde
tweemaal
dage
elisabeth
breken
##ih
verbod
##kenning
##stijd
degelijk
verlicht
verdeeling
praten
bloe
tiel
vorming
155
##eltjes
az
nette
teruggekeerd
vreemdelingen
onderdan
vertegenwoordigd
denemar
secretarie
sera
eindigen
##feh
vlaamsche
5000
ruw
gegr
roi
volmaakt
121
##landen
genezen
onde
rok
mn
uitoefening
afgegeven
##23
lc
109
arriv
gro
brun
luxem
rc
opdracht
116
schilderijen
abraham
vermen
##lein
toevertr
dese
nassau
leider
##ctoren
opheffing
david
##ogel
bespreken
gead
gelukt
belee
prys
aanneming
directeuren
107
lier
stoelen
spanning
gezonde
##tementen
belofte
1904
##minste
prett
wend
veron
herinnert
aanwezigen
invent
schei
##etsel
aanslag
##don
heeten
##veer
element
bewerking
lieten
##uiven
stre
fan
##istratie
hollandsch
##orn
genie
##uldiging
##kop
speelde
fo
behoorlijke
##21
talrijk
doos
ongeh
weeg
eerlijk
lichte
domin
##24
end
allereerst
##bour
certific
betuigen
kweek
##rekening
##gingen
openb
voorwerp
##pap
dalen
##sr
weiland
ofte
geschriften
overbodig
rend
omtrek
nicolaas
pc
wanh
##zar
stor
aanra
saldo
baren
kasteel
1850
opleveren
tanden
##zoek
locaal
vorderingen
jager
hooft
##huy
alsnog
wijsheid
pik
1856
##eidende
##eeuwen
berekening
jongeling
koort
aur
eeue
##keurige
stations
vertegenwoordiger
verzw
##andel
autres
wt
##ull
##go
bevestigen
oefening
boel
jonk
doorn
viii
belangstellen
aansluiting
bizonder
gerard
pn
verhuurd
##cker
spek
schitterend
bef
voorgrond
economisch
tekort
##tijds
ongelukkig
orkest
regeerings
ah
inrigting
ht
##holland
##war
dern
##produc
##ron
baden
deelnemers
verbeteren
##atorium
ip
##gerecht
noemde
teer
1800
prik
afscheid
rechte
kwartaal
overijssel
168
duin
##ungen
verkopen
padang
117
rijs
class
gebeurt
##atisch
leek
enige
vermelding
114
gymnas
128
denemarken
##gesteldheid
env
belemmer
henri
uitkomsten
woor
zedelijke
uitkomst
dunkt
leurs
##pels
bestand
vou
dreigen
laatstgenoemde
phys
verschijnselen
gelyk
handeling
begrijpt
##unde
uiting
uitb
4de
##artier
gerrit
aangetoond
voorgedragen
medel
##35
hypotheek
##trekken
meesters
manu
onvoldoende
tussen
##booten
tijdvak
eb
helden
124
##ruimte
meppel
1853
opgeroepen
geneesheer
tucht
onbekende
##isie
pakhuis
schulden
uitmuntende
oer
ƒl
##iets
assist
vermits
##sprijs
167
willems
##ef
tenminste
eventueel
doorgaan
etabl
assur
voortvl
dankbaarheid
verzoekt
angl
##iedenis
deezer
inzonder
altoos
type
appl
##verb
litter
##ulte
geluid
point
kt
bepaalt
blauwe
afst
vertoont
touw
gekend
ponden
1855
adressen
##spor
coc
zwem
cafe
##besl
beschikken
##pn
kardin
##ares
legde
vrijwillig
##wi
eerfte
vervulling
lidmaatschap
menschheid
grijs
schoor
rent
sul
##ziekte
##si
eig
normaal
kameraden
tempel
rijtuig
##agn
koperen
##ublic
afschrift
##rijft
##lit
trots
##okt
aangifte
wollen
##gc
vacantie
##alem
march
schieten
vaartuig
tijdelijke
##schalk
ƒ0
1500
geref
beur
palestina
inrichtingen
turksche
ogen
##elling
##jarigen
cher
ontwikkelen
schaduw
scheven
functie
beraadslaging
##richten
uitstekende
gemeentebestuur
beweert
notulen
##wang
baas
dwang
inzake
braz
gevoeld
houders
gestemd
opnemen
##wist
verdienst
stalen
1852
erl
prote
mededeelen
fal
hadde
##gelijks
gebl
slapen
##kor
ongelukkige
voortbren
gelijkt
lis
vergeefs
gold
geestelijken
george
patent
kof
senaat
temperatuur
##27
zwakke
##vordering
##arts
teneinde
electrische
eergisteren
zieke
ontvangsten
goet
nade
##opper
zege
1901
hangen
constitution
nouvel
herman
gezegde
koren
verlichting
##boekje
##ftige
##aker
##krachten
beletten
linie
lor
appar
mort
leidt
garde
veilig
maatschappelijk
finantien
keurig
##vrucht
verwaar
nederlaag
practijk
uitvoerige
##morgen
geniet
gelukkige
niettemin
ontleend
eieren
1847
##jer
loods
dwaas
mensen
vertaald
nak
158
nevens
afwez
inzonderheid
##lant
dikke
auss
egypte
##95
machines
haagsche
financieele
staatkundige
gemis
voorgaande
##ities
nederlanders
##maand
##atoren
jaarverslag
##sluiten
vic
spijt
##overeen
gids
boo
##ading
geruchten
franca
rl
##raft
jas
inteeken
##kenen
geweer
##voort
##ynen
113
pont
uitgesloten
welligt
sultan
zijns
zoovele
##rassen
##ollen
wijde
january
127
##sequ
##erken
slap
##ature
##icale
roel
vrouwelijke
ef
brut
oogpunt
##cien
effect
zion
##cess
##ersen
##loofd
tres
##26
levensmiddelen
##offer
brig
geschiedde
gehuwd
destijds
totale
karel
##ito
wagens
gil
##gier
tegenstanders
roeping
##aanderen
majefte
##zes
dm
vervang
##opte
erkenning
##ria
geschikte
um
verwe
dato
od
##gent
gansch
##etie
vakbeweging
gister
##middag
soldaat
bekracht
##iks
##riet
vasten
honderden
##ianen
##jjk
hoezeer
rotterdamsche
bovengemelde
voegt
coupons
wc
geschillen
openlijk
predikanten
##brieven
meubelen
##vle
ligchaam
##ubb
ongunstig
verminderen
##iee
##resent
##xe
##asc
talent
diamant
##irs
##raagd
loos
kosteloos
eft
gul
##einen
scheiding
zalig
ambacht
plek
zolder
frankfort
##loon
zwijgen
ans
werkloozen
gepaard
tuinbouw
opgehouden
refle
encore
##elyke
trot
administrateur
meneer
gesprek
ever
##bedien
werktuig
kunstenaar
toonde
autom
particulieren
waardeering
aangename
voeding
gehandh
##deu
zoom
##goederen
niel
initi
ongew
1902
##sterd
eischt
vieren
linden
beau
##voeren
voordeelen
##kar
olden
aartsb
eender
##reis
##urn
gir
peter
gedicht
trib
afdoen
##slid
beu
##ances
oppervlakte
paa
wasch
etat
andr
austr
126
fter
combin
behart
gevangenisstraf
##dic
omzet
geleerde
drukte
schuil
kapital
nachts
##oter
gebruikte
##lijst
regerings
##wijding
##acao
##kocht
getuigenis
rijkdom
##aem
gebroeders
bescherm
##sching
stalling
uitgebreide
treft
##iland
uitgezonderd
##tering
laar
buss
##bollen
almelo
lamp
##kap
##verklaring
monster
illustr
vertrekt
bestude
priv
sak
oprecht
scherpe
fou
zoudt
gebezigd
##nemende
midd
zol
beschad
##28
aanraking
dac
cham
##annes
##ish
rijp
voornoemde
parij
kommissie
pharm
deskundigen
adam
171
uitgest
pier
oppositie
riga
vlaanderen
orgel
lic
##geu
##29
praat
manschappen
opgaaf
wink
##erijen
vent
zur
velden
gepublic
rit
bark
##derland
bediende
erw
gevecht
##arten
glazen
2den
gehandeld
polit
##veau
zweden
huil
kalf
voorschrift
entree
zocht
119
ooren
centen
ontl
rubriek
georganiseerd
begreep
ontf
##orme
ontworpen
has
sprekers
deelde
andre
weigeren
##kamers
att
##zoon
wekelijk
uitwerking
venlo
##ertog
brink
##gezel
reede
bestuurders
##dor
mud
4°
##kent
##iae
botterdam
geworpen
dant
wur
##vuldige
haarlemmer
broer
berk
handhaving
afhankelijk
verme
verlangde
voorzeker
bladzijden
oppervlak
##inrichting
ry
omslag
contant
begroot
grondgebied
hass
##voorwaarden
brik
benoodigd
zeden
notre
boekh
onwaar
##mensch
##orum
normale
nagelaten
##po
145
gasten
gehecht
winters
opzigt
gehandhaafd
lem
waardigheid
getracht
vertrok
##sels
kron
thor
respect
merkt
##vliet
vc
genoot
but
agenda
##begrip
pui
laet
steeg
##afdeeling
vredes
oogenblikken
werkje
hebbe
voorbereid
key
doode
opgelegd
getoond
medic
##stemmen
hoff
hit
bestrijden
##cep
voorname
bundel
jf
schenken
##courant
##waarder
beveelt
absoluut
beviel
##molen
tonnen
##leving
sein
bii
aanstonds
##berichten
schutterij
groei
##kigen
berusten
##llllllll
pillen
dez
sonder
tijdig
aanged
123
##fect
##ifche
goes
##graven
gewend
turf
opzett
##amin
##ifl
revue
##iteld
##trokken
portugal
##ales
gebreken
loden
versterkt
verhoudingen
bekn
bewering
lodewijk
deels
##banken
##wn
##itas
gekr
##strijden
betaal
turken
gemeend
##oofden
##eker
gewenschte
knecht
##eres
##fst
##ida
ers
##ison
##eli
##oye
nederd
imm
onein
verheugen
1830
particulier
versterking
nieuwste
ergens
tijding
hervorming
exemplaar
aangeh
ingerigt
##alisatie
with
##naast
ondervinden
dut
bezuin
ordre
gediend
sterkte
afgesch
ontzag
##plein
concessie
drenthe
formul
wassen
departementen
aangeslagen
##stien
asp
##bs
drift
gescheiden
verbeterd
##shof
1849
##weten
##fn
zakken
kooplieden
mijlen
heffen
begunstig
smid
##digend
deta
verklaringen
oever
nier
reed
contre
radio
oph
compleet
vold
goddelijke
##ankt
##die
buis
opgew
kooper
langdurige
gereg
gorinchem
ess
vraagstukken
internationaal
geneigd
bemiddel
uden
appr
xi
##aert
vertelde
aankoop
veren
##ckt
luxemburg
##otie
##ript
omhoog
imper
##zijnen
##elijker
tijdperk
overvl
vogels
autre
akker
sprong
vijftien
##kort
manufa
##ipt
schitterende
reus
##mon
agt
zins
##derden
##gebleven
##45
flesch
kla
math
omw
##handeld
##roo
129
verweer
##verzekering
##verl
##oots
leon
ouds
huwelijks
rubber
bekwame
evenre
werkzaamheid
voorschot
##mannen
##abil
##atre
leidsche
vrol
##irt
##deloos
glans
peut
##etische
park
federatie
have
##velen
##lementen
standen
steenkolen
##elier
verba
sterken
##hoorn
aandeelhouders
joze
onl
voogd
dewijl
telegraf
begraven
teekeningen
weduwen
ingenieurs
vrie
fut
toeg
##oa
gevangenen
##iqu
betreuren
geillust
##ju
zachte
geregelde
gebre
uitmaken
pt
vloe
letten
natur
bruggen
##ban
geein
##iscus
##vatten
insgelijks
##wy
garnizoen
waan
droe
turn
cast
london
wiel
dwars
muren
131
moeders
onbew
franfche
ontstaat
armoede
##pes
##hc
##verij
mass
##uldigen
mest
oordeelen
erkende
hoogduit
tezamen
helen
datgene
##var
noorwegen
350
avont
weerstand
##digende
duc
corn
liberalen
rigting
examens
##winkel
debat
onderdanen
lossen
prospect
cad
bronnen
##inaire
gros
##cren
##uiging
simon
eon
eigenaardig
pligt
bunder
##gehouden
box
eigenaardige
inventaris
bragt
godsdienstig
##boer
bezicht
gearriveerd
soerabaija
##moeder
##eta
##eloosheid
schre
jesus
900
##begr
main
opmerken
bedrie
8°
versierd
reclame
##agtig
vangen
##schten
c°
vroed
verbrand
heffing
publicatie
greep
hierom
adsp
##itatie
behaald
goeds
trouwe
##ime
rap
verbeteringen
onmid
schatten
kleiner
register
russen
onderh
hengel
hoeveelheden
alexander
vertoond
1840
keerde
lieer
##olpen
figuren
bruik
##reerde
weid
##reding
##vend
##delyk
singel
hug
ville
goo
advert
timmerman
zwer
vooi
grieksche
##eri
bedekt
oot
##dacht
##pol
belooning
zoals
avoir
159
aftreden
kalver
##eman
##rice
hilleg
##vast
geruimen
fles
vsn
##oelde
haring
##31
hoogeschool
gord
aanger
gevierd
geantwoord
zoozeer
dividen
socialisme
##eegen
kostbare
geintim
zuilen
##oodigde
##adem
roede
##moed
##wedstrijden
gran
##ugden
##com
verlag
bataillon
strijk
diepen
innig
##fteld
zooverre
aanbieden
oproer
##hs
vree
gedichten
parys
aangebragt
oudere
patien
gebeurtenis
##olf
jacobus
toestel
mondeling
voorafgaande
monsters
belet
gall
koste
ode
##44
sme
gymnastiek
does
##fehen
spot
graad
event
##ffel
brachten
ontstond
treurig
waarneming
raap
liederen
bepaalden
aangelegd
##iod
sus
##nementen
##vrouwen
guer
gode
lun
bezetting
meu
adjud
ere
beenen
spaan
schand
pruissische
pla
gewesten
jagers
competitie
puis
meteen
scheppen
##ertijd
vondel
velde
mois
begrippen
bewegingen
gedekt
hoogstens
pink
voorloopige
##rr
##gien
##gemeld
##orte
jos
nuchter
uitgebracht
pruisen
hag
faillissement
sap
february
redding
anker
##tein
buitenl
##antes
fn
mir
##gangers
##ymp
##spers
mail
initiatief
zedelijk
auteur
teu
fregat
zeldzaam
organ
vernietigd
werktuigen
tle
vao
bin
regts
restaur
straffen
##ede
##abon
##ricten
schets
vloer
oversch
gepass
vot
boerderij
deput
steek
geheime
duren
lemand
hoever
apothekers
ongun
ny
##bos
ƒ6
##gi
heuvel
141
woest
verkoopdag
verdiensten
rober
verschillend
monarch
toutes
verwoest
konstantinopel
sterren
ink
opoff
##machine
##arn
nocht
tafels
oj
##ader
sign
vernietiging
sun
##achter
behuwd
##rijks
begaf
rook
bewustzijn
valsche
afwezigheid
protestantsche
capit
zelfstandig
veele
liepen
##pjes
aansch
##blijven
sleep
##unct
verliet
haas
##wicht
sij
##oeker
##attingen
cand
dewel
verdiend
##volk
##week
spraak
##34
##eti
liefd
##zette
##ometer
rijken
##raat
##even
hek
ao
##zonden
juf
##meel
##onnes
overwegen
151
cra
onvermijd
annon
##drukken
##genamen
uitgedrukt
nalatenschap
vul
##ohe
136
##kaart
beschouwt
basis
##ographie
grondslagen
spoed
klagen
gekleurde
##eerend
##bakker
doek
4000
duurde
ress
requi
gecomm
kostbaar
geduld
herder
amft
algem
deuren
roomsch
achttien
genezing
tam
##nek
fabr
matr
##oris
geheven
confl
avant
mare
verbind
uitnemend
param
hin
##allige
##bonden
snij
utrechtsche
front
volwassen
1890
modellen
beschikt
inh
##eir
krijg
##md
##aliteiten
##post
twist
onbet
##ieres
##dee
##iei
befl
trachtte
quelques
##weit
blijd
werf
standaard
nas
schild
voorstellingen
clubs
##voir
##gewoond
137
blijde
##vings
doods
demonstr
134
kruiden
gezamenlijke
tul
tellen
##sens
##yken
huisvrouw
voorzichtig
##stoestand
f2
##sma
##iam
eerstgenoemde
gedenk
ble
led
##geh
elementen
##velt
voerde
##stelden
overledene
voorziening
glimlach
prim
wyze
##elles
##zinnigen
##vergoeding
koninkrijk
eischeres
delf
##ru
##ftaande
##erse
112
opmaken
##ertje
omr
tet
vgl
king
verbruik
##osoph
pac
appellant
ingetrokken
dagelijksch
pp
ontvankelijk
maarde
##36
beoordeelen
iw
bena
modern
geldb
volkeren
bekleed
tegenstand
##aads
scheveningen
draad
mexico
rijtuigen
begel
helle
beij
169
##vt
cab
willi
##lj
##genoemden
import
vari
charles
##ington
##aakten
depeche
binnenl
##ima
waarborgen
##biljetten
roomsche
stichten
regul
##staf
banken
onderscheiding
##ises
##arkt
##eub
commies
onderstaande
supp
fouten
##eene
bekroond
aangesteld
vullen
onderzoekingen
kry
beweerd
kwij
##uif
gestaan
aandr
yer
billetten
seer
##eikt
verte
dig
ingeval
sort
wateren
##eeding
onafhankelijkheid
klonk
klaas
consequ
asch
zier
schepp
kandid
ruimen
duidelijke
eenigzins
onkosten
##honderd
huiden
##ips
bloembollen
hn
##eet
gezeten
bezorgen
bestellingen
##kennis
chol
##terd
gefl
##wekkende
kur
##37
##feld
labor
##uu
laur
opzigte
tax
##bouwd
##vei
##ingel
spoedigste
toelating
##eters
unif
##eeringen
##genootschap
equi
menschelijk
##mest
onuit
onteigen
bezoekers
##deelden
verzending
din
geeindigd
schaar
pakken
##wekkend
zied
critiek
##wissel
##gden
##groot
138
beleid
huisgezin
biggen
lekker
##werker
##pi
##rif
##wedstrijd
1898
##zon
voorgevallen
gekwet
vergele
opzichten
ijssel
ontbinding
##ilen
duurt
uitnoodiging
registratie
##pad
eek
openbaren
dooi
onderrigt
##ologisch
lon
oplevert
1845
gemakkelijker
coe
jongeren
olymp
overtreding
klei
dwingen
##often
bedienden
##ek
woont
##brengt
##rad
opende
aangetast
vastgestelde
loe
staatkunde
monde
##iren
bedacht
##aria
franeker
##vier
onth
uitvoeren
pacha
##gelezen
bijw
bewondering
##aking
148
vrijm
trokken
koster
moorden
##geschiedenis
verstrekken
turkije
##oli
##houten
aanmerkingen
opstel
ontevreden
giften
vernieuw
##burgwal
sollic
herhaling
##fab
schouders
vatbaar
##akking
##uring
groet
cy
##papier
saam
harder
gevl
verzuim
artic
besteden
rut
##agten
centrum
##emb
##vinden
bedden
befch
geweldige
aanstaanden
geenen
diplomatie
opzet
voir
schriftelijke
reine
engelen
verzoen
noorder
mur
##lend
zestig
##etto
voorle
bui
1846
##crs
##voren
baten
manufact
jagt
##kleur
mai
144
zoodoende
##vaard
bewogen
mah
##wor
tromp
hongar
toute
##uden
pae
schoonste
alinea
daa
curator
##steden
energie
laatstelijk
besprekingen
1899
wetgever
myne
moeilijke
naderen
theod
##way
bate
gerechts
vergeleken
##cou
##fabrieken
veroordeeling
boodschap
##ilt
##pon
ruil
duisternis
drinken
sjaars
gezinnen
deswege
154
aank
jozef
##wiel
bast
audien
tour
240
merkwaardige
##haus
##besteed
reactie
overhand
##osition
singap
aanbevelen
gewas
##oeij
##mn
temps
keizersgracht
bonden
verj
##ves
rd
helpt
constructie
gestegen
golf
archief
knaap
anal
##ford
patri
##vc
zestien
opkomst
toor
gedood
locomot
##unen
voormelde
dau
vervolging
##oefeningen
##weken
blijdschap
naarmate
##iand
verhoogen
lijken
krui
##arr
luik
opgevat
hau
fabrikanten
ziedaar
vielen
uitgaande
koppen
##fchap
hc
kot
onbesch
naaste
gewonen
lente
##verz
aanvoeren
moor
##38
straatweg
consum
martin
jaaren
##ract
specul
zeep
##uiker
rio
loterij
##iegel
wijken
##spanning
leefde
vande
scheidsrechter
mess
zorgvuldig
leve
kerkelijk
era
bordeaux
daarnaast
##zitting
##anna
zuivel
geveild
oet
1897
afbeeld
secretariaat
##ohol
vlammen
kastelein
##gaven
toegeven
seh
times
1880
zaten
##zijl
apostol
getiteld
ontzetten
kommandant
verkeert
bakkers
08
roch
materieel
verdriet
jusqu
##ery
##zui
sk
uitgestrekt
bijgewoond
##iques
deo
detach
omloop
caval
koningrijk
borne
##muz
##oorlog
overdreven
adresseren
lijsten
late
vervoegen
prom
beantwoording
##cle
##zang
haak
benoodigde
menige
grat
verkr
kardinaal
annex
person
##aient
meenden
literatuur
afmet
vinc
hartelijke
grondig
pest
wolf
gei
vrijwillige
socialistische
##ando
deli
bert
dantzig
ambts
##juich
voortdurende
verkiezen
boekverkooper
##pte
vra
schoenen
##niet
medelijden
nc
kermis
147
aankondiging
beschermen
aanh
aartsbissch
electr
##aribo
##giet
doorge
##tentie
##ogels
##meid
verdragen
luther
vanwege
##ijde
instructie
##rafen
minist
afdeelings
inte
jk
bezien
docht
ment
terugkeer
##igden
verordeningen
##dingen
wettig
ligging
beder
krist
mrs
werkende
146
diff
verwarring
geschut
cts
vergeet
belangrijkste
dos
wageningen
##terijen
gevestigde
saint
opgeven
##fie
passage
##etisch
juistheid
##lu
verleende
##straal
benoemde
stappen
1896
verzekerde
doele
bisschoppen
betaalde
##dcn
koorts
tijdschriften
##ookt
aangelegenheid
1841
ens
##elings
##sper
wapens
gebruikelijke
geneesmiddelen
##cond
vertegenwoordiging
getreden
aangemerkt
##sman
gehalte
sup
bure
onrechte
belijdenis
phot
vliegen
situ
dienstjaar
misdaad
parochie
verplichtingen
##personeel
##ellingen
toezending
beperking
verbe
pant
assoc
zic
afw
meid
welbe
##lok
aangekondigd
tie
metsel
ontmoeten
stierf
rechtstreeks
##39
##schouwing
##heyd
tegendeel
worst
bespe
zoomede
gevuld
sent
homm
##iteuren
toed
onged
abd
sand
##daagsche
rabb
ketel
verwonderen
kwade
##adeur
##ira
##eelt
##landsch
klank
##illet
1895
cz
italiaan
##bleem
veeleer
period
verontwaar
verkeeren
huishouding
aanteekeningen
machtig
##steenen
deelnemen
gedrukte
cet
##imenten
dienten
rivieren
herfst
##wagens
nederlander
##kwamen
voorhoede
aussi
ontdekking
##zigde
jaarvergadering
rue
laa
##ase
ontg
friesche
omgang
maalt
toevl
ondergesch
maatschappijen
tractaat
verzorging
durft
gepubliceerd
##ktie
gratie
trof
opz
zus
##bie
boon
vandaag
1882
##aangaande
##ifest
bezat
koopmans
##passen
##oin
weiden
ervaren
##bevel
balken
##orteurs
tuinen
kantoren
ftaat
got
1844
##amelijke
blikken
##gaard
knap
diefstal
nombre
werkte
nieuwsgier
jarigen
1843
gestraft
intelle
beleg
lud
gunste
##aya
geestes
smeer
historisch
jaarwedde
korting
wierp
gesm
onn
hechtenis
vervoerd
##huys
bereiden
newc
quant
rose
##jf
rum
##hond
1842
##wort
##serv
klerk
##jeh
venster
viol
##stemm
verloor
##elooze
06
instrument
##uille
klachten
##nacht
paramaribo
1893
verschijning
waartegen
##ierde
trouwen
maagd
regelmatig
uitgang
##elaars
##station
##iis
bedankt
geleerden
##yth
klinkt
onafhankelijk
prolet
opent
heems
technisch
##verkeer
kopen
voltooid
contact
his
##iiiiiiiiiiiiiiii
sac
singapore
leeg
mg
wetenschappelijk
gevaarlijke
##beurs
volhard
ling
eeno
springen
##itus
neef
recept
belooft
const
troep
##lon
tb
draag
pil
ijverig
verloopen
somber
dientengevolge
##hande
nae
vervaardigen
kleer
##betaald
8o
eem
##rant
voedings
font
dichters
stol
##dist
constitutie
opschrift
##ismus
peper
bedenkingen
##oeiend
verdedigd
geestelijkheid
nan
##quet
waarschuwing
onber
breuk
onnoodig
##schak
nodig
##opol
duivel
verzameld
bezoldiging
rector
##gezind
geladen
##iedingen
##aming
verwezenlijk
##oefde
voordeele
opgekomen
uitverk
voormalige
aarz
stilz
generale
pension
hospitaal
geholpen
huidige
waarden
##tegenwoordig
nomin
ye
verpleging
vervat
organen
dies
##vorst
inwoning
onverwacht
verwijt
verbaal
##mater
stop
gade
toebehooren
##roffen
akademie
1200
binden
plaatselijk
metalen
##artikelen
##kie
depuis
##digingen
laagste
agter
##halte
orle
gruw
km
ontdekken
solid
verjaar
##iert
eeu
vlot
gracht
uitgaaf
deurwaarder
geintimeerde
spiegels
platt
##angel
verne
##ftand
##teel
##zeggen
landbouwers
zweed
toenemende
verwiss
##egt
##vs
lectuur
zt
wolken
kritiek
roep
##ogn
nach
eerlang
erlangen
wonden
##cie
##tram
gerigt
landschap
voorstanders
versterken
eindigt
eigenaars
1881
oce
gevoelt
##lr
afgewezen
gerst
achting
##vorming
gelast
aaa
kunstenaars
constant
verbaas
geding
##kaarten
drukker
149
zuidelijke
ox
indisch
gevoelde
spijs
ongere
opb
grijpen
begunstigers
voorwaarts
strenge
viv
afleggen
ondergang
bezigtigen
reque
griekenland
prix
1891
stude
blanke
havan
quam
##ijten
redevoering
##denking
schilderij
##kenden
##uidend
noordelijke
zesde
##iefd
recon
##woude
schud
toezigt
misbruik
informatie
##ichte
maarschalk
07
lachen
landbouwer
herstelling
wilhelm
##oste
##rel
uitgaan
ross
##daags
officiele
couranten
besef
vordert
aangegaan
poezie
ontv
fabrieks
vooruitbetaling
spoedige
dividend
getuigschriften
boekhandelaren
hect
##oht
aankomen
uitgesteld
rf
ongegrond
##okr
vyf
inspanning
##oerden
alf
jud
nochtans
gewoond
aangevangen
etr
hoen
catech
vuil
opkomen
gaen
weelde
wett
dienaangaande
verlaging
sommen
##dertijd
##begrooting
beschaafde
balans
stbl
##geschapen
aaneen
pieters
##pension
##ragte
##iteits
ile
keuring
##wei
plaatsvervang
1885
##hooging
omgekeerd
afdoende
##cent
##leening
##schheid
##vcn
lander
verwachtingen
##ession
lastig
1894
##ocol
zwavel
moeijelijk
nogal
yoor
sleut
vas
overwinn
afgesloten
tegens
##itieve
wall
verplaatst
knoop
onderdeel
vlugt
herhalen
vliegt
neu
brouwers
zeiden
qualiteit
chez
drijf
faculte
dewelke
middelbaar
139
##erien
poel
##holm
huishoudelijke
bb
##xx
gej
doelen
gemat
##ptie
eventueele
schak
bepaaldelijk
cholera
225
omwent
represent
##moe
luisteren
alphen
keuren
bont
tun
aangedrongen
##igne
1886
bedreigd
gave
accijn
woud
staatsraad
1883
hebr
##oorde
vlieg
inwendige
##15
##offers
colon
##amm
uitgek
voortzetting
behandelde
122
wylen
##vaardig
diende
##uh
aangetroffen
duitschers
voorb
toegel
hoedanigheid
##osf
pf
opzettelijk
philips
beambten
jb
cele
salon
220
##gesl
install
##uchte
##bepaling
minift
dic
geesten
luy
trois
##endien
##werping
reglementen
##naire
toeval
laken
04
1892
gepasseerd
bladeren
##las
ede
gedenkt
vierk
reform
opgerigt
schouder
denzelven
termen
snelle
opvolger
bespr
##ache
moniteur
erwten
vroegen
fred
##xen
neiging
vecht
weide
manifest
beb
##ingh
scheiden
##productie
schoten
voornoemden
vander
mary
toevertrouwd
##oont
heerlijkheid
tarieven
hjj
##eerlijk
##uide
##gat
plac
##geslagen
jacobs
aardige
buik
vatten
sens
gemeentelijke
hoeven
geldersche
doorloopen
welgeschapen
bevolen
eine
inschrijvingen
##muziek
ongem
bondsbestuur
geregtshof
blank
lieu
omme
wg
##imm
daling
1838
maten
altaar
##amenten
noodzakelijke
##aadje
gemeenschappelijk
mejuf
ossen
##oover
hoeden
soph
##ules
schilders
##mant
##kerken
##ago
##itis
gronde
aannem
krim
dringt
genua
geschenk
##rand
hove
stralen
verzetten
ains
ontsl
diezelfde
twijfelen
##mijn
gemeenschappelijke
##uction
afwacht
aardrijks
voordeelig
##vaardigheid
conv
weigering
omvat
bewerk
conventie
stilzwij
gearrest
xxx
##tema
bab
cot
alph
postwissel
##ides
##minst
platte
bever
##airen
sor
##cin
leeraren
lr
compar
##nik
vroolijk
##kleed
##uum
tall
keizerin
lak
##becke
schadevergoeding
viool
##ieme
argument
quest
erfgenamen
opname
schadeloos
horst
dikwerf
aantrek
heerschte
verstandig
accijns
##velijk
##riks
theater
quick
##32
##cii
##uikt
194
cart
marseille
terugkeeren
fruit
waarnemen
verlegen
geloovigen
ez
aanbesteed
plein
grieven
hoeft
rek
staatsspoor
##kwartier
fabric
uitgevaar
leo
##moedigheid
assistent
woonde
liss
##bem
system
ijk
sloten
ongeloof
hoer
##kelingen
civiele
vaststellen
kwijt
##ilis
betuig
keus
wortel
keel
categ
nabur
weleer
studien
vervanging
zichtbaar
horiz
##cy
##asie
arri
wjj
nol
##uls
kanon
bevestiging
hak
schetsen
matig
##okk
verliest
##oces
alman
bernard
bewaring
onderteekend
goedheid
commission
terwyl
##vest
teleurstelling
trop
bosschen
##zenden
##oeft
respectie
##zt
nutt
antwoordt
1815
romeinsche
ryk
##gaand
werkgever
rien
opgesteld
factor
boonen
stellingen
andermaal
##geloopen
verhinderd
architect
##bezoek
bisdom
##ires
reflect
##char
ruy
##groep
##nr
lap
betu
1889
lijdt
gewapend
sid
gemeene
inlanders
drama
kippen
bevoor
aanspra
domeinen
soerabaja
grof
beschuldiging
vil
##behoe
##dek
jubile
fatsoenlijke
resolutie
klem
oven
mut
gezongen
##pligt
staken
uitgereikt
bemerk
##weeg
vreemdeling
tant
aftrek
geur
electric
begrafen
tevredenheid
allerminst
werkkring
hs
belasten
driet
gekleed
persoonlijkheid
##gevend
fav
210
450
hongarije
ait
geeven
##oone
##°r
feesten
beteken
loonsver
boekweit
##gehalte
uitzicht
##ografie
vertelt
##nood
bovenal
##wenden
evenzoo
gemerkt
overgelaten
bismar
constateeren
robert
vroom
##shalve
chineesche
binnengekomen
##zyn
##kinderen
##eeke
sardin
opd
zwaan
vendutie
##hous
##ijst
##ooo
alsook
zeiven
volksver
##ypt
##kast
republike
william
parad
##curs
wreed
purmer
alexand
atjeh
toegeschreven
bonte
baat
exper
gymnasium
doof
gereedschappen
##officieren
droge
##brab
mons
techniek
##ori
ontwikkelde
gat
finale
psalm
##wendig
handleiding
195
tong
verworven
portefe
##wich
remb
dagelijksche
##88
toenemen
broe
##spunt
hoogstraat
verdacht
bod
serge
aansprakelijk
afbeeldingen
stadt
##ieding
##voerder
nul
##alender
stijgen
woonachtig
eeuwigheid
putten
##gsten
##reeren
gesteund
vestiging
gelief
##stoel
dusverre
gepre
1887
aartsbisschop
onbed
aat
chine
origin
wettige
##icatie
tijdingen
samenleving
geloopen
aanwij
##bieden
semin
##etst
1837
gom
aangevuld
##aaff
vreest
cult
verteld
verbazing
kri
##bu
feestdagen
garantie
##aw
belanghebbende
bedoelingen
##ziener
verlaat
medewerken
aankl
poss
begaan
##cties
orth
##laag
blijvende
louter
from
ingrij
##pijn
stempel
stock
zendt
##eidingen
zwaard
##ible
broederschap
declar
finaal
##roepen
##etha
staart
##aldi
boed
dienende
##uiming
verjaardag
##elfa
dict
apo
greg
commisf
intellect
jury
speci
union
tic
groeien
bemiddeling
geregist
zyde
boezem
gemengd
vervl
proclam
welzijn
geweldig
ici
##aanden
md
voormeld
##own
kran
schulde
zeist
hollanders
##begins
raken
##ski
eigendommen
1839
##ity
##weder
tabel
koopt
1831
overheer
##sneden
adspir
rots
##ny
drang
vliet
##fj
##nest
oogmerk
##edie
groenten
collegie
##wetten
opgelost
offers
##eend
vm
##gebroken
##ischer
heemskerk
zierik
##iepen
##ijne
franciscus
zetel
##pell
ainsi
##ez
victoria
verscheidenheid
intrekking
reserv
koh
trekking
stroomen
droo
##spelen
verspreiden
bovengenoemd
goeder
##auer
##oper
ontvl
factoren
korf
##ieg
voegde
zoek
muzik
weerwil
adjudant
gist
sollicit
legers
##ragten
inw
wierden
geeerde
beschuldig
overwogen
carol
beloofde
##ika
##vv
dezelven
gebouwde
derzelve
wesen
##ganger
koken
##cont
wraak
voldoet
betaalt
geoordeeld
1939
franken
##gronden
beroemd
1888
beloofd
pd
bewerken
hartelijken
##cus
oproeping
heerenveen
##machines
caus
##iat
gezorgd
collecte
bir
##beste
5e
gewigtige
britt
athen
buy
onaangenaam
hog
eik
##wr
##idt
##grij
##ienne
voormiddag
wens
voorop
##illeerd
bedenken
wetgevende
##med
manufacturen
gevraagde
verdiep
propagand
hoogheid
soh
ftr
quar
##iller
derwaarts
alweer
matth
machtige
amerikaan
verwondering
onroer
hing
bekendmaking
ultimo
miner
prest
uittrek
vernietigen
##klaps
##ittel
bereik
gewond
eindigde
arbit
gewapende
beest
cin
paasch
eendracht
byzonder
groeten
leidde
##rigtingen
kers
flauw
geldelijke
letteren
##kal
aanbrengen
kru
vermeerderen
rer
beweerde
toepasselijk
gehaald
##wyl
francais
##wt
##zijdig
geschat
romant
diner
indire
vertoonde
plei
haare
overvloed
els
##77
##ijzen
lachte
##eekenen
sprekende
##gal
onbep
dum
ingew
onderhand
nest
verbre
audientie
memor
tuber
##geveen
##aamde
storten
indertijd
drog
apotheek
ontpl
smith
gis
lint
drink
ophel
vervolgen
1835
toespraak
##prins
jz
1834
kaar
##gesproken
hasselt
aanbieding
orders
##onom
hartstocht
schok
##66
onmisbaar
jongelieden
hadt
thorbecke
daaraanvolgende
oudheid
##pje
tegelijkertijd
kalverstraat
brave
loi
toegenomen
##steken
glorie
bolsw
##plaatste
beton
##tern
zendings
belangstellenden
genen
##alia
beker
##leu
major
##akk
##elij
goedkoope
##85
beweeg
eman
achtergrond
hieromtrent
innemen
deensche
leedwezen
auc
gebieden
##sta
stoot
missive
##iiig
##annie
behelst
anarch
##uba
zeel
vellen
behangen
aflossing
##wolde
combinatie
ieders
geertr
hemels
##iit
cathol
sullen
voi
extract
honor
uitspreken
##rouwen
wederz
porc
bismarck
puike
kantonrechter
privaat
##agie
##behoeften
##eere
langdurig
eensklaps
empl
##cnt
probleem
boekdruk
perk
schaap
kussen
male
ration
monte
geneeskundigen
bro
ontsn
verwijderen
##riel
bree
volstaan
hygien
arbeiden
policie
1884
##ineerde
##14
gelang
patienten
afgescheiden
##jour
##bewerkers
##ax
bibliothe
zaan
voors
add
eau
bs
laster
herinneringen
zittingen
rollen
##orting
verwerven
contin
noordbrab
orleans
##rol
zeerste
conclus
vlaard
goden
gezellig
laden
kampong
durf
##velden
gestort
rapporten
haard
heim
budget
beseffen
levensl
sde
gewassen
schreeuw
regement
ghel
hamb
verstaat
##ands
verantwoordelijk
bestuursleden
frisch
6000
meju
reiziger
naamlooze
grove
##leveringen
toeschouw
janssen
handelt
hengelo
prospectus
geschapen
gecommitt
doeleinden
smits
verbeterde
soit
komp
hugo
cursussen
bereids
##organisaties
##vere
grondbelasting
09
rijen
leem
dierbaar
##inst
velerlei
##alende
onderdeelen
##gg
haalde
gemeentebesturen
aanwezigheid
flaauw
##schc
##ydt
vergelijken
##oeijen
132
fluister
poolsche
goor
##vreem
solide
landgenooten
levendige
deman
stedelijke
##elijkste
salom
aangedaan
which
provision
gui
hope
treurige
verhandeling
gelukte
navolging
scheur
vernield
##oscoop
drietal
mie
ongeschikt
opst
zierikzee
toekomen
ooft
helmond
terugt
soude
opgeleverd
##wijd
spraken
dekking
zynen
harden
230
korter
droit
##zinnigheid
##keuren
blyven
aanbiedingen
australie
quart
valk
##bla
verrass
bekomm
garn
##ziening
poet
mast
##esen
leverde
far
geoorloofd
premier
japansche
volharding
drong
afkeer
nien
##ijdt
zuig
beperken
districten
percelen
##adoor
##uma
drukt
##oj
##vuur
1829
voorschreven
barm
aangehaalde
interessant
booten
diegenen
##zendingen
strafrecht
dagteekening
bereikte
spannen
##astle
##kert
wyn
werkplaats
##besluit
##65
##verbond
openbaring
bog
bittere
eei
innerlijke
tact
verderf
lerland
duitschen
##von
verdienste
lichamelijke
##sprekend
ongesteldheid
##ikkingen
##bloed
lampen
bj
beesten
##ctien
##inds
##ado
verzamelen
1828
ontbonden
##bedoelde
dochters
##inkt
keizerlijke
inhoudende
polak
sterkste
bijstand
voortduring
opvattingen
opinie
schijnbaar
bruid
heerengracht
buren
##oting
blom
##overeenkomst
aangeduid
wijders
onwille
paal
zorgt
chron
uith
afmetingen
tir
blind
##middags
##vloeden
kleederen
begun
maatstaf
eyn
kart
behandelt
##jectie
heures
briefjes
##redenen
portretten
fasc
##aalen
nederduit
ftad
overwegingen
stammen
##plan
mantel
##iseur
object
lm
##draad
kath
wijzigen
##hartigheid
vrydag
chir
##gering
gever
##etal
klacht
nab
##dens
noodlot
britsch
##genaamd
otto
##nee
nagaan
royal
syndic
raadhuis
valken
vergift
instemming
##oene
wash
incl
hommes
1833
gebreke
golven
##ifie
national
dansen
merkte
##uken
jours
ambass
rhijn
133
##eesd
partie
antonius
verbeelding
##diende
gon
daniel
cla
place
aanleggen
schout
##lings
##verwanten
woonhuis
schry
bey
ala
jaarg
definitief
geweeft
xii
najaar
hoc
joo
dienaar
##eepen
##74
belle
ijn
arist
overwinnen
sue
kindje
##icit
##rl
merrie
fat
##veu
aer
verbazen
plegen
##fil
##rekkingen
heft
##vels
flesschen
##wind
##vrijheid
enthous
##producten
litt
gelijktijdig
zeitung
##onding
##paard
meyer
cohen
bedoelt
dennen
##gei
##deden
ali
atte
gerechtshof
##fon
consider
bolsward
europeanen
onmiddelijk
gend
##agr
equip
vernam
item
##etr
gewichtige
##aac
karei
verklaar
verspreiding
troupen
##afl
kolom
eii
nur
geei
##begeer
kameraad
vur
brugge
breder
hagen
vinger
hertogdom
begrijp
eleg
kabin
borneo
##stok
begrafenis
inspectie
eischers
##geroepen
heldere
##duur
schem
##bedrijven
nakom
##hy
##79
beproefd
##bepalingen
##heele
achterwege
heette
garib
011
leugen
rekeningen
ade
bereiding
gezellen
heus
zinnen
overgebracht
beteekenen
air
fu
visschers
platteland
seb
briefje
premien
koep
##enta
zijl
##neu
vergroot
decor
liefhebbers
##iende
##vigheid
ora
geconstat
ecr
ineens
aken
scheid
weggenomen
##gten
dertien
##ziekten
suite
##nissen
gelukken
##ziet
duy
verhaalt
##kol
grootheid
socialisten
kees
##neem
vingers
##dagog
ferd
##gsel
pomp
diss
schelde
onmiddellijke
##gebruik
hillegom
eeredienst
arbeidersbeweging
ceux
ledental
advertent
##ards
zoete
cornelia
stoet
vacature
kaa
ramen
toorn
onbil
voeden
##bad
##heel
dram
speler
afgezien
commissien
schimmel
dekker
ej
##aauwe
ressort
##paarden
achtereenvolgens
aangevallen
gekn
trakt
lichaams
floren
oa
##immerd
##entien
wijten
toekomstige
continu
wl
beval
magn
bommel
overde
godgel
zeventig
uitgevaardigd
overschot
athl
generaals
weinigen
dekken
geft
philosoph
toewijding
jak
deezen
siet
##vcr
klokken
overwonnen
db
ziin
##odox
dorps
##ables
##ensie
leggende
##mont
aai
##scb
abonnementsprijs
emmer
vaat
doordien
##uzalem
##rier
##eilen
##nl
lederen
affaires
kuiper
champ
##bourg
tier
##enden
resider
herkozen
koningen
adjunct
##ala
##diensten
toevallig
##16
vlaardingen
##zu
ongevallen
toebehoorende
meulen
poot
onderricht
anderzijds
alhoe
toegewezen
behoorden
perman
lnd
verhoog
##vormen
ongunstige
aanschouw
##geling
uitgetrokken
apostel
dollars
herinnerd
veroorzaken
depeches
mannelijke
205
##diep
##endre
leip
##atus
schande
vurig
1836
aandrang
roet
negot
leop
james
blanken
##ijzer
##keurde
protestanten
##itre
##qn
voortzetten
banket
certificaten
text
raadsel
standplaats
rhe
##duizen
##huize
##doek
vermijden
##sf
gespannen
emp
indeeling
adriaan
boet
zeeuwsche
bijgedragen
pius
voot
##18
crit
ruimer
##aler
alhoewel
##aft
grijze
zodan
volgden
##iels
beloven
auteurs
##ckel
onvermijdelijk
fier
verheffen
garen
##klaar
raming
argumenten
evenveel
verhuur
droomen
##etters
##mot
##diger
moham
jeruzalem
verpleeg
stout
voorlichting
commande
deugden
##voetsluis
ontbrak
nord
gecomb
bliksem
##sendaal
##skracht
konde
##voeringen
verkn
ƒ7
jal
drukpers
bemin
mededing
margaretha
soir
bergh
aangevraagd
risico
gemakken
verschaft
opstellen
dln
vlas
##braak
##resp
##icum
##uard
materialen
bijval
##eefde
myst
goedvinden
##centen
##isl
##mene
##planten
poster
##usse
xiii
##ssa
waken
tegenstander
ontmoeting
##berts
voorgekomen
##plic
##brood
opbouw
afgeleverd
##intje
fau
##scbe
one
rees
havre
bende
konnen
aangaan
binnenkort
##polder
monument
winschoten
##woningen
kass
pensioenen
vaster
##vragen
vrijmetsel
1832
instrumenten
planken
steunt
##aale
##regten
burgerschool
allengs
stelden
residerende
blijf
##inf
behaalde
prettig
luxe
marsch
gezindheid
##ws
##ingo
zigt
boekhandelaars
zinn
observ
##wig
eth
gepension
edelen
##oute
perm
spl
bestonden
financieel
##ward
troupes
noordbrabant
comte
feu
wezenlijk
##lng
##elk
##aj
##psen
jagen
##voorbeeld
keurige
uitgebragt
profit
##makende
##flag
parijsche
schepping
inbegrip
bureaux
lans
ast
kerkhof
260
washington
pin
uber
##arium
beveil
##liefde
veem
##sbe
sparta
gemengde
jeugdigen
##ipper
hypothe
kasten
##drecht
overgebleven
bezuiniging
kenbaar
##begeerte
##utien
fabrikant
innige
lom
##vriend
##ueerd
##quel
dres
hann
inboedel
uniform
bevredigend
slui
momen
dronken
welis
keert
seg
##ila
bestemde
gelegenheden
##eei
tuig
linde
aangehouden
##sse
heerschappij
##schau
magazijnen
doops
##uth
##adigden
##bericht
##kin
stieren
lissabon
trappen
eend
verze
gewaarde
notitie
ondernomen
verminderde
betrouw
##imes
hoopte
##gemaakte
activiteit
##ilia
##wyk
ondersteunen
##ffers
aanschouwen
telde
6e
jongere
yn
##any
##car
getuigt
bijwonen
waart
teregt
hers
aanbevelend
woede
geneeskundig
beijer
occ
indig
3den
verou
hofstede
giet
evenwicht
geneve
opeens
wu
kolommen
heefc
##84
##ris
deken
solo
concord
##endijk
voeder
ecl
##istieke
hst
guerre
verbaasd
onwillekeurig
bestuurder
weliswaar
depots
stevig
lauw
voeg
steenwijk
doetinchem
##grepen
##elfs
witten
voorgenomen
aardewerk
##burgh
lib
geregistreerd
##buiten
beginne
vermeldt
lichamen
tyding
##oogst
##iessen
schreven
toil
uitstel
garibaldi
##aise
onher
naged
verhoogde
behoefde
inzending
##jd
alm
##ftallen
##renten
og
vervalt
sau
triom
reorganisatie
geschoten
brielle
uiten
##geboren
##lg
deer
stuivers
gevolgt
controleur
convent
antw
verschuldigde
zalf
1814
##meis
woerden
nadeelig
prijshoudend
##aamt
vereenigings
afwijking
uitdrukkingen
chambre
wachtte
##dera
interessante
d°
vooruitzicht
stadhuis
##oering
##hertog
donner
gunstiger
##99
dyn
geleidelijk
presen
regenten
##veling
##kema
luide
wm
nouveau
naburige
spits
grondw
aannemer
scb
flac
##wand
eigenaren
oord
alda
album
##ankelijk
opmerkelijk
verkozen
geldboete
fem
kome
1827
##beh
vaderlandsche
bekwamen
handelwijze
uiteenzetting
##uweelen
##cd
##aadt
kerkv
aanbid
beftaande
toelaat
gross
##elli
bewuste
voorkoming
menigeen
laf
onpartij
leerde
campagne
betwijf
##hage
souverein
##isel
traag
##ty
paters
enorme
bekennen
zuidholland
compr
bijvoorbeeld
waters
beproeven
##nent
kansen
142
newcastle
##standigheden
##vk
motto
gedeputeerden
##oeds
kansel
werpt
weldadigheid
theol
##hj
congreg
ketting
ophe
woel
kir
nederlands
##ogens
##76
##ingenieur
##ero
this
##aers
alcohol
handwerk
jene
stik
##ical
##uisterd
finantie
advis
mijl
bedienen
begrijpelijk
##keken
lomb
postze
##derdijk
gearresteerd
aanftaande
##ting
fterk
bare
##penningen
##eckt
##tl
leipzig
143
orthodox
afgest
dierbare
##illende
##oonstelling
aanvaarding
misbr
##gselen
doot
stijging
gemakkelijke
visscherij
vergen
treinen
zelfstandigheid
##veil
verdiende
##liggende
krom
belgen
sacrament
ingewacht
conflict
proza
##gragt
zuy
onttrekken
##erce
boyen
bussum
##yse
categorie
aja
ziekenhuis
gedaald
cours
##ola
##bis
wethouder
driemaal
plaatst
kramer
wandeling
diet
laboratorium
verplaats
inziens
tiet
##oert
mechan
##eelen
noodigen
opgevoerd
kazer
bestr
gestren
vertegenwoordigen
omwenteling
winkelier
overeenkomsten
moins
schroef
##nummer
florence
varken
vloed
heerschende
overste
##ielden
##platen
leveranc
curacao
zalen
percentage
##reking
rechters
rende
sassen
rigten
minne
nogt
omschrijving
halfjaar
geheimen
hoorden
dreigt
##enties
melod
aanwijzen
landdag
toeslag
##pa
uitgemaakt
##orf
hoofdonderwijzer
4den
griffie
##logen
pendant
schenen
hoeverre
toewijzing
kader
trip
plichten
vyand
maandblad
hongaar
helena
##cultuur
##oept
misver
cf
alli
fatsoenlijk
weel
dankbet
deskundige
enfin
dringende
meij
leopold
kiel
compagn
netto
hoogeveen
##aau
onverwijl
neven
slagt
neutrale
voorst
spijk
formaat
##ball
markten
bewoord
##vergaderingen
noten
##cbe
student
gemist
oneindig
##dematen
doorgaans
wim
joannes
waardige
vertra
stukjes
opeen
omn
natien
verrassen
aangr
wissels
gloed
##ributie
weigerde
hant
ploegen
wekt
ongeval
villa
meubel
glan
vrijstelling
portefeuille
francis
eers
mae
##lers
contracten
##asser
##rediet
overtr
versp
##handelaar
doit
celle
##huur
gebogen
##celen
jant
vanuit
kleeren
##uge
##sj
##apening
allo
kook
uitzonderingen
750
begeerte
soerabaya
pekel
##rente
##ato
getale
synag
vergader
##55
jonker
gestoken
centi
etablissement
waarnemingen
adr
ongelukken
ghen
schoorsteen
##groote
toestellen
##for
executie
##splein
ziens
##bergte
##glas
daarboven
##rait
afdeling
gregor
landerijen
##schrijver
verdachte
##onders
onf
frs
mozes
geenerlei
haalt
##crt
ondersteund
##issance
vig
##lor
minuut
divisie
voorhoofd
##midt
geillustreerd
##visch
ontleenen
##artikel
geconstateerd
brill
scheepsbouw
gemeentewet
##brandt
##strij
modder
##rir
verblijden
spring
kwalijk
##gelen
communie
mejufvrouw
noordwijk
schouten
verstr
sab
eska
afschuw
##wachter
principe
veendam
opperbevel
##19
gedurig
rampen
schuit
afwezig
##genden
desen
ruiter
rub
menigmaal
ara
tons
buff
palen
voortgang
##gas
amm
dienstbode
voortreffelijk
##atum
decreet
winkels
nuchtere
batal
##gevangen
wird
##baard
uk
fit
heur
nouvelle
omvatten
##biljet
comptoire
##ipel
##erenden
aanvangen
##terrein
bevatte
veranderde
meege
terreinen
opget
gestel
kate
##spreken
vernieuwing
wijsbegeerte
nde
vervoeren
patient
##osa
##ynt
koester
##ctief
##du
vervolgde
toeber
dorst
##ariteit
machtiging
ontbl
beplant
vermoord
opgesloten
onweer
wandel
gn
aanbouw
munchen
overgelegd
reuzen
beperkte
vrachten
pris
woeden
vereerd
amen
ziele
##mend
afwachting
vreemden
donderdags
zwaren
##erend
eerften
minderheid
gezw
##houwer
##oekende
raakt
##78
ongelijk
scherm
stijf
buitenzorg
##ietje
##eme
afbeelding
moeilijkheid
##fo
vereischten
foo
argent
verste
eerstdaags
wert
juris
cens
suis
hardnek
vrome
zuin
onderafdeeling
bevoegde
vermogens
##sprong
jongelingen
ajax
gedrongen
280
##bbel
akten
schikking
cav
stip
##rap
verkreeg
1824
##rechters
##bier
betoond
mees
##64
brazilie
##aatsen
groninger
##ark
bell
uitsluiting
##mol
a°
nederlandse
##drukkerij
voorrecht
nun
##indingen
wond
##uj
berl
azie
beloften
2o
gevoelig
##quete
gezigt
abonne
##ight
maaltijd
##steling
overlegging
banen
bedongen
elles
##ali
venetie
aud
##acc
kapitalisme
voortgaan
rj
uitbetaald
onafgebroken
rechterlijke
went
sergeant
tok
##geregt
verontwaardiging
geheugen
gust
wijsgeer
aankon
##esl
dreef
cell
woords
tm
nieuwsblad
booze
schend
aanhangig
kampioenschap
overstroom
##ijft
##iton
vallende
magere
postkantoor
##quer
ongerust
##arische
schonk
oceaan
crediteuren
lii
havana
##honden
harmon
prenten
mam
spect
article
soortgelijke
aanhangers
verwitt
##schoenen
##bat
##ijp
rab
kleinste
omring
##aph
blaauw
ecn
##alings
donne
geneeskunde
##ienden
schooner
##cq
dass
verbin
##ieft
ijdel
verwaarloos
##laging
##gan
##vrije
##aaten
pauze
zeldzame
##geerd
registers
##uta
german
##iana
##soort
inkt
gasthuis
europesche
##urger
magistr
bewoordingen
rud
ministeriele
ert
nature
volksvertegenwoordig
inse
v°
##71
ouderen
overgebragt
##oedt
smak
beheerscht
##ijver
b°
extraord
wd
xiv
commen
houts
jufvrouw
bein
270
deelname
##horn
voortreffelijke
valsch
dcc
##allie
##rop
munten
balt
1813
bemanning
voc
##lief
boden
##inand
##cur
opmerkzaam
1825
bremen
jd
georganiseerde
soep
nel
naai
somtijds
##hebbende
corpor
aangezicht
##delooze
uien
vermeen
voorbijgaan
regimenten
koloniaal
meede
auch
maurits
beroeps
hok
##meijer
hoegenaamd
bezichtigen
slaaf
vj
pit
##nk
slaver
volst
geneesmiddel
betrof
aangekocht
onse
zonderlinge
lammeren
geschiktheid
215
frag
applaus
doordringen
bedanken
afgebroken
verkrijgt
bedorven
aantrekkelijk
wederzijd
verwerping
plaatsruimte
dekens
zun
verklaarden
triest
##drukking
mijns
##61
##eerdheid
heusch
erop
concept
list
jm
03
##sleer
oprigting
tut
quo
##kruis
canada
burgerlijken
voordoen
westkust
bres
##cert
7den
##ones
eerstvolgende
geschilderd
##scheiding
##94
voldoend
##iteerd
prinsengracht
vill
toelaten
##ommissie
##anie
##quid
##ohn
jaer
reparatie
10l
gean
tabaks
districts
quit
ongen
getallen
latijnsche
kiesrecht
rb
good
kna
rade
toenmal
dernier
staet
##hm
zaligheid
rechtspraak
##ooiing
aante
lijders
sien
##holt
rekent
pleit
##cf
waardeeren
heemstede
zuiderzee
##doel
zeventien
##geeren
intens
dwaling
voordrachten
aber
handboek
##wekken
##uks
##ifs
scl
gewis
tweetal
arbeidersklasse
egypt
uitspraken
middelbare
tegenspraak
stoffelijke
hervat
vriendelijke
eenstemm
naald
##illons
telken
uitgifte
##ative
boeten
toegelicht
soet
stapel
vloeist
gemelden
gewaagd
okt
##houw
##chel
##ives
ondernemers
prooi
officiers
olde
billijkheid
jubileum
##bertus
prel
##aards
frissche
detachement
beklagen
betreur
behalen
gewijzigde
beschrijven
kong
vergezel
eenpar
##ielde
opgewonden
##gezond
aangeb
doelmatig
organiseeren
##sy
aandui
##werkte
##broeders
hoef
wandelen
##ney
opcenten
hm
majefteit
londensche
slu
prikk
##kruid
verwonderd
f3
velt
thiers
zinsnede
bedrage
beoefening
##werd
tiende
kraam
letterkundige
lennep
occu
opstandelingen
ondertr
bijeenkomsten
pannen
dusdan
opium
##aarn
necess
gedaante
##umer
jodendom
maxim
poos
onover
##ievende
drukke
democratie
afgeschaft
volh
cade
jenever
##centr
##gezinde
hii
##aardig
landelijke
sti
exerc
lettre
tehuis
##gereed
brom
waarnaar
kloppen
##naam
mobil
netjes
reuk
daarheen
550
##ivier
interest
plaatsje
ion
koeijen
wielen
##artsen
##been
onheil
##atieven
enge
lyn
##iw
afleveringen
##dement
plaatste
waak
vall
donau
ondernemen
##ummer
##ctions
sden
tachtig
kreet
##dea
hiertegen
##81
##hangt
##cijfer
dij
proced
wank
aam
##huishoud
groothertog
voorval
gekleurd
##lijnen
verlos
iri
lies
afgeleid
neger
##spannen
visie
commerc
treffend
2500
kapitale
verschrikkelijk
demonstratie
hooiland
luidde
copie
lj
lb
##gebouwen
ijl
onderwijzeres
##male
overg
winn
proble
zwar
onzekerheid
faculteit
abt
mercur
orn
ordin
afgenomen
ron
voorgelezen
cooperatieve
kroniek
teeder
bewyzen
herinner
beein
geuit
tusfehen
vleugel
versa
##mit
mein
afgekeurd
kweekschool
##delijke
##atur
mui
uitlegging
gens
pierre
verbeeld
verbindt
opwek
##andeerd
gewr
meters
kopenhagen
kos
inleg
##rae
promot
geoefend
lettres
##swaardig
##zitter
##spart
durch
gevende
##koor
##frank
##schuwd
pun
##stil
gezanten
gedist
##oring
muzijk
##belangen
motieven
bestekken
gewild
02
weert
rekenschap
vooraan
braband
locomotief
verzoekschrift
kortom
voorstelt
ok
reun
oostersche
respectievelijk
rv
##zettingen
soliede
jv
maassluis
attent
gecons
gestalte
werkplaatsen
##uurde
noem
##rabb
##sler
doelpunt
leuven
onwet
weerkl
##xt
geldende
dranken
algemene
##spec
##oeiing
kempen
##ouders
##uidende
strik
##ree
llo
iie
retour
apostelen
##straten
vruchtbaar
bedrog
huurprijs
##beschouwing
uitvinding
theologie
##gename
fluit
##paal
lal
praktische
##hil
convers
berlin
vertrouwd
onverw
verdienstelijk
bladzijde
machinist
maandags
spoel
##umin
tint
##oedigen
##igtal
duidelijker
toegezegd
##pent
aangem
gedaen
sleutel
pleid
pei
frankryk
##sloot
kade
##elding
deelgenomen
beklem
vork
edam
schoonhoven
##az
mosk
##arde
arnold
©en
letterlijk
katoenen
gegadigden
uiteengezet
##mijnen
vergaderd
jacoba
wanhoop
hitte
152
##ape
vun
vierden
ontnomen
##ftaan
aangehaald
##eleden
##ogne
verhinderen
beschuldigd
struik
dul
temeer
hendriks
ontbij
arend
uiet
##nc
vincent
louise
lyon
breng
fj
##gener
##ferentie
##oege
vergoed
1822
overeengekomen
engels
##jourd
##like
arbeidsvoorwaarden
eden
##moedige
recu
haastig
alleszins
##lui
dachten
beschadigd
uitgeput
isten
vuren
##huyzen
inteekening
celui
nage
plechtige
aanwijzingen
153
quelque
##ela
stuit
hulst
sfeer
geleegen
##daden
manieren
##ky
cd
uitgekeerd
schadeloosstelling
degelijke
wonderen
beider
angel
bekendheid
uns
verbitter
conseil
afzet
chirurg
##seig
harderwijk
gunstigen
##ereel
gld
##ossingen
zegev
tuss
kenmerk
##86
bezigheden
dozijn
gevat
xl
mejuffrouw
artsen
nort
##rust
##springen
terre
vlaggen
##iil
##willig
xvi
heiland
aanmoedig
##derl
nale
##ooch
graden
baarn
kav
##72
gehoorzaamheid
##beck
ferm
bestrij
films
middeleeuwen
##jours
overh
1ste
behui
abonnementen
##ungs
##oomd
pav
bestel
ks
iq
kerkbestuur
##hooren
lokalen
ongelukkigen
suppl
##boonen
capac
aantre
##igs
##stemd
bijvoeging
interpell
##elike
##lende
mille
##dels
##ades
ign
##bels
3o
franse
stoomvaart
##pak
verdubb
buen
##fabrik
oprichten
waarheen
fte
##ely
gecont
procent
feb
weem
spui
hollander
##bestaan
maaken
praag
absolute
##hes
concer
wenken
baard
##dw
cul
cii
vaderen
luidende
omgeven
zvn
penn
275
gravin
##asf
hiermee
##maak
law
verwerkt
abonn
heerlen
democratische
ew
utr
##jan
accoord
##iog
requirant
invoerrechten
essen
eskader
gebrs
huizing
##iot
junior
zink
cie
cortes
vergund
misdrijf
meerendeel
##koning
##kwee
beleven
simons
##12
premiere
##boe
gekop
meeningen
welte
hartog
bleken
invoeren
vakvereeniging
volgorde
##vie
opvoed
##iin
##usen
staatsbegrooting
voortbrengselen
mw
krant
krankzinnigen
aanwenden
oss
gewaarschuwd
gouds
uitgegaan
##menschen
##clien
gereden
onverwijld
onbelang
##atiek
aujourd
##ope
bevelhebber
overlaten
##omstandigheden
##cum
vroege
colleges
georg
tegenpartij
vakvereenigingen
hoofdingenieur
##iri
wenk
zyner
opgetreden
heren
##igratie
compon
humor
comment
##vaer
##verbl
willekeur
##lied
wess
geleide
missionarissen
wolters
aanhe
rm
ontkomen
conditie
##orgt
zind
geallie
rijswijk
schoolop
ite
verwijzen
##cks
pharmac
voorbereiden
##park
deg
avonden
oir
veelvuldig
kee
##kerke
enkhuizen
boomgaard
brandt
goddelijk
verkrijging
oder
jg
##iseerd
##itische
##berger
kelders
##rd
vermag
wegge
saksen
revolutionaire
boekhouden
brakke
presiden
lanc
rassen
##beid
noteering
##deur
bedroegen
##deed
voltoo
apoth
smalle
##waer
bezetten
eisen
zooeven
##una
waag
afwachten
steekt
commerce
kusten
i3
##utten
schors
succ
##zijdige
afkeuring
aangevoerde
hoeken
schepper
preek
##yna
onverander
##wikkeling
brandende
lemmer
##oria
verwant
##half
##acte
afgestaan
bronzen
virg
bestelling
##54
tje
bioscoop
pom
trotsch
##lasten
termijnen
sneller
kalender
herders
hoogduitsch
##achel
##oudt
uiterlijke
advok
vreeselijk
##vant
introd
koos
lors
##iese
consumptie
bruil
##lte
##embre
##roep
##hartig
lagerhuis
middenstands
##kind
wantrouwen
oproep
motoren
lk
jor
prijsver
zelfstandige
kont
##plegen
hoogh
woordenboek
##rg
groeit
gs
grot
chocol
voy
bollen
bout
bijlage
nj
onteigening
prijsop
knoopen
betoogd
benaming
opgeruimd
aver
##skosten
pogen
onbegrij
##oeuv
ax
marmeren
opsch
162
grondstoffen
except
sparen
vlakte
##ylon
fabrikaat
handwerken
agr
voorzoover
toekenning
grootsche
nauwkeurige
kip
gedaagden
fair
advertenties
gedem
##achtigen
nalat
uitkeer
hedendaagsche
deja
##etta
fs
overname
##derende
slavernij
verrassing
hulpmiddelen
##uweel
##73
##atio
omver
##oons
aanneemt
##omst
##dse
almanak
bruyn
lelie
##cx
details
##ula
weil
leren
##gebrek
##schoots
##lens
verlenging
##arl
kroonprins
roof
beschouwde
##oii
##borgd
duiven
gans
##icip
##aadjes
verrijk
waarschuwen
henriet
##iken
##ondens
zwakheid
eerlijke
##89
aardsche
mooiste
ingaan
dienstboden
mult
rijksdag
uitgaat
meeting
bact
##bou
special
sit
boekjes
##kleeding
richard
vacant
verontsch
zegepr
tallooze
wiskunde
##cld
waterschap
1820
verwier
##materiaal
vreed
inzender
poorten
digt
ouvert
strafbaar
kes
toekomt
aanteekening
##uli
kwaliteiten
gedag
maison
gestaakt
conform
wn
waaromtrent
verhandeld
blinde
staaten
##uchtige
chemische
stett
trac
##ukten
kogel
actien
##bei
beroofd
kennel
afgekondigd
vruchteloos
aldaer
##gerd
amort
eiwit
adviseur
tussehen
card
verloste
kali
administratieve
##leider
autoriteit
##wes
##oder
fortuin
ogenblik
afwiss
##iker
vechten
##stap
##gelegenheid
bezwaarlijk
durfde
ruimschoots
geu
desnoo
officie
kundig
richtte
hoofdplaats
aardappel
ledenvergadering
##ret
pia
beantwoordt
klimaat
##matigheid
fy
recomm
##ios
staatsspoorwegen
sed
vui
##ieuze
rijwiel
##raan
##geois
burgerij
eren
##haar
redelijk
zadel
gelukwen
##groepen
paedagog
20sten
herinnerde
##umes
uic
##palen
uitgeschreven
##trad
strak
wii
tubercul
adviezen
ervaringen
onont
##69
wezenlijke
groe
algeheele
##gea
vriesland
werkst
geraamd
christiaan
academ
sind
atm
##ischers
ferdinand
##bloem
ari
parlementaire
voorzitterschap
##vesting
##fectie
##beur
saturdag
##inte
reval
draaien
toelage
laatfte
erd
liberaal
vryheid
waarachtig
canon
snijden
hd
vierkante
heidenen
verkw
overblijf
wele
ringen
8000
zienswijze
gemeub
toepassen
kruideniers
kett
onderwijzen
##zand
kau
##entia
235
wekelijks
mout
bons
##eeuwsche
elftallen
##pet
eenvoud
##adoors
##geering
uitgev
loh
ober
indigo
verwarming
instellen
bh
deren
veilcond
deftige
sitt
bened
belegd
hollo
##wendige
ryks
loting
opin
##ran
gekost
zevende
cic
gesteldheid
##almen
veroordeelde
moeielijk
voogden
inplaats
etats
dim
cos
##leger
liquid
chau
prepar
modernen
onderscheidt
getrouwe
##fent
eduard
##uwden
##responden
##ibon
eerstkomende
##ueel
bedaard
dunne
gestreden
##inx
huisgezinnen
kanonnen
##vlak
desnoods
##grav
woeste
dro
gier
welge
ziende
##stoom
betwist
bespeuren
##aaft
ontevredenheid
droevig
nemende
##stre
octr
320
plusieurs
jel
opzien
munster
uitgezeild
reclam
uitgeven
##niken
##eegt
bijvoeg
##uter
mk
zwitsersche
kim
micr
opengesteld
##tallen
##bedienden
slav
pruisische
##spoorweg
pluim
tramweg
misverstand
verplichte
aardrijkskunde
herdacht
inwendig
ontfangen
##ischt
##geval
##gewijze
mogendheid
grief
##ghe
inacht
visschen
kalfs
aantoonen
afwisseling
horizont
##rade
schrijfster
##ampen
besmett
eigenschap
toeschouwers
anno
##boekjes
##sa
##krans
ledik
bestanddeelen
##keit
traditie
geraff
winkeliers
##boog
tig
s°
##comp
##iag
vreesde
##ners
schatting
##ining
##agtigd
echtg
swart
##adv
klinken
bekeering
beoordeeld
##rer
litteratuur
toujours
##banden
##schut
##upp
##etiek
deputatie
##slijn
enquete
##leit
slachtoffers
##cript
human
buitendien
lijnolie
romans
buch
kalmte
tafereel
##houds
concurre
##kanaal
sprook
bovenstaand
hind
##osser
onbev
verkeers
proclamatie
##stralen
classis
privi
ontdekte
##cia
secretar
schor
control
presenteren
also
##ilj
6den
territ
uy
breiden
hoofds
ked
warmoes
##aende
omh
smeek
gebruikelijk
negers
##stende
huygens
burgemeesters
unter
##embang
vrijdags
##appij
cuba
beknopt
##13
she
hoofdstukken
ell
braaf
245
vai
bezield
zong
onderwijzeressen
##neveld
auguft
marx
hulponderwijzer
##trole
fche
##onderwijzers
verhoor
lob
stuurman
aura
voorzienigheid
welwillend
poeder
##achtenis
##itions
##ommer
gespaard
weren
navol
##ikker
wassenaar
##pacht
thes
nadert
schending
ioo
204
table
##teu
prijscourant
ale
betrekkelijke
##anaal
gewaarborgd
dy
##rj
onderteeken
ayant
indrukken
ingewikk
##uses
##aters
korpor
hechte
specialiteit
madame
bevestigt
conclude
216
lf
hebbeu
job
veldt
vennoot
##dende
beng
##eeswijk
paarde
plechtigheid
kilogram
kennisse
netten
pauselijke
staatsman
medewerkers
ingeleverd
avons
##blijk
koetshuis
verlossing
opgedaan
engelfche
armbestuur
##peter
uittreksel
28sten
gevers
hoede
plezier
##pakt
diepste
verdween
onderwerping
##norm
##treedt
##ooven
fried
bijblad
##cip
aanstelling
##iding
360
verlost
voordeelige
lede
depos
teruggekomen
knip
onst
voorzorg
praes
oordeelt
volbracht
uitmaakt
##drukte
boy
overbrengen
lle
##alin
ijm
kerkstraat
jp
geldleening
##iro
##dadig
hertogin
##kei
rechtsgel
voorfz
horlo
bej
##olt
##elijksche
##pret
materie
verbroken
ghes
matin
alger
verandert
##bc
ministre
zwarten
keyzer
##etz
boekhouder
##isp
brons
uitgestrekte
gekeerd
hnn
huisje
kerel
quod
ops
natuurkunde
##spol
ideeen
richtingen
geeischt
overschrij
tribune
raapolie
dot
schadelijk
cyl
##joe
wettelijk
geweren
##uits
##liche
achteren
liefdadigheid
gesneden
trouve
luitenants
rustige
##cns
collectieve
benoemingen
bevrijd
gebruiks
verzogt
houder
welwillendheid
ledig
negentien
koolzaad
weeshuis
##issaris
avontuur
vijandelijke
nm
##orno
##derijen
##schapen
breekt
camer
kapitalen
##handig
wijnen
vrijwilligers
##xamen
baz
wenschelijkheid
verbieden
1816
lisse
aet
nagedachtenis
gelijkheid
df
familien
uitrust
##ilien
gevolm
onophoud
broo
##zwer
pijp
bedreven
##clit
ondertrouwd
potten
##elve
koningsbergen
tag
problemen
trag
veemarkt
weltevreden
brie
zwaarte
verheerlijk
pagina
196
volge
zendeling
toegedaan
cob
##uidelijk
onderofficieren
##jaarden
##ocken
guar
besteding
correspondenten
198
demokr
honig
##kne
garniz
hele
verruk
geplaatste
oostelijke
gort
bakken
gewekt
°°
weener
bedoelen
vermeerderde
afwijzen
opneming
afval
casu
inlichting
1826
##pelen
bedrij
##chte
telegra
##udeerd
beminde
vruchtbare
veler
fie
##hur
zelfden
zeed
bullet
vergaderen
214
opgebragt
aanplant
goedkooper
papa
toejuich
oec
##velfa
##sporen
cerem
dankbetuiging
vonnissen
sop
vooren
kruid
##ogten
beroemden
melken
evol
##aagen
##cules
##brenging
zonn
boekjaar
kolff
172
repet
achterl
sterfte
geldmiddelen
traktaat
ergste
dagel
##pas
henry
##ksel
uitbar
pinkster
nommers
kofschip
kwaal
overzee
motief
211
gekoperd
##arum
##kondigde
verwekt
krachtiger
##gee
voordcelen
inkoop
trava
gezagvoerder
preten
gerechtigheid
matrozen
geliefden
##loopende
pion
tentoonstellingen
rijzen
f4
emma
vermaak
redevoeringen
beschrij
felle
pist
gemoederen
automob
verzoening
##bers
wanden
ministerieele
voormalig
heure
##reglement
kijkt
dix
schutters
recep
illustratie
niks
beverwijk
regterlijke
wilder
barkschip
afgezonden
bezi
##wl
afger
##cut
##stadt
woensdags
veeren
##issementen
assurantie
afnemen
doeltre
gegrepen
rac
matige
gab
omgezet
tegenovergestelde
##eleven
palembang
ietwat
jet
jol
geschenken
zuiveren
beschuldigde
173
cok
anthon
gesprekken
15den
wendde
beproe
##iim
schoener
##plakt
244
angstig
helling
heyl
schadelijke
##vangende
tooneelspel
vergeef
voorfch
persone
sturen
##irg
##lijck
roemen
wede
##ofoon
myster
##kret
##cijfers
onroerende
nogtans
##uurt
knieen
opzichter
betrekken
mier
stook
##beden
##cipl
verstandhouding
##ondt
witt
##kroon
##icien
rembrandt
wangen
titels
voortduren
##anisme
complete
brandstoffen
hir
##bek
##district
##hum
afkondiging
##96
kweekelingen
##bid
##hoofden
lien
visscher
veget
gibr
ontgaan
pk
##dd
geslachten
##osof
py
ort
wezens
evengoed
verdieping
brande
ruin
duss
four
gelegde
bondsvergadering
marquis
veracht
dikte
genoegzame
landver
schriften
geneesheeren
onderhav
diensttijd
zichzelven
aandringen
##lan
voorbehoud
buigen
kannen
1823
nijhoff
##gevolgd
berouw
##isk
##oix
bemerkt
gelost
##iig
achteruitgang
werkver
eenigerm
slachtoffer
tevoren
russisch
gena
onverschilligheid
##poneerd
landgoed
jubil
##tures
##venir
ves
overleggen
##zeld
gestichten
vertol
stadhouder
slager
verontr
telegrammen
bestuurslid
proeve
doct
wad
profeet
eij
tast
vermoeid
ordinaire
sebast
bran
zingt
bonn
penningen
nering
droegen
naauwelijks
lucas
radic
bezigen
tonen
teweeg
patronen
##sliefde
plen
onfeil
weergegeven
##atz
##lerie
zaden
##rien
##jc
troonrede
gees
1600
openbaart
##wielen
hey
rapporteurs
zwaarder
opwekking
##hevig
gedenken
afscheiding
##schrijft
zoveel
##peld
eeren
vreeselijke
ontbijt
hoogge
##oever
innerlijk
verant
kwak
bezigtigd
court
narc
hoeren
terugkomst
nadenken
hoofdkwartier
divers
schon
schouwspel
##zakken
synagoge
zwol
##pert
##rapt
eerbiedig
staand
208
kousen
archipel
textiel
lokken
meth
verget
veet
330
bilt
##ates
leenen
aanmelden
jut
cb
zaterdags
balk
##atte
zl
##gon
##otiv
##ulatie
neergelegd
evenredigheid
bijen
definitieve
##toren
volharden
##91
geldig
seront
bussen
onderhoor
##ersl
vierkant
schotland
beth
eit
vict
treffende
##zaakte
andries
reeder
##appel
sacramenten
mahon
onwetend
##mei
eert
voorzitters
voorafgegaan
toc
allerhande
blijspel
tea
heiligheid
plechtig
ego
monsieur
batig
perse
pryzen
doelmatige
aftreding
afkomst
##secret
you
##treding
inachtneming
##gevers
gehuwde
vlijt
capt
geborgen
##ices
##jang
224
klaver
weigert
ingeslagen
infl
purmerend
stein
weef
heelen
paradijs
##itaire
omge
daartegenover
desniet
gevorderde
bewonderen
##bewijs
amsterd
1817
philipp
baai
##vait
##ompte
verpligting
##makerij
kud
##wart
opperrabb
bourgeois
damp
horen
wordeu
##vogels
dwa
cooperatie
##93
gemeten
bit
vad
hj
mj
zoodanigen
##gaf
imperial
set
schn
homme
vrolijk
##sky
tas
##oedigd
6de
express
zolders
##eeker
omgaan
aansluiten
scharen
volstrekte
hie
felix
kaval
slee
uitstek
##kool
##crd
draai
mob
ziehier
221
rod
overgegeven
oneen
vooroor
##ffi
##gre
afstanden
onvolle
deliber
verbergen
lady
verwachtte
##aaide
ledere
ziels
##ugels
seine
lets
kabel
uitgeloofd
bedrogen
##zol
operatie
onschuldig
vendu
naarden
##onto
##jens
##ieure
bay
westzijde
kus
gewaardeerd
helm
besteld
dri
22sten
bav
kocht
##westen
noordholland
regeringen
ontvangers
uitvl
pleizier
##riere
schl
1819
ontkend
javasche
buenos
regens
concentr
vensters
##officier
praktisch
##gieter
hennep
verkooper
stemt
bereden
geleefd
voorganger
stallen
ijverige
##udie
aanhoudend
samuel
paste
arre
gepaste
nutte
schmidt
##adigd
winsten
blijvend
daan
veroordeelden
arriveerde
krygs
willende
brux
verkondigen
kerke
instand
chic
moede
execut
moederland
##regte
eenzelfde
lijke
##delings
courier
petit
kolle
warschau
cach
##steking
allicht
genegenheid
viering
beslissingen
effen
nadeelen
eel
mislukt
##vervoer
nim
gezondheids
mogelijkheden
leze
##zum
##raken
##92
begraaf
onvoorwaard
##so
7e
chineezen
wormer
toele
1818
beoef
verleent
##shuis
ginds
ove
##oera
verlaagd
debiet
milieu
schur
biljet
adresseeren
plun
wagner
stedelijk
##anl
##cons
gedet
##endaal
vreugd
centiaren
schuldeischers
vergeven
ouv
verzenden
installatie
weft
voerende
##gie
##gom
##schade
service
##cho
##gedeel
semarang
##uning
eenigermate
betreffen
##ighe
verreweg
tes
verft
vergaan
stryk
prent
wederzijdsche
onb
teelt
##obus
charl
27sten
jurid
gedoopt
hz
plaatjes
##fu
vlugge
##zyde
gg
lijdende
tob
##ambtenaren
##tentoonstelling
dronk
colum
ooo
cavalerie
markies
gant
approb
zalt
koesteren
teleurgesteld
201
meerendeels
gewacht
voorr
verhand
##bewust
verzekeringen
enen
##metho
noodlott
roelof
oostzee
zwal
gedeeltelijke
zomers
puin
eensgezind
nijk
habit
##landt
##quin
weiger
##ambte
pere
bonap
annee
bedenking
##alistische
bach
loff
##eft
tg
nieuwer
moedig
bewill
malei
referend
vereenvou
##ello
##coup
opzegging
rondvraag
gewoonten
zoons
gerang
verwerpen
gevolgde
cadix
boh
##geeven
republikein
our
tijt
verc
##ikten
206
##kk
bedenkt
##gewas
ain
vah
25sten
##cursus
##rach
##98
##ijkt
schutter
putte
insch
populair
vermak
##hjk
##ochte
klap
gerechtigd
atelier
lip
boxtel
huren
wederkeer
tulpen
voorburg
##onderzoek
pors
grootvader
datzelfde
spoort
middelpunt
martinus
moi
##altar
beheerschen
overzigt
toevoeging
biecht
mercurius
charge
medailles
vloek
310
##verblijf
inrigtingen
azijn
differ
francois
geschr
hellevoetsluis
desbet
rechtvaardigheid
getuigschrift
plegtigheid
symb
manoeuv
fchip
bezoekt
triomf
hengst
twijfelachtig
bemerkte
650
verlan
hernam
kraag
kenden
theoretische
koer
290
origine
##legie
schaffen
##lev
aest
##uchtig
fee
algiers
f5
verrigten
gete
255
23sten
##conde
onster
##well
dankt
wolff
##vormige
eenerzijds
volkenbond
mengsel
opvoering
tegenstrij
##iol
mang
##ificeerd
stoffelijk
graef
discussien
ongehuwd
##97
##doorn
325
1810
##gevingen
wetgevend
bovenste
##rood
##kans
binnenlandsch
theatre
beets
gravenh
marin
waai
noteert
##rijp
volmaakte
##rem
##onc
oevers
zedelijkheid
vereniging
verwezenlijking
schaam
maniere
dusseld
proletariaat
sang
bijzijn
loopbaan
hoeve
kommies
soest
talk
##rii
naauwkeurig
zoogenaamd
darm
qq
sv
f0
##lijks
torp
gilde
sabb
lith
##afte
iz
methoden
##ansche
##ijnsche
buyten
idealen
spelling
##ray
behang
huishoudster
zweedsche
geloofde
##roeping
##velingen
athene
##itsing
plantage
rundvee
toelagen
kunne
erin
holle
##ught
restaurant
delfzijl
##paste
bah
teekent
##kc
##enscht
hannover
vervult
japon
uitbre
##meisje
aankomende
eva
duiden
voorwen
boor
toezegging
question
overvloedig
ande
betw
##eegde
##dy
invloeden
forme
beschikbare
teken
ouverture
##alo
inboor
##bres
##not
##ouwde
opvallen
verlengd
gerezen
ontbloot
annonce
##phus
##sle
berekenen
actief
cheribon
nietig
bf
moogt
ued
aanl
vloeistof
volbrengen
marmer
staven
fantasie
voorburgwal
##rc
spier
##assar
merkbaar
wolk
lia
demande
##ograaf
##reinen
germ
sug
devant
##redingen
sout
voorra
afrikaansche
##peren
welcke
chap
##paar
legioen
force
moeien
seu
diacon
dwaasheid
265
redelijke
gebergte
##eterre
weldoort
##itaal
##swaardige
uitzigt
preven
uitwendige
smartelijk
allezins
harddra
menigvuldige
laad
westelijke
verzorgd
##det
ingestelde
heefl
##program
livorno
slechten
baad
six
##rukken
haarlemmermeer
##hove
veroordeelen
dragende
nv
willink
##83
##ooping
neemen
##vraagstuk
##sie
##ouse
geopper
deutsche
voorkwam
hap
vereenigt
neerland
optreedt
verkoopingen
krijgsraad
##main
pelg
bevreem
schul
traden
##chester
##doeken
9den
##zz
appellante
spreekwoord
kennismaking
vaand
bilderdijk
##yten
prefent
sittard
##oolen
stilzwijgen
flacon
vergissing
ning
dankbare
##burgers
beladen
age
brigade
behartigen
laren
lacht
duurder
schenkt
##immen
monarchie
onaangename
euvel
##orgens
domingo
uitvallen
##dire
bonne
##ount
holloway
daalde
indust
daarachter
postzegels
pakhuizen
handelaren
##pra
civiel
##lichen
stoombooten
##fpr
##dal
grenad
nationaliteit
diplomatieke
schreden
ankers
openings
onbruik
uitbrengen
luk
betekenis
##ido
voorste
##illig
hagel
fois
stormen
gezegend
togt
ost
##eelde
ther
eischeresse
provisie
##maga
vereering
##voorzitter
tegemoetkoming
ric
aangekondigde
##waart
sprekend
##wald
huwelijken
breedvoer
uitzien
stoomschepen
voege
roovers
##itr
alsnu
gezondheidstoestand
vervolgt
##ochem
vaarwater
concordia
kapitalistische
tuberculose
gekwetst
industrieele
##oma
##tendant
##ookte
pastor
speelden
##gewassen
eut
stemm
##koeken
gespr
##icisme
##yens
uitw
prog
eenden
overblijven
##heu
##cti
##scho
1807
##87
eliz
behagen
opgeleid
##grens
dieu
gibraltar
vaarwel
##zelen
schap
sterft
geringen
##verh
##broeder
omringd
dure
overledenen
##westie
amerikaansch
lion
voorschotten
##gemak
alder
onwett
bloeien
diale
gret
plaatsvervanger
barmhartigheid
##aven
dienaren
tienden
lv
gifteren
maats
verrast
theologische
nw
bedenkelijk
##soorten
##unst
buizen
pouvoir
##bibli
oon
koet
makkers
geschorst
athletiek
congregatie
huishoudelijk
accept
avan
##yns
spont
znl
##eik
aartsh
doort
hervormingen
veronderstellen
batterij
verman
ontnemen
schaden
situatie
##ycl
sober
werknemers
streep
handteekening
pakje
bezwaard
palmer
credit
lent
vlg
onlusten
wanhop
verdwijnt
##v2
oostzijde
woestijn
##elheid
joodsch
secretarissen
gewiss
##illing
np
weest
##eerenden
##kasten
gemaal
keizerrijk
voorraden
moes
faut
##lyks
##bezit
nieuwere
paren
verwijzing
onderhevig
verplaatsing
poly
vf
concess
heftig
optim
##ografen
gemoeds
vormde
leeken
calvin
bp
doorgebracht
##zc
heengaan
verblijven
##dl
onderhavige
##tende
inzet
geform
pitt
zeemagt
haye
##moord
##eind
kloosters
##bergh
##achen
doordrongen
quae
verni
milaan
##ftel
sardinie
knapen
340
canton
##sporing
overnemen
kenmerken
them
bvo
alida
##nit
america
polders
##uni
groning
americ
##inrichtingen
dtn
moll
geopenbaard
##ografische
peru
##vakken
intrede
toevlucht
puiss
afwijkingen
heusden
##lessen
bewerkstell
geres
##schaffen
schuurman
hemelsche
betreurd
##fum
him
##gelyk
##kies
stikstof
onregel
benade
acten
company
verstande
drijft
schipbreuk
pijpen
##sum
crimin
verdediger
##ucties
vestigt
eerde
dordt
provisioneel
torped
##afels
gebod
##can
24sten
onderrigting
##winst
hub
vastge
vertoeven
##enswaardig
gewag
dracht
ancien
##alement
##ormen
vient
karl
teen
barcel
loven
##gezinden
##63
cacao
##ße
##verdrag
gedele
gevoerde
##vlie
uitingen
##iast
bezorgdheid
emb
misbruiken
onzent
##tenant
verderen
hur
regl
huishouden
romeinen
naderhand
aansluit
##redacteur
##dele
uitz
##orteur
##ints
overm
##stroo
bedreiging
schutte
hyac
beaucoup
droogte
##geman
verfr
greid
kandidaat
##kringen
##gezette
##rick
most
arabieren
vergrooten
vergulde
meten
##cre
debatten
##alven
weesp
##rog
deser
monniken
ded
conna
##arisme
##bee
aanbiedt
stoppen
dokkum
toover
individueele
ingaande
holt
symph
henriette
212
favor
lijnzaad
##iking
geliefd
noodwendig
##gelingen
##schaal
##schend
##ced
vam
geduurd
material
vervaardiging
¦¦
storting
##zigten
##dicht
piem
gedeeld
##ents
kanalen
code
herdenking
aanhouden
waterstand
##spann
##ingent
scholten
ongeorganis
##ily
sollicitanten
gehele
##hoed
opgaan
verongel
aanduiding
verkoopt
prikkel
tempo
misdadig
verrigt
puik
zeevaart
voorstander
##iften
##rum
milli
rempl
##fig
285
missionaris
##ijding
##scheid
##vorden
porto
herwaarts
ontwikkelt
slij
staatkundig
positief
7de
tuigen
lod
verwarm
beme
gea
veroveren
egmond
coupon
welvaren
bureel
##arda
1798
giro
verhaald
gemagtigd
ecc
dresden
##fond
oran
laatstleden
##67
overwel
medische
##verorden
inschrijvings
bruiloft
parall
inzichten
commissies
meestbieden
tern
##singel
blokken
##ove
midder
inlander
hielp
cogn
procedure
##uij
vloog
12den
##waards
grootst
ingelicht
xvii
ys
meerderen
asse
aandoeningen
##hoogte
toilet
nagegaan
vertraging
##spartij
mama
beloond
second
bomb
##geve
##keeren
redenaar
liquidatie
##62
springt
wasschen
onafhankelijke
##■■
pam
##lucht
##lek
prediking
##srecht
gezonken
hangende
omliggende
##werktuigen
behulpzaam
permanente
##blin
##woud
207
veroordeelt
schaak
##begrepen
onttrokken
enorm
hamer
pijnlijk
ongeregeld
gaet
examin
wem
toom
##cteur
opw
sterling
kassen
nouvelles
angleterre
soerabaia
rekenkamer
roek
##vaardigd
sophia
fundam
##nijverheid
sex
promotie
passeeren
zodat
375
binn
##ziene
##phia
schar
theoretisch
##ckers
##jets
spijsver
tractement
##schland
##ofe
vaderlands
avondmaal
##iing
sekret
##uiting
lachend
203
abnorm
yder
lndie
##penn
nek
rea
##key
onderstand
liturg
ridders
vriendin
kapelaan
periodieke
##gane
noordelijk
christina
cela
bekrachtiging
welgevallen
##fok
byna
sod
tussch
vermeden
##ansen
rim
grondige
##opl
ruiters
city
slaagde
dienzelfden
##iyk
timmermans
presse
moeijelijkheden
##onna
##dems
esc
mau
geexam
date
cirkel
ongemeen
akel
gerangschikt
vaude
##bouwde
aangeven
elken
nf
kadastraal
citr
abb
vlaamsch
muts
cp
vredel
gestolen
vormden
blootgesteld
maai
##voeder
##besch
probeeren
metall
slooten
coch
more
beoefen
geheeten
ƒ9
jongelui
verdreven
onbewust
geiten
##ifch
##eerbie
genre
##aro
##loven
##iik
bewees
weldoen
##ya
onmogelijkheid
cramer
##bereiding
genoteerd
oii
pleidooi
histoire
cement
selve
bind
jongmensch
handschrift
gezantschap
##oeroe
wyk
kooplust
command
marg
veilingen
staatscourant
bekrachtigd
afgev
poll
fest
corr
##atius
leerboek
afgesneden
overgroote
veilconditien
sunderland
oorlogen
kub
antwerp
##ffl
gebas
toekomende
kazerne
##berge
halven
geduldig
##handelaren
aarden
##wending
sling
revolutionnaire
defensie
successie
##82
onzicht
bakkerij
hanover
##ijntje
passe
bch
schilderen
electriciteit
etaient
ontslaan
noe
alphab
geringer
terechtzitting
bedank
aƒ
boekverkoopers
gewonden
##vii
##viel
hellen
tei
doelpunten
verhuis
##nm
5°
behoudt
##prov
dollar
afslag
posterijen
accijnsen
##koe
instantie
ontber
inspecteurs
neutraliteit
oordc
##schop
klanken
brouwershaven
17den
bec
##dh
##fol
bloeiende
##stone
hes
weleerw
attentie
kaj
carg
ontel
hongaarsche
##ods
bemoei
takt
##eerste
holstein
##penning
##alite
voorden
bekoor
veroverd
##huysen
afhangen
oort
kiest
telling
medegedeelde
opperbevelhebber
traite
houw
negotiatie
beeren
234
gezellige
##rec
##bakkerij
telegraph
onophoudelijk
eenzaam
raadplegen
landraad
eri
pron
bant
cause
dewyl
zamengesteld
slechter
##achtend
brui
dela
eve
bevindende
##kleeden
excels
##17
##gor
lezingen
##enswaardige
noordzee
toerei
vasthouden
overgeplaatst
##yven
blaauwe
schepenen
209
##jong
lette
linkerzijde
wieg
goever
leelijk
donc
assort
cote
jc
gegoten
##verbruik
vlek
ontzettend
##bill
zii
##geloof
bals
##bakken
fes
old
##quit
##iaire
##wo
raadzaam
origineel
herkennen
gaz
verponding
kaarsen
bevredigen
hed
verstandige
##hedr
anim
geren
##adr
green
magtiging
opwekken
##oegden
here
##vall
##opolie
moraal
lus
benef
##eenk
document
##ave
minn
duinen
make
celebes
onderwezen
ooi
katwijk
envel
mik
betaalbaar
##voorziening
domic
stijgt
onbes
betalingen
##embl
twent
toekennen
diamanten
bovenverm
gezichten
bijzonders
##teelt
dreigde
drooge
werkers
##imach
ambassadeur
##gaarden
lucif
kwant
bruikbaar
betuigt
##eler
uitnemendheid
amendementen
bevreesd
197
stan
vaii
uitkeeringen
##igc
##legt
verwerken
prompte
ingezet
##melk
afsluiting
bq
##schild
i2
bosse
root
terugkomen
molenaar
##nde
nobel
##bediende
katten
vaststaat
differen
##zijdigheid
calv
##ziging
##iid
zuidzijde
hercules
prijsvraag
revalenta
verwijten
##pendant
geraakte
##schuld
##iasme
##eente
##zels
honneur
##lokaal
29sten
bulletin
##jun
salarissen
werkten
##ragers
bondsraad
##zuchtige
lyk
magnet
199
eenzaamheid
memel
formule
##stituut
israelieten
voorspoed
aanvoerder
uitverkoren
korfbal
gezang
braak
wetering
##dec
ondervindt
jules
indienen
weth
ongeloo
chinees
zaaken
##llllllllllllllll
scheidsrechters
suez
did
##vy
ontmoette
##chs
proefnemingen
fri
gam
##beel
##genegen
discipl
dulden
israeliet
queen
lum
##geluk
##oient
handelaar
steenbergen
statist
toehoor
##nair
societ
##ision
uitbetaling
dergelijks
eli
inzenders
##ence
amateur
bidt
knie
instandhouding
plaet
begeleid
##oux
verdeelen
minderen
apart
daal
ondergeschikt
reyn
##loofde
zoontje
pyr
beweegt
6°
ledige
overtreft
zum
opbrengen
eervolle
##akarta
voorlezing
klassieke
aangew
mooije
uithoofde
vruchtboomen
##68
voogdij
##boord
octob
detail
nijkerk
##slij
gebrekkige
##ontwikkeling
cs
sanders
landverhui
verheffing
notar
ingezien
camb
oorden
gedistilleerd
ean
##vatting
dwar
##olven
geschonden
##hent
##irie
see
aarts
##inzen
walter
rk
##dance
betwijfelen
bewerkte
verdedigde
##delyke
behoord
kostte
quatre
retra
begroeting
bm
abr
uitkomende
staren
quand
sas
verlieten
titul
aardbe
lll
overdracht
##ukk
straal
##onstr
1821
wig
##imen
nomen
##bord
royale
##lede
feestdag
teverg
##bron
overtuigend
binnenste
##dj
volksl
zendelingen
uitbreiden
betreden
claus
ting
octrooi
nik
202
##korps
rect
zer
uilen
traan
fransen
valkenburg
project
patrou
##oeze
inwerking
stevige
##ght
esper
exem
##willige
uitleg
vroegt
##gezondheid
tribun
##vern
##aturen
rooden
nachten
fiet
##natuur
eerlijkheid
verheft
##ted
hazen
oppervlakkig
leus
billijken
onsterf
##ftc
kongres
##hardt
18den
spanjaarden
##rode
##vering
indones
aden
##eton
beethoven
kwit
achtste
makende
ingeroepen
lens
kooi
gefrank
afk
franfchen
chaque
ped
voorbereidende
panden
verwel
hoogsten
penningm
zeelieden
gequ
vernuft
##ienen
help
jongh
israels
verbintenis
boekverk
overkomen
gd
bois
aanmoediging
tart
reusachtige
venez
eerbiedigen
##juicht
grijpt
costa
achtb
noodzaak
beproefde
zathe
weshalve
loopend
bevorens
chal
beperk
vreden
hf
bederf
koorn
positieve
ies
brok
##iga
seven
##cll
request
platten
driek
##pton
epide
volslagen
bekentenis
onzes
achtereenvolgende
naderde
##elie
sb
belgique
spit
geringste
leverantie
##schers
stockholm
ezel
##ores
##iseeren
##had
raadsheer
zuiverheid
bau
vestigde
verkoopers
##ricus
##slaande
voorzichtigheid
seconde
##gaen
hudig
i4
lop
noordzijde
adre
7000
woonden
soes
##versch
nadeelige
nadeele
vale
gegronde
1811
afgifte
randen
##itim
##geworpen
tik
reb
##kelyk
akt
pul
nispen
verkeerden
indianen
vervaardigde
onbillijk
gelds
voorjaars
##heus
pec
rece
sne
2en
arbe
geestig
iss
##orus
overtredingen
verdronken
indr
suff
advokaat
noodlottig
##volking
levensverzekering
rembours
vign
koffijhuis
troosten
bd
uut
gazette
materieele
votre
iden
rooster
gaten
aesthet
their
drogen
vole
welwillende
olympia
gj
oftober
gehoorzaam
wendt
ruiten
offeren
scheer
petri
dhr
convention
vroegeren
huiswaarts
proch
##quelle
bloemendaal
tp
voortspr
vom
##ubsid
bespreekt
toestaan
spiritus
eist
davids
##feder
##iddel
##waardigen
oden
##derlijk
toevoegen
##eb
onhoud
adspiranten
bemerken
ful
##aay
volwassenen
curatoren
##beginselen
encycl
##uarij
concours
##fien
marken
dees
moedert
delen
##keurigheid
vermeulen
##fcn
jamais
wachtgeld
zaam
##icke
waarheden
redeneering
emper
toestemmen
315
sine
envoye
sleeswijk
beren
gelederen
plegtige
onjuiste
##acker
vergist
ingrijpen
ontstoken
1809
##schappelijken
stoor
werktijd
gading
minsten
##akes
klaarblijk
uitgekomen
wortels
##onte
aankomt
enig
vastel
##fes
trak
voorgangers
gott
wj
islam
vertooning
vanwaar
##icten
uitgestrektheid
vertel
##ftad
muss
##oning
seminarie
bedingen
verraad
concurreerende
veelvuldige
parti
hoge
##regter
woordje
verhuren
talenten
##obe
getuigenissen
geexamineerd
spart
opgang
made
erfgenaam
leidende
mea
versn
vim
toegankelijk
bondsleden
kweeken
gerardus
avis
oos
floreen
26sten
##vaux
volhouden
godsvrucht
218
##osfeer
entrepot
##ettes
uiteraard
inzendingen
verzuimd
##mogen
1808
##buis
klimmen
##ghel
222
heerenhuis
herten
##eine
zuivelfa
onweder
aanmerkelijke
procede
regeeringen
garst
##pelingen
8e
scr
insur
stroop
handschoenen
serait
waarschijnlijkheid
##aapt
democraten
waterk
##sburg
symbol
opgevoed
uitgevonden
19den
213
zeemacht
pols
tennis
interpellatie
uitgewerkt
ders
dreigend
13den
coster
blond
klagten
voerden
##jjn
fpoedig
bovenhuis
roc
martha
223
timmerlieden
##43
cheval
dreigende
kantongerecht
boston
vangt
##uleerd
juweelen
therm
kennissen
bevrijding
##vell
##kerd
##inct
nevel
zai
spirit
borgt
veroorzaakte
builen
##betrekking
dwaze
spotten
chocolade
##ooster
zedert
tui
##orgde
##gerekend
bevrediging
aartshertog
uitrusting
##geeft
vera
##anderen
machten
##ione
splitsing
orient
brandstof
htt
verspreide
##sin
cort
strook
vleugels
hoedanigheden
standbeeld
belemmerd
##aatste
voorrede
##41
achterh
teleph
gasfabriek
besmettelijke
vervulde
1805
onderhandeling
degene
##gemelden
arrive
380
##ploit
##akers
##uo
compos
toetreding
bekleeden
huurder
##umen
geab
minis
ambachts
##enti
weduw
305
schijf
kolk
welt
opoffering
begaven
##ifi
aannemelijk
pleegt
vernieuwd
incon
borduur
bloeit
equipage
tientallen
##etste
prefect
##fcb
winden
opgetrokken
gemalin
gemeent
ghem
scherpen
geraad
gordijnen
buitenlandsch
delftsche
ontzegd
wonde
arabische
raar
botsing
principieel
krans
##amers
vereeren
##ambt
bevracht
dijkstra
masten
##dommen
arbitrage
bourg
jongelings
##bakkers
lieven
kerkgenootschap
uitmakende
aspir
oppos
bouwmeester
intell
dezo
individueel
##alien
editie
toesch
beslaan
30sten
ips
##verschijn
ontbieden
vurige
tevergeefs
ondertusschen
belgisch
##lee
sib
werven
ƒ8
hendrika
juk
naasten
voorziet
tk
ouwe
prettige
##uida
enten
bogen
plas
ijmuiden
gezeild
gouv
##inair
dach
buurman
toeneming
avoit
wek
dert
herstemming
ida
carlos
##legd
bow
##yser
tos
##koers
braam
jaarwedden
denkbaar
belach
##cg
##register
bruxelles
##elijck
1795
christi
eux
verzwakt
roerende
ontdek
koen
middernacht
brum
dochtertje
##spiegel
erkentelijkheid
mededeelt
natte
ovei
batterijen
##orr
##reffende
##hoop
##gro
venet
##bekl
deleg
nauwe
concentratie
##massa
##matigen
##beer
##lijsten
logisch
##illy
##slacht
##denk
kranten
inlandsch
ian
##ryving
i7
schagen
##ecken
schorsing
##omming
hoofdredacteur
commando
zenuwen
aanr
##antoor
##proef
vreede
raal
beschermd
uie
gereformeerden
##ffr
##bury
aanhoudende
bfl
wetsontwerpen
vaandel
##oles
heij
1e
hoogleeraren
erlang
draden
lantaarn
pall
betoogt
gebaseerd
populaire
stettin
##aafden
gouverne
##eemsche
snellen
forten
frits
eendragt
##baas
gematigd
enga
##zine
##jap
uitbreken
mandaat
##dadige
##iser
##ijsen
zalm
##oeisel
winkelhuis
uitvoerend
pijnen
anat
nominaal
dele
ine
aanschaffing
vakorganisatie
commisfie
##intjes
neme
aangrij
voorwendsel
christian
europeesch
tum
##agtigden
aap
erk
poes
kortston
geprezen
ruste
toenmalige
staatscommissie
##hire
##yi
##temberg
perz
velp
fourn
##ication
##voorstel
##adelijk
dorre
rangsch
dart
benj
verkochte
kleef
coupe
record
kerstmis
hyacint
verkondigd
onwaarschijnlijk
excelsior
alten
omgek
ayres
##aks
verguld
pz
##igranten
gecom
gereedheid
tog
meubil
sara
##offerd
regelmatige
inschrijven
bestellen
verkogt
electrisch
zegels
blinden
doorbrengen
vinding
medem
##qua
taa
beslaat
ingetreden
gebaar
vloei
zweeg
vermenig
zegepraal
##ieleden
spar
schare
mini
##zocht
##rac
##imus
217
kerkvoogden
konijnen
pastorie
##ucteur
##dane
kiem
verwikk
economie
pes
##eerders
dienstbaar
speculatie
diligen
hydr
##voeding
geestel
ingebracht
javaan
##aardige
beminnen
klaagt
amerikanen
folio
waterleiding
##iva
samenkomst
##47
##ijers
toebeh
sele
palmen
vollenhoven
##gaaf
##led
##leveren
zeeman
lul
bete
strafwet
atlas
koopvaard
majesteits
hollande
orch
##ieerd
opbod
behelzen
##spersoon
typen
231
##onderhoud
##erw
plank
afdrukken
gevoelige
deß
verbrij
gekwee
zevenbergen
zam
pooten
voorbaat
##etens
blanco
welsprekend
bezitters
rijm
370
geraadpl
ladingen
227
laquelle
onwetendheid
compositie
##eening
##werkende
##verband
##steyn
dienstig
teef
maandelijksche
blijve
##bten
##usalem
elizabeth
toeneemt
onderweg
opde
zwijgend
bemind
schuilt
##stoken
stom
beding
##jew
##vaal
ongesch
bestuurd
uo
nieuwediep
voorbehouden
##hed
boelgoed
##vissch
##ams
##sterven
##atel
hamburger
##fin
##voudige
schudde
1799
##ographische
buys
loof
zv
verraden
geme
twintigste
rena
berekeningen
baud
manchester
deeling
loges
afdoening
##daen
emer
1812
adolf
eccles
onregt
kronen
moreele
ingedeeld
plaets
kennelijk
##itur
##isi
welslagen
##lander
allereerste
schoolopziener
gese
hollands
##verloop
gehoorzamen
##beheer
##wetenschap
opgevolgd
##boter
raff
inboorlingen
##ridge
bevrijden
procur
##bun
jacques
assortiment
overdrijving
erfpacht
##42
##aaken
wich
invallen
liefhebben
##alon
##ulf
##eleinen
noodlottige
said
uitoefent
conclusies
boedels
xe
veter
1400
##uie
219
sijt
geklaagd
chili
zeilende
doeken
overheids
uitstap
##dren
aangetrokken
mouwen
lind
kopp
tii
wegende
uitgebroken
jakob
ore
bewijze
##alisten
uitslagen
opgelegde
##ongres
##winn
paras
moordenaar
rg
evenredig
##oche
##vormig
##oirs
gezouten
##kaar
goedgekeurde
uitt
vaudeville
##aldien
gezworen
personnes
odessa
variete
akkers
dragonders
228
zwanger
opletten
michel
##patr
visite
vandaan
dankte
generael
°n
lik
##verf
##uwer
##ems
partik
verbannen
route
opperrabbijn
##abiliteit
##anne
fabrijk
##uder
vroolijke
##groeid
neutraal
volksgezondheid
##toon
##kok
##oers
traktement
dyk
klink
alber
keeper
pijl
eenzame
elen
geheimzinnige
bsten
##dn
##oeck
benden
espr
dup
kalme
ongest
brochures
gunning
dii
##wijck
verbeurd
lombard
beoogde
wout
wenschten
eischte
denke
weers
amus
geim
vervreem
gedagt
deelhebbers
verschilt
ennem
moeilijker
##zl
zc
psychologie
schae
##jas
standvast
duits
schi
hebhen
publyk
kc
ergernis
wilhelmus
loen
##jongen
levenden
herdenken
bijz
losl
minzaam
##astische
loy
eenstemmig
souden
koetsier
moreel
biet
porcelein
statistische
regelingen
241
guinea
grondeigen
lende
enthousiasme
nieuwendijk
bols
##48
comen
##techn
zanger
uc
omgekomen
wallen
gestoord
cv
##ometers
patrie
toegegeven
bloedverwanten
##fenis
1806
verwaarloosd
paix
oplossingen
##arius
i6
eise
its
tiental
bankiers
beoogt
gecommitteerden
ley
naleving
fus
bk
weeten
feitelijke
chefs
pachter
ontboden
##spreekt
overgave
##sla
ligte
nadrukkelijk
werkdagen
bijgestaan
##nauw
schema
zaaien
##oires
pry
uitzending
stamboek
bijzonderen
##vrienden
jongsten
##lm
mogelyk
cec
voorgedaan
overvallen
conscien
##mael
kunstwerken
bekwaamheden
mien
scheltema
patron
##jie
##eigen
238
voorsprong
ccn
pompen
wouden
wes
verweerder
onherroep
jann
varie
oprechte
worsteling
kandidaten
philadel
##olten
bataljon
##orteerd
##onibel
opkl
geillustreerde
plotselinge
##viering
muzikale
##huiden
##atique
gezins
dere
##uns
##waardigheid
4o
##bewon
beschikkingen
sapp
kuit
corp
koord
galant
roest
spaansch
valen
slotsom
advocaten
oordcelen
roden
gad
dort
kuipers
voorradig
hervatten
success
scheikunde
anglais
##beschrijving
cool
heiligd
beambte
depart
voorzigt
##46
16den
##verteerd
groole
spieren
zwemmen
palmerston
verheugt
vuist
##oleerd
bestudeeren
wonderlijk
hoest
##eeniging
veur
zochten
arbeidende
kapitalisten
avaient
##klok
gevel
verplaatsen
kann
lol
eindigende
##oeling
##sprek
##wijken
rey
willekeurig
goethe
blanc
beminn
##smaat
blaas
hectaren
approbatie
vennooten
desp
barcelona
smir
workum
smaken
##peil
interpret
echten
keizerlijk
clara
dienstplicht
koog
##gaar
ingesloten
schra
##ouver
##eiro
##apel
kunde
##icl
##aagzaamheid
joost
##hek
ochten
aanvullen
matten
##posten
defen
##bev
fiets
ingediende
zegge
ellendig
##ateau
sag
reductie
naden
they
strafzaken
gevoed
295
commune
##aait
##aii
251
ontroering
julius
wys
verheugd
roei
werkkrachten
gedep
veroorloven
verdam
aannemers
##voerders
negatief
confi
247
fpr
juister
ketter
dublin
koll
##oonden
isr
##dre
##binnen
coen
voorgelegd
verwezenlijkt
koninglyke
atta
ultra
##uet
raet
libra
lloyd
schans
##verlies
aparte
vorstelijke
wekte
##duizend
commis
##ileerde
bekrompen
bevroren
onderb
buitenspor
##immerde
rukken
ident
##oul
slad
gevolgtrekking
muis
##ffchen
samenhang
toegetreden
zwijn
sombere
grootmoeder
##apte
laaten
bagage
dof
afgetrokken
##igl
vertrouwt
keukenmeid
##wan
##kering
dorpe
egyptische
jod
repr
##ador
thieme
briefwisseling
prendre
##leet
satan
afgedrukt
peuple
##sser
onvoorwaardelijk
ontheffing
##ics
stellige
##krui
hoofdin
##loopt
stijgende
soen
##streeksche
dezul
##kwestie
##ommels
ministerraad
226
##maatschapp
kaptein
##49
manus
jh
hoofdelijke
bril
gemont
##bia
oostkust
gevangenissen
misdrijven
zeek
fact
emancip
milde
duitse
weersz
repl
xviii
philosophie
##iman
alst
vermengd
wijzer
fid
jaarget
pairs
##tere
verschrikkelijke
##iation
verbouw
haarlemsche
method
meeft
##lagen
einer
beel
werdt
0111
tapijten
javaansche
voldeed
riepen
achterk
gaar
##paraat
spoorw
veronderstelling
gegeten
2i
pup
koloss
236
##aton
zinken
##hands
rae
analyse
afgewerkt
kerkgebouw
##hosp
uen
geachten
gie
receptie
atmosfeer
perfoon
##proken
vloten
dae
verbiedt
##ikkel
##ketel
##voudig
bloote
##igny
degen
cadeau
bock
grenadiers
##ijlen
aarzelen
##asi
ori
##schat
onvoorziene
wijf
invalid
ace
##snijden
##imeter
fix
eindelyk
nantes
ontheven
pondematen
twisten
##bst
##chi
kwalen
disponibel
bevredigende
opheldering
oudsten
jaarlijksch
zija
grieksch
rokin
actieve
vergemak
afleiden
vasteland
isab
versailles
##brugge
kraan
boys
function
gezui
processen
borgen
wrak
schoonen
##etti
afstaan
verdienstelijke
were
keken
##voogd
flora
minifter
420
iegelijk
vrijmetselarij
inr
##ieh
1801
geplant
strekte
ante
jaap
zons
##asch
piers
defe
gramofoon
##sterkte
desbetreffende
ouderwet
doorvoer
zeggende
reiken
wormerveer
debats
fluweel
slang
##lecht
professoren
raakte
ecne
beroer
strijdig
##bloemen
stillen
##orgaan
##tj
dankzegging
##rijders
distributie
toegebracht
slijm
roor
annie
subject
##pensatie
beknopte
##elten
##inten
befte
##kantoren
gevalle
##eeen
onbevoegd
personeele
behartiging
vloeit
gut
beslissende
##pand
snelzei
verdedigt
steven
f6
aals
buitenplaats
##iir
marche
vonk
##zalen
##col
##alist
versiering
toko
vlij
gf
account
roosendaal
bruto
moyen
verzekerings
##agent
##ziel
##lk
##bons
deftig
conn
233
levensonderhoud
twintigsten
annexis
zodanig
werkstaking
fokker
somme
##persoon
afkeur
inkomstenbelasting
480
nieuwenhuis
ua
wilson
aanz
tof
bediend
koepel
index
indepen
cependant
##gedachte
berkel
##vlijt
##splaats
schoolgeld
delden
servie
iy
dp
verdeeldheid
ud
verpakking
##iair
mager
handelende
arbeidswet
eynde
jat
##wapen
togen
##wier
ondernemer
opgebouwd
griet
ministere
leonard
##wisseld
##vanen
duimen
conferen
geaut
ballast
gegar
ƒ25
straats
beteren
##meter
voordeden
gebrekkig
gelijck
ondervond
##oppe
guy
voorspel
##gestel
bizondere
##tene
misdaden
dingsdags
geit
herl
beraadslagen
##stam
gooi
teruggebracht
zachtjes
##deerd
oordeelde
luisterde
##gedeelte
fijnste
onbegrijpelijk
doorstaan
walch
verovering
uf
kaars
##ameling
dk
##ukel
authent
zweet
##gcn
turijn
##iliaan
verpletter
geeerbie
koersen
dwingt
handig
##eidselen
##spoord
##wording
inbreuk
vaag
manden
pausen
plaa
polem
klaarblijkelijk
rag
mechelen
mexic
toegejuicht
237
conven
associatie
beruchte
##illeerde
aas
##ited
meegedeeld
spreuk
grijsaard
arsen
ontzettende
neerlands
droeve
iin
##ulaire
##chin
zj
##flen
##maakt
##alle
teven
aangeplakt
335
dron
poer
fisc
hanze
##wink
legden
beige
##elsche
##fondsen
feestelijk
afhangt
##ekening
oogsten
medegewerkt
apparaat
pis
##zure
##cket
sloep
belinf
kooppenningen
hogen
stoomtram
aandoening
verkoophuis
##avie
doesburg
toonden
##ernood
overtroffen
koopprijs
riem
gevangene
vermindert
zangers
##lezing
##ianus
vrank
opdr
transp
ceylon
##zings
grootboek
##akel
bandoeng
formulieren
aanp
slaande
beee
##iugen
ww
reven
beleediging
principalen
opricht
##blok
hollandschen
##fehe
##clam
##ission
##bruggen
afzien
ontkennend
##ierte
mack
beuken
oostelijk
##geerde
aangemeld
effet
geo
##ince
behoed
##boo
ontkent
##delik
doi
martel
waalwijk
##aliseerd
grut
inland
verstoken
geloovige
##ffens
gecontinu
##hartige
nutteloos
instant
410
##imi
dirks
##genoten
laats
##appelen
lour
contingent
veeartsen
drukkers
##staanbaar
legende
noemden
aandachtig
grondwett
verkle
verzamelde
subst
holst
condens
kapiteins
mnd
yen
verwijderde
14den
overheden
##uve
rhyn
##airs
mii
weerszijden
##stitutie
##werpt
vrijgesproken
jezu
##gemeenschap
blin
vluchten
drinkwater
carel
muit
##omet
matigen
volck
knop
spoorwegmaatschappij
tijdsomstandigheden
tolk
overtreffen
390
##poeder
stee
manilla
warmoesstraat
quint
socialist
troe
nrs
dijken
uitgangspunt
overzeesche
sassenheim
##onien
italiaansch
gesche
bijvoegsel
individuen
czaar
##cit
aucun
##andering
##vij
politique
hoekje
opont
hief
kag
voortvloeiende
zuylen
##head
verders
hoekstra
sis
alzo
afdelingen
inneemt
##rond
##wood
stadgenooten
doorgedrongen
indiening
##jjd
gangen
bamb
bedw
augustinus
##field
obligatie
genaderd
##litst
##chal
rosen
afgetreden
congo
232
##fchappen
oneer
voll
intie
##eo
vijver
bemoe
##cnd
godsdienstoefening
sprongen
gejuich
zurich
golden
belem
vaderlandsliefde
##vaardigen
tjeenk
##rok
gewichtig
vakgenooten
disconto
verpleegd
pakjes
oogenblikkelijk
##besp
##colle
toulon
vervoege
##groen
start
krediet
arnhemsche
stuiten
rechtvaardig
beklaagden
italianen
ketels
ruyter
##unis
##order
bruijn
##cben
grim
verwijdering
stapte
heete
erfl
opperhoofd
cht
##lengte
##gesloten
monopolie
##elgk
grootsch
ingenomenheid
amp
carlisten
vastheid
klop
velsen
hoger
michael
halt
verzacht
##lert
vergemakkelijk
##acl
ire
raven
pikols
diverfe
##gesticht
jaarboekje
isol
oneindige
##illeurs
strijdt
ondank
prece
swe
gebaat
##peu
konst
vijandig
mondelinge
kindert
henk
##schilder
catechismus
##schende
##breed
betoo
beijeren
kand
##adering
grondlasten
inciden
ongeoor
bekent
gliml
1100
##corps
indirect
##jectieve
natuurkundige
calif
overwegend
vyanden
amortisatie
pir
##storm
specie
leeraars
uj
##idde
barn
pcts
##vea
broed
meurs
##inders
begeeren
aankwam
beschrijft
##hau
liberte
esse
##oegt
rotsen
partijtje
wisselen
afstamm
functien
scham
beraadsl
opzigter
uitgezonden
voorstellende
sto
mening
##ijcke
christelijken
dock
vergat
parallel
##opa
verward
ruys
borden
adsist
legitim
geschetst
aangeteekend
pharmace
hubert
lakens
spin
hoon
onvermogen
bijkans
matroos
##ijing
##omie
kabinetten
leuze
note
2a
noods
##vloot
teil
lieveling
rar
ws
gedagvaard
landt
alexandrie
dienstjaren
betuigd
steph
stadje
geraadpleegd
appelen
evert
##itutie
invordering
physi
##stelooze
egl
capaciteit
welver
gewijde
zaai
hipp
loonsverlaging
ongesteld
##derijk
vermeenen
##vruchten
bedoelden
geallieerden
beschaafd
overeenkomstige
huiselijk
##sprijzen
##ough
ffl
##outer
echtheid
##vorderingen
eerft
nedergelegd
bevestigend
##beginsel
broers
261
oetober
afbraak
kanonn
zaterdagavond
brj
##halt
ux
##dad
godgeleerdheid
##itel
##lle
sach
opgehangen
duizende
daglicht
rp
lastige
besparing
neerbosch
##penninck
herw
ondergrond
stooten
jongst
fern
metz
keren
membres
westelijk
archiv
graves
overzien
uitnemende
termin
satis
##iant
kunstmatige
eenzijdig
##uire
wre
carolina
uitgeb
woonen
##vaartuigen
##ated
tenten
documenten
254
schouwen
goth
verhandelingen
1300
minderjarige
##schrijvingen
oork
lieuten
verdrijven
international
zinne
faber
naakt
##elte
##gezellen
gill
##ousse
lamb
zuidelijk
##dts
##hee
##ooide
dirig
reput
abatt
juichen
engl
consult
geweken
cats
duurte
afdoeningen
##ucken
##ioenen
wot
kristal
##istor
##menging
beleefdelijk
verificatie
##veur
uitdeeling
volgelingen
rangen
frequ
beenderen
duinkerken
boekwerken
vergrooting
fils
##borgh
##oses
##dok
zamenstelling
oosterhout
850
accijnzen
verbazend
overig
anderhalf
parle
belinfante
opzigten
gewagen
joris
ontzien
345
##aaltjes
##urde
gekeurd
veul
mb
plaals
opstaan
archieven
##amming
##indre
stakers
gerr
fluisterde
kwakzal
mets
werkwijze
domine
toegebragt
aanspraken
jzn
mig
specif
##genootschappen
aristocr
##agtigde
tuil
emmen
dop
##kle
bevordert
ganschen
##otest
para
grootsten
terr
425
lichter
bea
bouwvak
strijken
246
herstellingen
ledikanten
gheen
248
bass
##bibliotheek
aftredende
bedrijfsleven
nre
reize
santos
##zelde
daalt
##otterdam
misn
herr
verkort
bijaldien
toezien
doodstraf
voorals
##flagen
##oeil
##uisch
gedeponeerd
##geerden
cargadoors
##fre
lingen
chinesche
bemesting
volksvertegenwoordiging
veeteelt
industri
onz
gedachtenis
zakelijk
daargelaten
afgezet
##bescher
vlees
onsen
##bewijzen
henen
229
kromme
sierlijk
melodie
omringen
ontstane
verschijnende
misluk
pants
onbelangrijk
verrijzen
eensgezindheid
pauw
verbindingen
##lepen
krommen
colijn
rotter
hae
stoo
nijverheids
overijsel
##ml
transvaal
##vit
##uii
zwang
ihr
office
leeven
hypotheken
##schl
parap
gestadig
kuil
capita
gewetens
beweringen
reserves
##fir
adspirant
verschrikt
begroeten
overlaat
vergoeden
opgeworpen
vergaderde
##betering
schuiven
minnen
bijlagen
##gereedschappen
bic
onverwachte
ontd
insecten
ingevoerde
dieven
achterhoede
wiers
dessa
zelfver
sai
zwakker
ongehoor
tred
comedie
wekelijksche
##ringen
##ocus
##uff
weit
##clijk
saw
indirecte
##brekende
optrad
santen
##ienst
##magazijn
nademiddags
##ftt
##zige
berger
fox
profeten
iels
behalven
deter
kunstmest
mislukte
kwesties
begeeft
oppen
##schrijvers
spijsvertering
verlichte
tramwegen
wies
rav
##bles
drij
attend
##dit
##zegde
radicale
##uctien
kend
smorgens
##hert
gedroogde
verer
256
##jke
overtoll
feestelijke
vlekken
schenk
gz
mcl
moz
##lid
schotel
kamper
ceint
239
243
##stee
##regels
achterstand
##onia
##spolitiek
locale
ontfer
noodlijden
ecrit
253
fust
##vleugel
geconcl
##pred
nell
bovenbedoelde
vrouwelijk
2400
actes
strykgeld
verfche
bemoedig
##behoor
vaardigheid
maatsch
##hd
lotgevallen
liij
##rels
##nix
wz
repre
heilzame
##iia
spijzen
londres
vriendschappelijke
onstuim
trom
dappere
zionistische
ige
301
##chl
kogels
##dalen
##zant
eertijds
gezangen
geloofd
phosp
boeien
fall
momenteel
poppen
##emans
conft
great
concerten
houde
aanbesteden
eeden
##verordening
gefrankeerde
stav
korpsen
scli
365
nieu
gemotiv
leefden
opzetten
vertrouwde
varende
rendre
##weren
formulier
##yck
##koek
jah
voorw
vroedvrouw
252
aanw
weste
onderfch
kruit
kleinigheden
##uze
overwinningen
##vereniging
there
##maatregelen
peel
mrt
##vaardige
hoogduitsche
veloc
proeft
vergezellen
zakelijke
kudde
alter
jonger
lir
##studie
afgeslagen
##lia
##vlakte
salpeter
steel
##zas
mensche
geslaagde
korporaal
nationalen
geinter
emden
##kaan
##loc
profiteeren
beid
aten
1802
271
jeanne
financiele
partikul
##ingswet
denkelijk
johs
vrye
aangren
gegund
verwoesting
empereur
##mr
behaagd
oktober
verzorgen
klanten
##mp
hersen
onbel
##gangen
troel
sieraad
ontginning
##keering
##ijenoord
afgrond
behoeftige
afvoer
##slijst
relat
naem
stilstand
wals
vernieuwen
bijdr
domein
sliep
onbeduidend
russell
korresponden
bloedige
baken
doosjes
beklemming
toehoorders
mededinging
##scheweg
verwekken
##gf
##agnie
gejaagd
duitsland
streeft
##jongens
beproeving
jae
baart
who
beeldende
communicatie
viertal
aanpl
##eers
verzoekschriften
sd
straffe
##illo
projet
evangelische
droits
##wijzer
onbepaald
##staats
vlakke
liefhebber
kilometer
##nemings
huisvesting
1700
afgebeeld
friedrich
##veeren
arbeidsduur
toenadering
wurtemberg
begraafplaats
bles
menschdom
tasten
philadelphia
behelzende
opgeh
nieuwsgierigheid
afde
##streven
alors
sijne
correspond
##ums
herm
radja
uter
expres
rechtsp
omroep
breeden
pronk
infer
getroost
ratten
rundvleesch
##onneerd
vertegenwoordigt
omlaag
parait
dichte
jeugdig
sond
onderteekening
eeo
##utes
besliste
werklo
werkverschaffing
kloek
than
huisbezoek
fchoon
toevallige
match
##reen
##stilstand
##alend
staathuishoud
##monde
mole
winterswijk
desniettemin
astr
momp
altyd
##teen
##wd
vijzel
doodt
arbeidsovereenkomst
##cnde
voorspellen
saxen
aanwending
##agel
operatien
inkomende
borger
##romp
vooralsnog
clar
ool
geis
echtvereeniging
gevormde
wey
vink
derby
mijnwerkers
cj
india
##iij
##rin
##pelijke
7°
scherper
##ogh
##fteeg
bezeten
plegtig
haze
genoe
livres
voorvallen
beantwoordde
olivier
doctoren
##ikkeld
distrikt
kruist
onschuld
gegeeven
indischen
opgezet
vernamen
scrib
duurzaam
##cri
allerwege
bovenaan
domme
ontspanning
ontzet
maands
strijders
staen
##gelyks
retraite
stevens
gum
stelen
##itor
overblijfselen
##anca
##dieren
kunstwerk
goen
incass
landarbeiders
##valt
najaars
zatur
vliegtuig
hill
chen
alfred
psalmen
geschiedkundige
##iy
envir
##fcbe
herb
andel
belangrijkheid
barbar
##ertjes
beoefenen
godheid
##noten
pourra
mengen
koele
zweep
gedi
268
koppel
voltrokken
gebrachte
provint
empire
intendant
edelman
ouvrage
gecombineerd
##abele
verhel
##matie
navig
gelijkenis
achtergelaten
##aume
hardnekkig
##asion
afte
##fried
##iseerde
keerden
zigtbaar
syrie
bondgenooten
ultram
uitdrukken
vianen
slim
overeenstem
limburgsche
schudden
chl
steiger
juillet
remar
rutgers
gouvern
##iester
##ugten
machtigen
terzijde
otter
schuren
temp
vb
pakk
ontegen
slaapkamer
douw
maire
rotterd
gebord
##iien
gegrav
sire
hoogeren
brou
principes
##ongan
conservatieve
afgemaakt
bret
complet
gevac
onbruikbaar
benoodigdheden
##pres
##zond
euchar
balling
haal
morg
3i
gester
thesaur
bovennatuur
westersche
##okkel
vertoonden
##bevolking
##rom
geschenke
krimpen
bemoeiingen
boers
perspe
ganzen
sierlijke
##staten
sekretaris
droevige
##eiland
disposition
##geslacht
##ammer
tegensp
geopperd
##ijks
medewerker
gewestelijke
deh
scheidsgerecht
deft
twint
##oze
bijeengebracht
lichamelijk
sax
242
bijzonderheid
presente
verpachting
##koopen
rin
geconcludeerd
kond
rechtvaardigen
ingenaaid
tersch
ingegaan
gekw
##uela
religieuze
440
amateurs
##gow
nihil
ontwikkelings
bombay
hees
##ep
teruggetrokken
pinken
echo
##stations
##verslagen
vestingen
stadium
restauratie
##zaan
verken
##sterdam
sorteering
goedkoopste
heiligdom
##jg
leeuwar
oldenzaal
##olph
##ificatien
##olden
kolf
geduur
krijgst
propos
##wijziging
##igers
verkiezende
daarby
stei
bewoog
eenparig
ina
spil
nodige
godts
gedetach
adressere
##linger
##ipot
rotte
schalk
regtstreeks
voorouders
loer
messen
tac
dongen
sigar
jy
##fden
bemoeien
alsoo
##hing
bereiking
secretaresse
bombar
knikte
smelt
dader
afgem
257
aurait
aangeeft
hessen
##fran
##emaker
gestre
##erwijze
##uir
mp
daarnaar
regelt
strikt
heilzaam
aucune
hiervoren
opslag
bekoring
##aaren
genootschappen
355
##vinders
verouderde
geeerd
##cutta
knn
##arbeider
uitersten
certificaat
##eerder
mete
touwen
##otechn
##clus
uitblijven
wijdt
##zalige
tang
321
##rat
##eekening
zede
wereldoorlog
abstra
##oodigden
##iffen
##bronnen
goal
##geloo
ontwaken
landmacht
##gevolg
##uus
p°
tis
##haling
ribben
##slen
zwanen
juin
lau
eze
daarbuiten
##comite
kapittel
keurings
ochtends
stegen
symbool
excurs
anc
249
##snede
##gezand
worm
inbegrepen
##ievend
vleuten
blyft
comb
belemmeren
coevorden
##ijging
uitgelaten
renaissance
##otel
enden
principieele
pennen
schoenmaker
verwezenlijken
tsje
beftuur
##methode
##gts
adriana
bestuursvergadering
##ifc
flan
##molens
##ieder
proven
##verdeeling
afgelegen
hevigen
stilstaan
gegen
opofferingen
##inatie
chan
koch
1797
maandschrift
pakket
schept
bruide
nieuwsgierig
bourgeoisie
elias
430
sluizen
##olit
opnamen
wegnemen
lopen
##bree
##leidingen
rommel
##bro
buil
dwaal
dusdanige
eenenmale
##jjs
2100
call
koopvaardij
dool
rijwielen
verstreken
eraan
##ements
ontwapening
betracht
wapenstilstand
wanorde
##belijden
weimar
reste
supplement
##oopte
bataillons
##trok
barbaar
0p
beem
fries
2s
fleur
dienstdoende
##kong
##unda
heidensche
##lington
bezittende
##hausen
hengsten
##lood
fuc
pels
paragr
plukken
paschen
cabinet
ingezeten
huiswerk
##ivement
staatsregeling
eeuwigen
##gaten
comprom
weldoortimmerd
mane
wang
etal
geteekende
verdedigers
gerechtvaardigd
zichtbare
morning
ordres
tweeerlei
specerijen
##allers
bilj
arthur
venus
sloegen
herte
##ioden
pacific
maandelijks
iel
maen
quoi
gefteld
spen
gecombineerde
##uwt
nederduitsche
mina
jeune
##worden
intus
zoe
voit
noodigt
##maatschappijen
##verpleging
##raet
##neerd
doenlijk
entend
##pper
prev
blonde
##clt
hypoth
opleggen
lazen
falm
telegrafische
ernstigen
beoefend
nei
pj
gau
pharmaceut
dagelyks
##steller
chicago
haben
264
bruidegom
yzer
scene
mahonie
verlooch
miste
kopje
joan
##svermogen
oponthoud
francaise
##quar
##staal
ongerijm
oed
allerheil
agentschap
geper
collectief
wagenaar
liefhebb
leh
leuk
dijkgraaf
garnizoens
mooier
middellandsche
kemp
schui
coning
veilige
stichter
##heide
overschreden
##oro
##stroomen
componist
cardin
opgezonden
##ngen
wenn
niec
bodegraven
schroder
oni
##komm
##nevens
##ketels
gebruike
optocht
tollen
cellen
##dro
##achtigd
##icken
consuls
accorde
##ops
direk
kh
ommen
zeevaren
golt
bespot
rele
##lf
##ffingen
hoofdt
vloeien
steil
##splan
zwartsluis
brazil
pess
daken
geleverde
##okte
##vaten
##houwers
lx
goot
magistraat
godefr
peer
welstand
parade
fm
black
schutterijen
mari
10000
glaswerk
solidariteit
betoogen
hutten
separ
##politiek
gereserv
258
ingerichte
vlei
erbij
uitverkocht
zeedijk
arbeidsl
afwijkende
##spap
illust
franz
333
emin
zicb
bedroefd
straatsburg
##°n
lords
##willigheid
mouw
overgeleverd
runder
onbetwist
handteeken
toename
leeningen
##fchip
snelzeilend
medemblik
kachel
druiven
vrijgesteld
##gelegenheden
terugreis
verschillenden
##vrier
koft
gestreefd
lijder
inleider
inzenden
mall
calcutta
##osse
##ßt
wetende
##iic
roth
verzuimen
gesn
##verwant
bergs
##secretaris
##ueelen
m3
259
ettelijke
##bas
austral
##lv
groter
geanim
##uitgaven
janvier
vergelijkt
verstrekte
##peare
zilverwerk
##gebed
culture
rens
##ressie
hoender
spanj
##oniak
dedems
bebben
##andelen
drukwerk
gearbeid
bruins
281
##gebr
wonderbaar
##heeft
zorgde
arbeidstijd
regentschap
hygiene
voorleden
engelschman
fascisme
ontruiming
##kab
motiv
##ail
insl
scheps
rosa
onderhandelen
##itude
aalsmeer
##ieelen
kanselier
##mde
rail
##dorf
gaaf
beat
##oteerd
274
vuile
oel
##manuel
christel
gekwetsten
sha
besmetting
echtgenooten
288
petron
ive
olien
##heydt
##heur
##ibles
cokes
drupp
tradition
##astie
staa
##stering
opregt
plants
duistere
verblijfkosten
shakes
gefchikt
saks
##oto
vastgelegd
quarant
ontelbare
camera
##sgevoel
klopte
alie
doorb
beleggen
cinq
romp
finantieele
margarine
##seb
emmerik
weelder
##achtigde
slied
yr
brander
##imore
rijker
boeg
fak
aig
stelle
gematigde
donk
volop
wettigen
verijd
produkt
##slands
piemont
1s
leb
processie
geert
lois
achtten
##emeer
teg
bedroeven
##generaal
verantwoorden
rentmeester
##vaders
troelstra
##oid
##omende
toi
##stappen
bijbelsche
weerd
urn
voornamen
thema
afbreken
travail
##vogel
tns
bijeengeroepen
##rijken
team
yl
oplossen
pard
kinds
##mert
eco
dezulken
##deszelfs
bedel
rode
aanhef
##nieuws
weif
ongeregeldheden
lost
##sto
schroom
ambo
struct
##mgen
oin
commod
citadel
benedict
raak
wood
voortbestaan
barneveld
onverbid
rustende
schomm
vrouwtje
goeie
##gewenscht
soiree
##rager
tat
ole
vrijzinnige
seulement
dahl
##jaarde
illustraties
apol
marc
sov
gehuldigd
federt
##passing
beginnende
##udding
wijck
##kwaam
willekeurige
##planting
knappe
##veldt
verhoogingen
versm
291
kleink
verstoord
bescheidenheid
vochtig
grace
tub
eigenhandig
##gezelschap
##jacht
##avo
gesplitst
opgeslagen
solied
cau
gestreng
nk
hegt
grind
##rechtelijke
praeadv
##fabrikanten
toevoer
460
wonnen
##tf
storen
coninck
oefent
276
##itn
stipt
restant
onderen
beleger
##derlandsche
gcl
maryland
beje
##lyken
##ohl
back
boss
sujet
prefe
anth
mine
2j
ellendige
oeuv
aak
huiselijke
##dsen
tourn
verlichten
##erdijk
vervr
hersenen
weike
abdij
symphonie
ruilen
reguliers
##iijk
##atha
hort
##gast
vtn
vroedvrouwen
makkelijk
##linie
interim
proefschrift
mededeel
seul
311
banka
overbrenging
raadgevingen
##ubsidie
zowel
aansprakelijkheid
praeses
##pomp
overgedragen
betoogde
##stellende
staaf
weber
uitgevoerde
time
meiden
##ologen
etranger
##dyk
wende
ongez
zicli
gebakken
grootvorst
##stigden
##iciens
##pec
mobilisatie
achtbare
courrier
weeks
jerusalem
##zout
minachting
vlamingen
ingewonnen
##reiking
tonn
heyden
leent
bolle
bondgenoot
vermoeien
lambert
bijwoning
under
avril
stuart
##skanaal
buffet
janeiro
##yon
aansporing
##maer
capite
vergadert
##iq
bezoeker
snee
waarby
gereformeerd
geschreeuw
##stoelen
##iea
##paraten
misdadigers
##inson
dede
vogelen
##betrekkingen
##legde
cox
exe
verrichtingen
tz
opvallend
##wekte
werkloos
inhoudt
geteld
hv
medium
aria
doosje
eerstaan
white
fchoone
ail
viss
bieten
atlant
tooneelen
263
bonaparte
aannam
vaarzen
soek
##bewoners
##aes
scien
schikken
##cis
jis
uitged
##ania
eenton
feith
##aatje
behen
juliana
central
fis
veehouders
belangwekkend
azi
ballet
266
ck
##kooper
plu
costuum
##billetten
bestrijdt
home
passende
##verijen
petersb
zaligmaker
inwill
##wees
moskou
vh
##erl
blaadjes
huz
rozenkrans
zwaarste
mexik
clercq
fera
assembl
reek
sterfgeval
floris
verbranden
onmisken
esk
herben
wouter
415
metaalbewerkers
9e
madura
tabellen
knechts
beroept
esprit
noteeringen
metselaar
##anningen
##eizoen
schm
vennootschappen
21sten
dv
##organen
alpen
liefste
eid
vroegtijdig
fregatten
aloude
rechterhand
##feesten
fais
heelal
laatstgenoemden
hoofdpijn
negoc
eerwaarde
273
benzine
einden
mantels
nept
verleid
staaltje
##oea
eugen
scheikundige
##legien
volmaaktheid
##oue
leesboek
##ocn
tapijt
mangel
jubilaris
bedriegen
handschriften
colonel
bestaanden
##voorraad
##ijdige
begeert
verlangens
wijt
handt
deposito
vijandige
ard
jantje
nieuwjaars
wick
raadsbesluit
##chauss
schotsche
gijs
vermenigv
##akter
religion
smet
##schiet
evolutie
willemsoord
smaakvol
##olo
schepsel
gieten
kwik
verhui
proefneming
lieutenant
afgew
##ugelen
##iven
kaal
vertalingen
zioh
gelukwenschen
subsidien
schuin
tenden
##oeiden
inkrim
insc
ofwel
##ijders
##uties
pleiten
##oging
pleeg
##koersen
gefchieden
hoogachting
jonkheer
torens
sloet
##istes
zutfen
oppert
wagenstraat
boekdrukker
directrice
client
warmen
ontsnappen
##tek
huet
bereikten
klom
veest
bourdeaux
bevoorrecht
1111
krachtigen
schilderkunst
##itat
##avonden
##ereelen
salut
scott
geadverteerd
opruiming
##oque
hoch
stum
uitgew
##ylen
religieuse
grask
boerenbond
vrage
dienden
legger
hiet
##oyen
herkomst
##unden
aii
kruy
onvolledig
defa
wales
teruggave
volont
dager
geducht
284
vooruitzichten
##abl
bcr
##umann
##deb
toelicht
aw
reage
##itius
##tenir
kale
secretaire
majefteyt
mysterie
aanvaardde
veri
uitstrekken
gamb
onschadelijk
kundige
chauffe
bezitter
overeenkomt
moerd
##brink
##utz
##schans
##igting
267
##utte
republikeinen
weegt
seance
behuizing
trant
##oyer
dominee
##hebbenden
gedagteekend
##uiks
doorsn
benne
mededeelde
interieur
vap
dren
houtwaren
loot
smarten
vermaarde
##commiss
chamb
dengene
bederven
##oz
mercuur
sterfgevallen
olif
thr
##gevor
pm
wensen
verloting
inget
raadt
sabel
overgelegde
wisseling
uh
elegante
kleeden
orange
##winkels
##zeel
bevestigde
begeerd
vorenstaande
dete
##ku
mannelijk
##orc
262
bedekken
onzui
onvrucht
speelgoed
selven
geertruida
schuiten
ril
dwee
verwierf
gestuurd
rau
werkend
mishandeling
ruk
##kapitaal
aim
ammoniak
##51
dogma
overblijft
achilles
prive
ug
##dijke
reeders
geraden
caes
zot
uitvoerbaar
kathedr
families
pijnlijke
bezweken
##vertrek
##armen
##gke
schuim
iij
weerhouden
desverk
amerongen
##unes
provincialen
##vem
wyl
ouderlingen
reaction
##behoeven
magdalen
##01
loodsen
dockum
kleermaker
bestudeerd
oostenr
##jjke
##front
##elberg
zestal
overneming
overzijde
schuldenaar
##gebonden
##sson
opgaande
joure
ƒlo
daadwerk
cx
dynam
verdedigings
heit
opgebracht
ontsteking
masker
gorter
##iaa
assez
bedreigen
onzekere
##anck
##mog
##kening
overlevering
trouver
verfcheiden
bewoner
##moes
afstands
##haast
beteekende
272
quin
kik
##koeien
opstelling
meden
erfenis
##anties
ext
dedemsvaart
##ario
slangen
##hemden
##varkens
organische
schw
adresser
wk
schuldige
##rijck
any
klopt
roll
##atures
zondaar
overdekt
##aekt
binnengeloopen
voorhout
beurtelings
##star
zfl
weemoed
berkhout
##dtal
cologne
nauwgezet
manen
organisme
##pf
##oduc
kolonisatie
trakte
##rikken
toebereidselen
rheum
ginne
verzoekende
primitieve
##baden
gelijksoort
apr
kunstmatig
##rah
debit
##bri
bevind
neuzen
schoof
aangel
hospitalen
##hangende
##ota
##centrale
apotheken
eerzucht
expos
logen
administratief
einen
ludwig
beslissend
landing
marnix
rooken
voyage
plekken
staatslieden
gegroeid
bruy
zegeningen
origineele
invoerrecht
zuchtte
lersche
proport
sip
taxatie
religieus
sof
gekoe
##vement
magtig
schop
inspect
warden
commandeur
cod
uitgerust
apen
welgeschapene
eck
##loochen
jarenlang
##eliers
doordr
tert
vorstin
mengel
##dings
xix
##eloozen
kantons
##raa
##idd
tegengesproken
willigen
gecontinueerd
##ryke
bleeke
godvrucht
##ignes
283
myl
gehechtheid
##wachters
provincies
verfl
voorregt
ontegenzeg
f1
beris
osc
ijsel
barend
##lof
##irig
verachting
aangek
momenten
afsluit
##borst
chinezen
##iaen
olympische
opheffen
nadien
gladde
277
##wis
naby
spook
medicijnen
gewestelijk
adrianus
weldaden
##iif
franschman
bewaart
naz
##hrop
uurtje
exter
##ucker
taille
411
huisraad
knol
krie
refol
hess
##elletje
doer
mere
##entw
belemmering
fredrik
zint
##eus
passer
tuy
uitweg
guld
278
##ijving
overhandigd
kranen
simp
gregorius
roze
publique
gevechten
##kat
goude
304
verkorting
prior
soesman
exam
##getje
##programma
##inderd
##eidings
gaa
geken
vergelijkend
schimmelpenninck
breedvoerig
ultramont
urine
afwisselend
schaamte
##°°
611
verlegenheid
vakbonden
##ichen
hermans
1804
voorstelde
hongkong
vuurwerk
reputatie
dick
kieswet
honing
terschelling
ters
##ijende
inkoopen
vermoorden
eenvoudigste
hattem
5o
aanslagen
bam
verwikkelingen
geweerd
##uyn
##uppel
venezuela
taai
fine
bovenvermelde
sonn
ontwaakt
assess
gedenkteeken
cui
kj
centimes
##swet
##blokken
verduister
##duizenden
albl
sliedrecht
tijdsverloop
hermann
krijgsgevangen
terra
afin
geleerdheid
siber
gegarandeerd
esch
lex
omgekeerde
heinrich
cors
eenvoudiger
integr
geprotest
reiskosten
binnenkomen
##oke
sentiment
onkunde
mijnbouw
stutt
drost
oit
arbeidsb
slagveld
verleven
veehouder
verlosser
##kassen
teruggegeven
hero
tyr
##ftond
ontzeggen
303
##rix
##ijfd
##hers
##stcn
##vonnis
onderdrukken
begaafd
hemelen
##koper
royaume
geadress
##offel
##angs
verhaalde
intrek
doorluchtige
thijs
plekje
bedekte
##los
onherroepelijk
laarzen
zomerm
##nestie
ceintuur
ral
hernieuw
ghi
##reizig
terugge
stadion
rubens
loenen
bloeds
delfs
##zalig
marechauss
385
karakteristiek
kras
dergel
##eisd
illus
fragment
greidland
noode
doozen
buig
##send
pari
egter
grouw
##zeit
consequent
ondergeschikte
druks
kerck
verwoe
functies
##uay
gewigtig
hus
werkdag
draait
doopsgezinde
glin
discipline
zaandijk
##aans
##vallig
overschrijving
echtscheiding
aantreffen
author
onverh
toneel
onverwachts
oplos
##vanger
onderstaand
iris
beslaande
wins
kluit
##lll
beoordeel
municip
##strale
inschrijvers
goedkeuren
##entje
hollandia
##bescherming
##bit
betreurt
##oup
##steijn
werkzame
handelaars
madoera
reiniging
drente
dai
verwondert
beyde
werkeloosheid
##bodem
##schel
heldha
verwerpt
afloopen
##clyk
almede
horloge
bekwam
michiels
bann
17e
nazien
ordening
wreken
##bern
stemde
duik
kommer
overgaat
oui
eede
bekroonde
eld
derniere
##oun
reinheid
zaag
blaadje
veree
verlossen
bemint
weersgesteldheid
tete
ontdaan
loosd
perzie
aert
##sende
sicilie
hoogezand
hoogten
jde
deelden
rails
aandenken
##teele
sev
herhaalt
autorisatie
##ooningen
plaatsvervangers
##itsma
noc
vlieger
##ono
belangwekkende
hohen
voortbrengen
##geboorte
brouw
agit
committe
beloopen
wachter
##humus
agitatie
##kunsten
##ueren
batt
aven
seinen
gcn
onmisbare
champagne
ame
afgeven
##belijdenis
handelmaatschappij
beven
##hk
deeltjes
kerstfeest
aanbood
gekweekt
remonstr
##dun
republikeinsche
312
verwond
vorderde
afsterven
isabella
mislukking
huls
##halven
logementhouder
pill
pok
zuurstof
eenigste
##bede
negotie
loonsverhooging
##uggen
huish
onderstelling
##dend
zooiets
traktementen
##ceren
##ctt
ondei
beschuldigingen
embar
gedronken
aangebroken
dries
troo
siecle
##eeuwsch
onverget
ontzetting
vreeze
verhuisd
ongehuwde
vijandelijkheden
prediken
308
paragraaf
##gedreven
kren
begeerde
##besteding
dcs
##zekering
ijdelheid
##rium
picols
syndicaat
portier
muizen
mooien
sg
wolven
verlagen
##wigt
##iddags
gevaceerd
klassenstrijd
recr
emancipatie
ener
wreede
maagden
slachten
##iles
karakters
influen
grammat
slor
publiceeren
worstelen
collegien
##stall
vergel
##zcn
verbreken
salv
##ijgen
##born
getroosten
synod
##nier
heftige
leverancier
iit
331
reuzel
##try
geestige
weyn
armes
dagboek
fluiten
asser
##jm
hakhout
##reft
##bui
provif
drongen
porselein
abattoir
maarten
tege
afwerking
versierde
pierson
leyd
##ivelijk
##oode
##zot
verlengen
beul
opvatten
hoofdartikel
bedrijvigheid
##wc
taktiek
bevorderlijk
sprookjes
heg
loor
extraordinaire
seren
geheimhouding
##kleurig
gretig
475
zoovelen
rotting
##iesbaar
finant
lohman
##onomie
onzin
##bru
mogelijken
landmagt
bijgevoegd
dz
proce
##kea
##anz
quarantaine
##vans
onderwijswet
kroe
admiraliteit
opinion
kk
314
verzamelingen
verrijkt
grands
ensem
disk
michiel
loth
287
shakespeare
aue
kell
malta
levenskracht
gezegden
##isehe
twaalftal
cil
toetreden
##unus
##waarders
zestiende
##spreuk
uitvinder
ongeduld
##iscop
emmers
opte
##kwart
eier
##zil
gelegene
zeeen
artistieke
##gren
##pan
gouverneurs
samenwerken
luistert
cup
##ifen
##greep
bezigtiging
##uien
##chap
##lex
onderdeden
##aeckt
289
verhuring
iso
poosje
##slijk
wordl
bouwkunst
leege
collect
##iiiiiiiiiiiiiiiiiiiiiiiiiiiiiiii
##vollen
inj
illumin
politieken
aanraden
gordijn
verstaande
martens
uitbl
degra
282
dergenen
beier
obje
banier
volksvlijt
##cls
haken
bekijken
##rims
ontwapen
evers
baltimore
kavallerie
geprotesteerd
286
prefident
majt
voorzieningen
ervoor
genoopt
grachten
tijdgenooten
##slot
##rf
uitermate
##unitie
schreeuwen
toejuichingen
bouwman
onvermin
schoolmeester
vrijzinnig
diakenen
##wegens
stamb
spoediger
geklommen
welck
onderging
deksel
ongerustheid
graaff
brandhout
gemeentehuis
smeeken
ideale
verpligtingen
##ally
slands
##stammen
##avia
hoogmoed
duitscher
beta
hyacinthen
fock
herleven
tapper
doivent
immigratie
belangrijken
training
plak
vreeswijk
definitie
confession
##veelt
405
leelijke
teekende
heh
archangel
versier
requis
spijker
##bot
##binder
zalige
344
keil
wonderlijke
chris
inhouden
kuikens
uitgevallen
omzettingen
bergplaats
clement
##iene
i9
diese
locomotieven
##voe
mogende
opvoeden
beloop
##rot
##heuvel
tuinman
onschuldige
##ype
smaad
yk
##vellen
bevaren
feen
dip
raalte
bremer
##oloog
host
##lange
schokken
##eerw
septembre
herhaal
##bois
huldigen
forte
cris
##tet
##pos
twijfelt
rolle
vatte
objectief
zodanige
toekomstig
ernstiger
binne
herz
rabat
schoo
##endo
17de
ballen
##gart
##straft
verwen
oest
##beken
naturalisatie
ingevuld
woedend
##eizen
anj
amnestie
bijvoegen
spaarbank
runs
diaconie
gisting
##wie
##chc
dichterlijke
vermaken
intentie
execu
spa
bouman
wip
bob
mudden
vang
raadsman
stokholm
parties
raison
landman
persoons
behoeden
##inter
overwerk
circulatie
dergelijken
eenvoudigen
297
td
thou
rapen
gefloten
overladen
beschuldigden
harddraverij
mv
##uild
zuinig
planters
gewaad
alliantie
geneest
zoen
spee
kistjes
##voeging
niveau
neigingen
##gewicht
brittannie
##ettre
sais
kultuur
handic
bataaf
pikol
wapper
##nummers
##geding
universiteiten
hille
##ueeren
kleinigheid
dogmat
wending
##pligtigen
kerels
subs
##irer
metter
ub
toebrengen
bedankte
innen
molens
enter
diligence
##hai
##smeer
banj
##lampen
eti
geruimd
zwakken
pretentie
aanschrijving
arie
rustte
kabinets
direkt
celles
desverkiezen
parag
eigenbelang
mariniers
presidente
omhel
##aave
haaren
krus
opei
stir
anten
cru
bezochte
reparatien
dcr
bezette
calvijn
regelende
##loonen
wegd
onbez
allem
foorten
##eeschen
poor
causerie
##oij
##fchc
liberalisme
kramp
geboorten
oostenrijkers
##utions
geldelijk
dej
leerjaar
voorkwamen
isaac
##aauwen
charter
inzetten
negentig
##onische
nalatende
hypothec
poft
stall
seconden
berustende
marcus
tijdsein
afgehaald
omnibus
zongen
dioc
viert
industrieelen
djok
knechten
vetten
dadelijke
animo
voordoet
##spunten
zonneschijn
batta
zandvoort
vrijdom
weergeven
##wijgen
pavilj
##stigheid
##acle
kaf
pensioenfonds
regie
vermoedt
##eerings
##sti
gebrand
err
huit
afschrijving
frisia
zqn
cricket
##spelers
mild
redaktie
voedingsmiddelen
glor
scriba
juan
dg
onts
cultures
getei
moerdijk
voelden
vanzelfsprekend
##steun
prestatie
##meyer
donateurs
dalende
horn
kettingen
tholen
princes
aanhangige
lateren
personne
weldaad
hp
bazel
vleeschwaren
duo
coun
petronella
volbragt
gepast
frau
waterweg
slinger
fontein
##hcid
moog
dress
fyne
parmi
269
##ieland
brandewijn
medeburgers
middagmaal
ira
lp
##fait
uitwendig
bedde
tyde
mislukken
##stane
leith
##slig
rhyth
levendigheid
krop
accur
overmacht
cis
##ellende
vente
herstelde
ophoudt
incident
##pij
negende
##ression
ronden
gewikkeld
##oorts
##uchting
fet
##voud
##ermans
##ilatie
falmouth
studeeren
sportblad
stelsels
communic
##gezag
gesc
ostende
##arsstraat
bemoeij
rosendaal
glasgow
jack
rumoer
aanwezen
vcor
beinvloed
lunch
##traan
repond
##leging
andreas
stilzwijgend
##maten
suggest
ondergaat
brinkman
aanft
doodelijk
boompjes
vrankryk
334
##delft
520
boskoop
nomme
vitesse
##viger
letterkundig
mendel
ongestoord
overgeven
##jons
395
vervolge
discip
##mas
##alten
##omer
vroomheid
accomp
still
##ogenbosch
cura
##uitvoer
ƒ10
groeide
motorrij
geroep
##amd
tweeen
##marsch
roeien
##non
voltooiing
wegl
commisfaris
kater
abbe
toonkunst
weilanden
demi
chac
##cal
gefa
cro
treurspel
weerklank
bovenkamers
humeur
dramatische
geschoven
befluit
##oeroean
goltstein
iar
ift
adverteert
bevalling
meek
struiken
manoeuvres
recher
engelse
landschappen
kadastrale
gearriveert
aangekl
protestantisme
kog
mim
dagteeken
mf
geslepen
##geleerde
##derik
##rachting
uiteenloopende
gemachtigd
middelbaren
pessim
##undert
##groet
yver
aardbeving
##scommissie
aanbidding
##eill
verbeelden
##slaat
agnes
vervolgingen
bengaal
finland
cock
trust
tuffchen
hoorders
##eepte
longen
liefhebberij
grondwets
soerakarta
##vrede
spren
communisten
tte
meck
tiend
##kere
herberge
onfeilbaar
borstel
afget
rossum
montene
soon
##muur
looch
north
onderdrukking
erts
reformatie
zondagen
302
##klassen
##herziening
oudheden
geproduc
##kome
brown
beraadslaagd
bali
beeldhouw
compte
mechanische
roeren
pekela
medebrengt
gedragslijn
##pin
##bedr
luchtvaart
innings
luis
smirna
##pelde
rijkst
uitbarsting
##bele
beuk
uitstrekt
logies
##istischen
roland
pert
delfshaven
deeltje
##iar
stervenden
varkensvleesch
##hter
kerkgenootschappen
##zcl
louisa
intent
ontsnapt
##andsche
aout
beze
overgangs
##uner
doute
bezaten
##vind
##itive
aanwinst
publie
##admin
klauw
arends
trium
verhandelde
jahr
ongerecht
##pruden
american
##fois
surinaam
##angers
drentsche
onrustig
bouws
born
verzekerden
inhouds
azn
waarachtige
eygen
nietigheid
324
##icheyt
##klaring
##bec
leverden
##prezen
ginneken
afm
gestrand
nietwaar
erkentenis
307
belangstellende
wart
##baer
470
##congres
zwier
2l
werelt
afgeweken
oppassen
##concert
leermeester
marten
nieuwstraat
435
gehoopt
afwijzend
middeleeuwsche
ontruimd
##otting
phen
begrootingen
asn
laurens
vri
republique
pelgrims
294
konig
embden
wicht
verdie
kleedingstukken
##iratie
dooide
18e
grapp
##waters
zionisten
##controle
schaarsch
decembre
##vervolging
opleverde
##uizend
praatjes
318
fregatschip
##gevoegde
occasion
aether
kohier
##stro
idi
ael
##jus
##vester
zuigelingen
vaas
begunstigd
gedetacheerd
341
##gter
xxv
levant
nieuwjaar
kantonregter
merwe
benjamin
continent
##bewerking
arnh
aanblik
opsomming
gestelden
typische
rijkelijk
grif
weldadig
306
dcn
geconcent
roomschen
iis
##vain
beschaamd
partijtjes
##fels
oproerige
hotels
##undi
bresl
fraaye
gouvernementen
##buch
##pere
ijsk
279
sek
##stren
##geschoten
veluwe
schaatsen
atl
nooden
kegel
uir
##lamp
waagde
##uber
309
schedel
malang
beschr
riemen
wouters
ensemble
beurze
zusje
javanen
##opening
bacterien
pint
vorken
##handelaars
charlotte
voorgoed
koopsom
##verend
hopeloos
voorsch
zwager
pligten
293
fei
jaa
gos
bravo
scheuren
quartier
amel
wonderbare
imme
##sprekende
##museum
utre
##zyds
arc
##bk
rii
raed
##qk
##zichtig
schuttevaer
zuil
vd
##weert
teedere
monden
##haat
horizontale
uer
326
uitval
##udi
concilie
##ubbel
chlor
kostschool
##wellen
betwisten
monnik
##mindering
bataaff
kolonisten
iti
sik
bae
##acties
francisco
##voerd
haut
iem
1793
tering
oei
barst
leerplicht
ita
##huijs
strafv
foor
bezichtiging
daily
##ros
zedel
##waal
justice
##oie
ryn
##lea
bovengemeld
##voeg
preanger
verontrusten
kanker
voorafgaan
automatisch
##contract
afgezonderd
aangemoedigd
doorsnede
hongers
##rikk
tochten
##inent
##beslag
wedw
##3o
timor
eerden
beliep
rentende
zgne
ekon
##klin
direkteur
weck
opgestaan
pub
toets
vernielen
ferme
afdruk
etant
desa
porter
313
##ussie
##hut
525
##ondernemingen
gunnen
frei
octobre
rijcke
bekeken
plaatje
liedjes
bots
romen
orthodoxe
drukkende
##pie
schaep
mogelik
verkiezings
##steu
##hok
aanvaardt
dwing
##hoeve
hos
mettre
gemonteerd
aangrenzende
##quels
##scheept
blazen
prost
preeken
vue
ini
uitdrukkelijke
voorliefde
bemoeilijk
kantoorbedienden
19e
##ugge
magdalena
sensatie
fb
hulpbehoeven
leerzaam
ouw
typisch
openlijke
neue
totstand
afleiding
smilde
inmenging
onderhoorigheden
novembre
##iai
voorrang
orchest
zelfmoord
##onisch
jezuieten
##omd
trachtten
schuilplaats
ontrukt
metselaars
##under
zya
strafvordering
298
vreedzame
noordsche
vult
##linge
hac
##instr
##ouc
wederop
donn
egt
verdraagzaamheid
gewisseld
graafschap
dioces
waterloo
##aver
prediker
belangrijker
tyds
administration
verwachte
##ikkers
##tea
##cot
juw
teksten
onzerzijds
autant
##vue
inwijding
onderkoning
postrekening
reikt
vervelend
voordragen
adverteeren
communistische
##asen
marian
brikschip
moeil
verfcheide
gezelle
versteeg
teel
wolve
veenendaal
structuur
pb
##uiving
mozart
gecontr
onderl
bezuiden
schuldvorderingen
hoogachtend
verstandelijke
raf
verouderd
eerstaanwezen
willig
ader
voorfp
espagne
einem
evangelisatie
wissen
onbekenden
teveel
duivels
vrijheden
317
domicilie
■■■
geerts
uitloopen
toog
gelukkiger
ow
##astisch
f7
verstond
schakel
zaterdagmiddag
benauwd
gelukkigen
artikels
vooroordeel
##erik
vlugger
suy
verwisseling
verwagt
mme
##word
vaan
dialect
kenmerkt
getimmer
petitie
vtr
##ateren
posthumus
tib
nav
##esie
bejaarde
inteekenaren
huiskamer
weeskamer
adressanten
emanuel
schaft
vakblad
verdel
bram
peren
##verwante
stemrecht
getuigde
inschrijver
##tc
billet
##ouck
gebruiksaan
##fchalk
cylinder
##adigde
dry
beri
##rekkende
cuy
neur
occup
legaat
aanbreken
##rh
oosterbeek
formeel
gorred
toetsen
aankoopen
luim
kistje
beurzen
336
##uilles
graskal
##antsoen
patriot
verrader
##nig
vrou
##anke
geduchte
strop
##sclie
vromen
##andin
ifl
alarm
plenipot
##stellers
faust
celte
interet
verhief
begift
compareren
ambassade
##yst
chose
##holtz
schik
naauwkeurige
alen
spaen
achterste
onkruid
illusie
epidemie
keul
##film
landverhuizers
##periode
##eidend
##eljjk
##emat
besmet
hoofdsom
curie
berlyn
rost
hoogstraten
conservatieven
sons
##alistisch
berusting
neerge
brauw
##reve
apparaten
zanten
1796
##bris
salomons
complex
robb
gedur
nalatigheid
##bao
mohamme
zuchten
zeevarenden
3l
aanklacht
bevredigd
dapperheid
##handels
dif
betrokkene
##iler
##ymans
bibl
stervende
aantreft
##weest
bibliothec
theres
boekhouding
##fection
vlotten
leveranciers
data
drem
dronkenschap
voorstraat
hennen
##specteur
shall
urs
530
industrieel
afbreuk
paden
ront
##scont
nder
ontbrekende
##ijc
draaide
abe
ontdekkingen
##fers
circon
overwinnaar
kenmer
tafereelen
volbloed
vrijdagavond
onwaardig
##ourg
zweren
##skrachten
centrif
grie
vergelijkende
laak
510
##ved
velocitas
duif
##zichtigheid
achterhuis
snelt
gelijkstelling
kruin
hoornen
genoodigden
ƒloo
riouw
negatieve
schaa
uitreiking
##keb
burgerscholen
voorziene
condities
wam
kb
3a
aanbestedingen
besteedde
driehoek
351
artisten
##oman
##orkest
wascht
moestuin
aad
##scheu
qn
##conferentie
glimlachte
govern
##burgen
brutaal
rak
theorieen
##vd
##lande
##eeu
stuw
##lage
westf
drs
##hield
stemden
##anst
memes
oostenryk
joodse
##meeft
316
jag
##meet
organisator
noorde
tusschent
lieb
##ned
vernieling
kons
jelui
uitkomt
boterham
jawel
self
##motor
betoonde
matrassen
controleeren
zwangerschap
ongemerkt
##iteurs
stamp
iil
deutschen
synth
nil
etude
aangegrepen
eenc
kaartje
##igo
vrijheids
sja
hugen
koffiehuis
opstanding
vaatjes
##lezen
rokken
sow
plaatsgebrek
dair
##ueur
constantinopel
action
##denten
fabri
conclusien
zwolsche
romantische
rw
handenarbeid
salomon
leering
telephoon
##zeu
boerenknecht
blokkade
##etn
##vj
eetlust
##abelen
zyt
huisman
repliek
compliment
292
handje
aile
schrede
bebouw
brandsp
ingrijpende
gekookt
##cours
ocl
296
grepen
karren
1789
##stern
godsd
##ooit
knippen
onhoudbaar
voortgebracht
apostolische
willemstad
verdrongen
verbruikt
ftaan
##eidt
waterstaats
machteloos
vp
industrieen
vochtige
boeze
itt
theodorus
trie
raadsleden
voorkomend
jjj
##emens
vergiffen
voorzit
verstek
##tuin
abc
##bcr
ligting
lire
toenemend
stomp
dilo
##markten
dahlia
galerij
354
feijenoord
##aute
lompen
ingewill
##sterde
##vaderen
##okaal
bedwingen
ijdele
gaandeweg
grauw
overdekte
dolle
geopende
dessus
##voorde
##ftn
beseft
##dis
hoogt
voorbar
plm
santa
verzwakking
schryver
##ellschaft
gemotiveerd
haten
henricus
katholijke
bindt
gevrees
stookplaatsen
##voerende
##uiv
##vank
##uigingen
aanschaffen
##oure
##cede
negentiende
constitutionnel
##overs
verschiet
minderjarigen
ous
##vrouwe
wijle
beleefdheid
bewaarschool
fren
costumes
tcr
337
opzoeken
daai
veerkracht
autobus
narcissen
3500
##rod
geestverwanten
bijgevolg
toegepaste
##wijlen
maximiliaan
mjj
##andeert
nauwkeurigheid
##loopers
snoek
benadeeld
##elin
qe
kamertje
gewett
vitam
rondge
540
onroerend
hervormden
erasm
consist
peine
##verhaal
spij
##ouder
tusfchen
beleefde
##tijden
bewu
liedje
onthouding
zoowat
betrouwbare
voetbalbond
aangespoord
##quo
werklozen
rapporteur
zenuwachtig
ontegenzeggelijk
oxford
superior
gehoore
schaduwen
##idi
volksraad
##isen
schaaf
egen
aangelegde
##aaijen
yor
veearts
kinde
duidelijkheid
antwerpsche
rechtspersoon
##ird
ontrent
##ierp
verbindend
hande
343
bedreigde
jama
##cine
pendules
##fic
##beklag
scheld
mainz
##bout
iren
rochussen
##spoort
machinefabriek
##poorten
horizon
vertoogen
wereldlijke
shang
##huijzen
slijk
ivoor
vakgroep
becker
intrest
cig
alr
plagen
##gevel
overveen
stoute
afz
bocht
petten
voorover
hemden
recepten
##hten
belachelijk
baal
russischen
gastvrijheid
bott
voorschrijft
tenor
##havens
diana
wils
olijf
formaliteiten
attrib
aanhaling
verbittering
afnemers
goudsche
ongewone
##graving
ledematen
padvinders
##traat
ligne
##aisie
klare
##riaan
zittende
bankier
dwer
werp
maitre
turin
subl
eeni
koninkl
hinderlijk
stuiver
betuigde
sho
inheemsche
weldadige
950
chant
klomp
articles
zichzelve
##atic
kinderlijke
linten
nakoming
omgegaan
fg
bazar
dagt
bragten
j°
##deradeel
##feb
bosman
koninginne
overeenkomen
dageraad
##angan
zuivering
##lehem
constitutionele
##wonden
##uary
##rent
##cts
laatft
verliefd
299
rif
##winning
vod
waf
ziekelijke
other
bela
##insde
lenden
nagt
onverdr
news
##tar
pay
328
faits
betrokkenen
##eiu
verplichten
verbonds
342
##ingedam
plaatfen
vertalen
waakzaamheid
##mae
substituut
sion
roij
gedachtenwisseling
emmanuel
bevolkings
##adt
pondem
hingen
english
duchten
fragmenten
opgr
etn
##xi
maker
##zuchtig
debet
italien
ameub
vage
kleyn
##vac
dreven
##pelt
contante
huilen
##wing
uitroepen
ivan
359
qr
kiesvereeniging
##etl
bezigheid
kf
##ariers
reprod
prok
voortge
rijdt
antip
geloofsbelijdenis
gepresent
province
aankondigingen
beweg
verein
remise
wijdde
voortvloeien
concession
voortbrenging
##branden
##vorft
625
##bbelen
lusteloos
dinsdags
##fifche
##ideo
volkshuis
leerkrachten
nii
egalement
grietje
studies
##lijcke
elkanders
ingest
desverkiezende
uitdrukt
##abric
praatje
possible
verongelukt
##gezicht
emigratie
371
drijvende
verpacht
byde
roche
k°
verblijdend
bibliotheken
appellanten
intrig
grondbeginselen
##ledig
woeker
bekost
gezuiverd
##oeff
##stor
zuidelijken
gcr
opbrengsten
toevlugt
onontb
midi
afwijken
verbruikers
##vm
##bod
deme
slaagden
stadskanaal
reich
gebaren
verwey
gladstone
zevenh
gennep
feestviering
ditzelfde
##cid
russie
##vangst
toppen
##opel
ambtgenoot
katholicisme
aul
lequel
belt
##ification
welen
##schaar
lugt
vergiffenis
verondersteld
prospectussen
##proeven
association
##jp
parce
diamantbewerkers
##reizen
verduidelijk
gemeubileerde
staarde
experiment
##atisme
##eende
heug
etiqu
wedervaren
verbreiding
realiteit
560
annees
edition
vallei
1790
##blazen
##ague
plut
theolog
ontbinden
assisten
leerdam
afspraak
versterkingen
openingen
verfcheyde
franko
portuge
kreten
319
concurrent
walcheren
uitput
onpartijdig
pang
arbeidsbeurs
teruggezonden
cyn
oprigten
groenland
ebben
volheid
feestavond
##treden
meeuwen
malaise
beschuit
samenge
schreeuwde
##soh
353
stakingen
voorshands
radi
verjaring
##ouve
bijgeloof
beloopt
##ografisch
diene
typografen
wf
amste
##zelaar
ierland
##unr
episcop
noort
congressen
klapper
ondeugd
welhaast
rabbijn
failliet
menschl
byzondere
confr
req
voering
toeren
##snoer
ming
##udo
nederig
mannheim
verklaarbaar
aanmelding
consent
algerie
uitspanning
sinen
jaare
kassier
kajuit
gewasschen
##ooper
##blauw
benut
dusseldorp
327
sigaar
naaien
generatie
onderdaan
##ims
pse
dorsch
eys
sawah
toeger
bras
koestert
scii
##crk
hofman
filiaal
misdad
onderdrukt
sluier
fullen
##bruin
vatic
versleten
dent
##ffening
ooms
juda
gestremd
bedwel
waarschuwt
nig
##my
jau
##oosheid
achterst
landstreek
onverminderd
eijk
regeeren
peuvent
logementen
allerhoog
capelle
##genten
opvoedings
douwes
##edi
isden
gelde
arriveerden
regime
hilde
koningschap
nijgh
zwijgt
wiersma
verlie
madras
spruit
##sverzekering
inrichten
##cta
verrassend
uii
##wijden
kiek
moeras
kaper
krachtdadig
kwe
363
##ochter
welbekende
oren
vliegend
rink
reikte
schandelijk
link
appingedam
insgelyks
##kje
3en
volkomene
partyen
begrens
raat
logische
avonturen
cirk
geac
ett
schalen
begeleiding
savonds
jje
##ingerd
verleiden
##garen
liggend
##verdediging
gand
ngen
keizerlyke
levertraan
ontleent
##oelie
keyser
potjes
##eiing
toereikend
ood
tgd
deselve
heijden
ingeleid
fevrier
##53
##install
nieuwsberichten
theo
mosterd
##uters
grondstof
uitvoeriger
regentes
voorbeel
chevalier
zomermaanden
machte
boud
naat
##mos
##vreugde
wandelingen
boerenstand
##aaa
sints
zeugen
##sal
##oscop
hoofdakte
##zuster
jicht
musique
amboina
manch
##vorsel
inboeze
##afdeelingen
onafscheid
kerkvoogd
ophelderingen
kruseman
clas
citroen
vlier
welgelegen
coal
##dege
repetitie
inlijving
##nas
coninc
##eleg
luthersche
extre
##got
afgewisseld
##wert
vernieuwde
pab
smer
vriendinnen
opgerichte
uitbet
hirsch
circulaires
tractaten
##etien
ebb
bandj
##52
znllen
352
krak
breukelen
arrete
hulpmiddel
ouderling
##plaatsing
certain
spuistraat
regte
assemblee
ingewilligd
zakdoek
acn
aanvan
verrassende
snik
beetwort
dige
mental
agtfte
##woon
dwalen
belgischen
auteursrecht
##cir
ontrouw
##acket
##iji
##alken
instructien
dwalingen
323
bedelaars
hartstochten
benk
##1111
principaal
##eira
werkkracht
##ppe
chiff
vermaard
##issent
crt
telle
onwaarde
waarschijn
aande
mia
gebra
##renkt
civile
fchepen
fleschje
##rado
wikk
lank
missien
##hulp
onbevre
phosphor
aga
##mund
gesleept
reflecterenden
prochain
338
lect
afgelost
soem
iaar
malaria
##lieid
##cj
sile
##oefende
verdaagd
##hren
makkum
jurispruden
duis
geschool
bieren
concurrenten
##paden
##eleu
##ypen
voorschoten
strate
kundigheden
##issant
noen
bath
kappen
alliance
tod
##bespreking
krijgsman
voortgegaan
daargesteld
potlood
refpe
stierven
scheepen
sterkere
ordinair
horologie
bestudeering
fed
schult
doorgevoerd
##ipe
vredelievende
handicap
uitsprak
plooien
##court
ingewanden
##structie
requir
hamel
##oosde
foude
campen
##orius
amour
mok
terzelf
##gerukt
eenzijdige
##ueu
kuste
##zwering
geldige
348
comptoir
uitvloeisel
lepel
letterkundigen
correctie
rauw
##couranten
##fcl
lh
infectie
parel
behaagde
souvereiniteit
##derend
chloor
hoving
##orts
##betoon
interessen
vijandschap
bevl
split
verhoogt
chemisch
minus
gunsten
zaakgel
voorzorgen
ballingschap
cleef
##oping
verkoud
##fti
brusselsche
fv
weduwnaar
verdenking
gedelegeerden
leerden
ambtshalve
werklooze
meren
vec
moedigen
voici
beletsel
maandagavond
weled
##arest
##vangend
aid
sociaaldem
grazen
##mor
##keuze
voortspruit
##57
bevoegdheden
##ofl
relief
##uyden
liqui
roord
##andi
##anj
weesper
afzen
rijck
terpent
dene
##onse
##kron
messias
##lois
verscher
vertroost
kijkje
schandelijke
bouwt
grauwe
gratama
spanjaard
##vais
bewoonde
centralen
wellington
waarborgt
goedkeur
##itisch
jonck
pasteur
eie
niot
tuchthuis
oy
##geleerden
correct
schitteren
pistool
490
##atoire
jw
igt
oppass
##ulier
lisbon
oppervlakkige
francisc
##steek
vernedering
bend
krijt
##ijder
##lykheid
adresf
driel
suisse
##appers
rechtbanken
gelijkelijk
##uites
wording
##aye
geschiede
betrouwbaar
lotery
keten
teere
##leveranc
9de
rappard
voertuigen
laatstgenoemd
race
makassar
aanwijst
persen
##amt
kina
aldoor
perioden
vernietigt
##zeil
permissie
##smaatregelen
##vaarts
interc
ontvan
klaagde
conditions
rouwbeklag
wering
##hoeden
tunis
##asin
##gift
verloskundige
##ysteem
voorgevallene
geloofsbrieven
prestaties
femme
wilskracht
ftaet
wcl
##phe
actu
bagger
conversie
marchand
##behoorende
geduurende
onmet
gehuwden
vif
##bell
pape
coo
gevulde
oll
##kleurige
##god
##hrt
##inis
bijeenkomen
##ains
##perken
suivant
potgieter
hervatting
strijdende
decret
hulpe
toenmaals
paraplu
##bedoeld
332
greenen
ath
gevoeligheid
##iffe
brein
violen
##stert
stemme
bewerkstelligen
##fsen
reinigen
vermaning
secunda
gedat
shage
##numer
geheil
culem
elfde
##dcr
natuurlijken
bernardus
siam
zionisme
denkbeel
debiteuren
zegevieren
klerken
##wold
handelde
south
##opleiding
dusdanig
leerplan
brandst
instinct
confir
opvaren
marok
##hals
16e
vg
vereischen
onontbeerlijk
hoi
391
##bijd
beters
gilden
ongewij
diversen
##lenburg
anvers
besprak
bulgar
wesseling
voix
sabbath
zangen
##krompen
chaos
behoeftigen
##nat
flo
rans
##56
onvermoeid
moois
amsterdammers
meed
bedragende
chateau
attest
kragt
tech
hoedanig
grimm
afged
374
##aamen
soldat
##ioneele
nakomelingen
strepen
loosjes
vangst
##olaas
##woorde
gassen
zevenaar
berging
bebouwd
##aemt
verwisselen
kristallen
hammen
##vres
vijgen
##oestanden
##cap
##dtn
kostelijk
transform
godefroi
##achtigheid
selfs
wintgens
hongersnood
##ographisch
feilen
varia
##midden
pokken
kampioenen
factuur
afscheids
opziener
halle
##sbergen
territor
cout
vermet
##weegt
heersch
miliciens
##kui
##ancy
uytge
##nements
toedoen
##lerdam
boen
stoornis
fd
verwaarloo
##icher
ontspr
geschokt
keurt
verwijst
soliditeit
kaartjes
conrad
herziene
ontsm
wanhopig
kuilen
zondagavond
deugdelijk
jouw
belastingsch
kul
levenswijze
kloos
ovcr
°r
sher
arl
322
vooruitzigt
leerredenen
##afd
hoofdkantoor
glei
verrukking
veroorloo
dragers
inten
linkerhand
linc
vicaris
belette
werkjes
sunt
##dochter
backer
commenc
luidr
##ather
plym
determin
juich
hoy
stern
steenkool
erp
godes
##onym
##schuur
trommel
##uidt
aenge
##ooken
regier
huizes
gevreesd
434
drachten
ees
muil
psychologische
tactiek
gedis
schepelingen
uitwerk
naardien
bestaand
nede
##ilite
##stellend
distrib
hardenberg
dienstwe
bult
haai
welsprekendheid
bloes
##ofs
onvermijdelijke
##uti
namaak
##bonte
stembus
##unning
##waerts
vendum
geloofsgenooten
aie
##omt
##entwintig
##inking
kortstondige
##roode
grooteren
volmacht
these
401
voorrechten
##aanschen
uiteinde
onderde
volledigheid
vant
beduidend
hoogheem
staathuishoudkunde
##moezen
##ront
kralingen
briefkaart
faite
vermeerdert
##verenigingen
##ermeer
hoogstdeszelfs
339
deensch
##ullingen
bange
##urch
moedertaal
##ijnd
onhe
##waarschijnlijk
afdw
voorwoord
347
voorvaderen
japann
geheimzinnig
##ags
329
tamb
zonk
jurisdi
##dezelve
buffel
opgehaald
wech
zeewater
repert
classe
##aiid
361
##daad
cli
##briefjes
uitstapje
##maa
allerbeste
weigerden
dante
achterzijde
bezw
pretende
majest
onderhouds
doorloopend
crom
vereenvoudiging
bossen
oegst
mcn
belend
klompen
##oln
friesch
deri
##iiie
baker
##auf
##tain
gestem
medici
heils
inscript
gerichte
##hus
bezochten
rader
sappemeer
##ooden
groothandel
onrechtmatige
sprookje
zeventiende
louw
gerief
##omische
ouvr
hertogdommen
menigen
spraakkunst
stokken
economischen
##oodig
##ads
rene
m2
berge
versterkte
stortte
judic
eindelooze
##last
familieleden
duurzame
##clen
ams
kloven
artist
opged
##schuit
bste
kleintjes
automobiel
##erieen
zender
domm
##meub
groeiende
overtogt
perfonen
uitgebreidheid
##erus
schamen
##proces
helderheid
##bewustzijn
vare
bepleit
oek
klucht
##bac
##brander
hansen
line
beit
geempl
veor
heir
dienstbetrekking
woen
ethische
##nson
384
ontvangene
nerva
##agao
##uzie
faute
rubrieken
odeon
verontwaardigd
##aarns
teekenaar
inen
beschrijvings
house
##bestrijding
herhalings
##deen
dauw
bergum
##ogene
##hg
boorden
##aja
##rey
gehuurd
kontra
kolossale
##idem
kathedraal
epis
bewapening
consequentie
##eia
afstammelingen
gue
zaakgelast
aangenamer
posth
postma
amf
beducht
##lad
##docht
omsl
zouten
##partijen
tjil
parfum
720
voortvloeit
gin
leendert
vlies
juisten
herald
bataljons
moetende
klaarheid
berecht
##beurzen
etoit
diagn
trotsche
gorredijk
gewigten
pasoeroean
##bogen
uitging
##itsch
nye
##untius
doornen
else
##ballers
##alers
behield
gevolgtrekkingen
373
##spersoneel
schone
##scheep
cachet
periodiek
##neuveld
schermen
papen
##bedrag
drukking
twel
prolong
##voord
verhoeven
##ballen
beramen
dubbeld
meldde
doeltreffende
nebben
364
mitt
almacht
elzas
regters
##schoen
personn
geloven
molt
deswegens
flam
adresse
##shoofd
irt
onmacht
tweejarig
aangeraden
##aca
caract
lub
saizoen
##speel
palais
oan
##worst
ladder
##yss
amph
plaatsvervangend
lochem
##ilit
kanun
gond
##erson
waagt
zq
groots
meteor
munitie
rechterzijde
independance
aanzoek
##glazen
vermeende
voortgekomen
eph
qualite
##pannen
diesel
gorcum
ontploff
##verse
afschriften
billiton
##ansport
tro
verber
verpleegden
358
verbrijzeld
bethlehem
harp
##ermo
##cov
instruction
milt
beslagen
heukel
slaapt
martelaren
gemeentelijk
beveiliging
doorloopende
##lemans
verhindering
nieren
beschuldigen
##iekosten
uitgeloot
349
bolsjew
##scl
duidelijkste
kinderlijk
eest
##voets
eindexamen
moc
kuituur
##aagsche
verhevene
##porteerd
damrak
agatha
##uatie
kleinkinderen
carton
##laat
denen
waarnemend
##poor
volmagt
tuintje
dte
berken
##uly
faveur
langzame
caf
veth
faam
vinn
denkende
byeen
rudolf
ontoer
geschaard
verdrukking
revolutionairen
pann
huiss
boerderijen
hitler
##anks
cremers
weerstaan
gooien
belen
overschrijden
artikeltje
##kelder
wandelt
society
vacante
voltal
opperste
samar
verzegeld
bataaffche
verit
verdiept
range
prijscouranten
huzaren
bertha
onnatuur
##oneerd
twy
interets
##hampton
huwde
pachters
bw
bleeker
stavoren
passagier
nageslacht
##opers
psychische
convoc
volgehouden
eni
gif
##odie
i8
aag
bedaren
##petten
##wollen
bequ
##otter
##ochtend
medicus
claes
ammon
gewillig
verhard
vertegenwoordigende
elburg
jantina
bestendig
##beraden
klip
schenking
##eemen
gerhard
gout
nieuwland
aangenamen
##kolen
verblijd
driebergen
vaandels
ttt
##leman
devotie
##rekenen
nuit
elzen
##vaarders
hoofdde
##leeraar
elegant
357
atchin
palmflag
bess
mank
juristen
pieces
discipelen
zegde
declam
##igi
nagekomen
fotografie
##elting
gunt
interpretatie
onbevle
vien
nagezien
lezeressen
elo
##jaagd
hoofdcomm
hosp
mystiek
bacon
##bourne
journaux
egypten
onbekwaam
1803
hanen
##58
arbeidsdag
zuinigheid
schroefstoom
harry
580
iia
9000
verleiding
vliegtuigen
kruisen
##visscherij
ferr
##zanten
livre
breslau
##ersberg
vergissen
##deri
diameter
##hoof
landgenoot
inspannen
##lp
edward
yi
berde
gepraat
##elijkt
allgem
gardes
##verzorging
mohammed
##aret
buk
##59
overftaan
logica
geroemd
overvloede
beweegredenen
wederkeerig
parma
deal
nagaat
##slagers
boxmeer
terpentijn
##pro
brandschade
slepen
##melen
ongenegen
356
afzondering
geproc
wedde
losgelaten
machts
tort
daat
afkoop
coin
##omed
##priester
werker
schelen
ito
burgwal
##igend
##esis
ongeorganiseerden
lorsque
neerleggen
ongunstigen
gher
vermist
##usch
onbeh
etten
bewij
gezaaid
iaat
##wm
betekent
dint
spoortrein
persoonlijken
##3t
conser
##cring
toegediend
dtr
huns
gereduc
jaargetijde
##erto
hoogerhuis
d©
alte
opgeofferd
372
guit
localen
kavelingen
maint
opmerkt
ontve
##ahl
##erne
sopraan
vorstendommen
verdiepen
centra
##namenten
1791
##schakeld
waarneem
##rio
##ensis
treub
surnumer
blozen
geeerbiedigd
ondergebracht
ontbroken
woude
mieux
378
bcl
jansz
aurora
dynastie
sect
protesteeren
##seigneur
##maanden
besparen
reservefonds
##verschijnselen
bamboe
berlijnsche
hygienische
telegrafie
kroost
##verschil
slow
abonnements
nations
boas
ertoe
polemiek
grossiers
huurders
samenstellen
spion
##veert
afstamming
afgevaardigd
##agien
##vulling
ballon
##ijning
gepresenteerd
zwaare
onwrik
381
tip
##vreemd
##banen
berekent
goddelijken
kod
kwa
##leveld
gereedschap
alwaer
cord
feh
gogh
revolver
pharmacie
socialistisch
##sterer
##ilius
vrijspraak
multat
accent
koln
vlaming
gemachtigde
bekleedt
ooste
rijd
voorwaardelijk
uitziet
heengegaan
##riep
vermoedelijke
schuldbeken
gezochte
##verbinding
wv
heter
##zitten
prijsopgaaf
ange
gende
##verhouding
gesprokene
##instellingen
gezusters
heimelijk
##usement
boekverkoper
rennen
ane
valent
##aardappelen
##sg
##inj
terp
##spreid
frankf
stroomingen
vooraanstaande
##fehap
verhindert
duk
##aaden
##icaal
clen
revolutionair
slaagt
syst
##buizen
gevreesde
gedest
moordenaars
deputaten
zonlicht
gecommitteerde
ontt
provinces
laatstgemelde
##schieten
drui
verliep
koninklijken
##volution
gelderschekade
roose
##stokken
##gestelden
kommiss
secund
nabuur
ernest
devoir
##owski
juffers
fucces
##auen
rijpe
first
##rime
such
fabel
gouvernante
reen
##atoria
liede
##yc
groten
weefsel
geass
emile
fractie
sympt
onderkrui
##ske
bedreigt
wijkt
366
douane
sce
reconventie
##oppingen
##veerd
daerom
inspe
krijgsmagt
##juffrouw
##ady
pros
agio
snijders
consumtie
nooten
##heorie
miz
cocos
carr
##aliseeren
achtergebleven
opvolgen
veghel
machinisten
pantser
ema
gekenmerkt
kien
onderwijl
poogde
spor
smakelijk
meestbiedenden
##hib
gp
doofst
gepleegde
bloc
uitgelokt
entier
nia
elck
##ustrum
acclam
vermeent
veldwachter
thesaurier
##adier
monseigneur
portsm
overtoom
##stallen
geboekt
sart
kaapstad
burgeroorlog
ingewikkeld
inder
duyn
vijzelstraat
mieren
verwantschap
opene
meedoen
##elman
ingesl
concent
numero
##riften
jnn
smeden
internationalen
respective
joeg
knollen
sz
gedrang
altona
ooften
ooc
uitvoeringen
##genot
##estie
saa
herbergen
voortkomen
##nur
wijngaarden
441
##lent
openbaarheid
merwede
onderofficier
onverklaar
koot
doeltreffend
##ablement
sovjet
werkendam
cenige
##arisch
iir
bewilliging
lustig
gerritsen
doctr
achtervol
##atine
resid
##oningen
opgewondenheid
principale
bapt
##oine
behuizinge
baby
stere
zood
gehuld
gabriel
##zaden
ornament
##beker
##elens
gedroogd
mehr
gebukt
##zegt
openbaarde
velzen
##heb
navar
##cule
opmerkzaamheid
bezorgde
beschermende
rijdende
plais
##inth
aanhoor
brandweer
total
verbeek
hinderpalen
cingel
##zeling
opmer
beple
bai
##zan
saar
deug
onopgemerkt
##iandsche
oneven
schuldigen
statistieken
##itf
bommen
vertellingen
zing
2b
##lot
verdubbeld
##ireerd
day
##skas
stief
verbij
##verandering
foi
rijkste
feuillet
416
myt
broederen
baak
°m
##toezicht
opdragen
##adigen
##digers
serr
gebruiksaanwijzing
fres
ongeschonden
##iip
germaansche
quer
everts
clan
maendag
overwicht
overeind
benijden
gebeds
cm3
rde
opgezegd
wierpen
inkrimping
kut
boekerij
discours
driftig
wrevel
##ckens
##ommige
joodschen
erb
ingewikkelde
kooy
wreedheid
scheffer
interventie
##seht
bouten
analog
vertering
##ameld
ontstonden
##vecht
leverbaar
##iseurs
betuiging
weerbericht
zone
perken
heine
vereenigden
akadem
subsidiair
jesu
assistentie
vrugt
naspor
lusten
waereld
##blaak
beklaagd
##arg
keurmeesters
werde
omvattende
different
capitaine
ftukken
primaire
onoverkom
##perus
benkoelen
aangeduide
uv
##ciie
onverantwoord
##kreet
renv
attesten
346
gap
barthol
bies
minvermogen
philant
divis
##bruikt
gezegende
versta
handhaaft
##orb
gerechte
##olk
would
lxx
beleedigd
##adeel
gegarn
i5
iwee
fantaisie
torpedo
bz
ije
1780
philippe
bourbon
glijden
gastheer
beperkten
##schep
##idg
abel
koolzuur
gevoeg
ontleed
stek
naaimach
jammerlijk
reep
oorspronkelijken
correction
gewoed
arbeidskrachten
conflicten
##eeps
woelingen
fischer
##levens
burgemeesteren
welbehagen
commentaar
juffer
##pensioen
dilig
##wic
kessel
##zit
hondert
##stelingen
suerm
stroomt
aangebrachte
bepaal
ongekende
ouver
##andes
##redi
wans
10e
pod
°f
denkwijze
##cne
outre
##illard
steller
wortelen
bedenke
voldoenden
kussens
mesures
gloeiende
savoir
bantam
geput
getekend
houtstraat
vijands
[...]
